e s</w>
e n
d e</w>
a n
o u
o n
t i
q u
a i
l e</w>
r e</w>
o n</w>
e r
l a</w>
e t</w>
e u
p a
e s
i n
en t</w>
p r
l es</w>
e m
i s
e r</w>
n e</w>
o r
t r
a u
e n</w>
t e</w>
c h
d es</w>
l '</w>
o m
l i
qu e</w>
a r
a ti
d '</w>
o i
c e</w>
s u
s i
e l
a v
c on
u n</w>
r i
d é
d i
p ou
a l
d u</w>
es t</w>
an s</w>
m e</w>
p l
em ent</w>
r é
t s</w>
u ne</w>
an t</w>
t re</w>
t é</w>
r e
c i
s e</w>
c om
v i
on s</w>
pou r</w>
a g
ou s</w>
a u</w>
ati on</w>
ai t</w>
a c
pr o
d ans</w>
pa r
a t
on t</w>
f i
a m
p o
qu i</w>
r s</w>
eu r</w>
s s
i l</w>
i l
a p
ti on</w>
t u
a b
e t
é e</w>
ai s</w>
u s</w>
su r</w>
r es</w>
e x
n i
t ou
pa r</w>
o l
ou v
é s</w>
t es</w>
é r
on n
pa s</w>
au x</w>
g r
u i
e c
qu '</w>
c u
é t
eu rs</w>
eu x</w>
ai re</w>
pr é
el le</w>
pl us</w>
e c</w>
i m
s on</w>
t er
m o
f f
en d
c es</w>
p or
p er
ai n
av ec</w>
è s</w>
a l</w>
f or
è re</w>
j ou
en t
o u</w>
c ou
c a
r o
b i
qu es</w>
c o
é ri
a s
e z</w>
s er
n o
é es</w>
s t
l u
d e
et te</w>
n '</w>
s es</w>
ag e</w>
v ous</w>
oi s</w>
m i
s ont</w>
s '</w>
L e</w>
v o
an ce</w>
p u
en ts</w>
é g
oi r</w>
t en
m es</w>
é l
a d
e l</w>
2 0
u s
r es
er s</w>
com m
t er</w>
i e</w>
o p
ati ons</w>
s e
e u</w>
g u
d is
é n
em b
i s</w>
é té</w>
I l</w>
L a</w>
l o
a le</w>
s i</w>
m ais</w>
m in
j e</w>
v en
m ent</w>
si on</w>
p i
ch e</w>
L es</w>
m on
tou t</w>
par ti
n ous</w>
a t</w>
en ce</w>
a li
ê tre</w>
ti ons</w>
c ette</w>
d u
g n
po s
s ou
r an
r a
oi t</w>
m ar
. .
is e</w>
c l
s a</w>
g e</w>
l eur</w>
e au</w>
tr es</w>
p e</w>
g i
com me</w>
b u
a n</w>
o b
m ê
m an
c e
p eu
an ts</w>
t ant</w>
em p
f ait</w>
t és</w>
v e</w>
in e</w>
v er
es s
.. .</w>
tr i
t h
en s</w>
an n
ai res</w>
l l
ai ent</w>
en tr
in s</w>
a i</w>
il l
l le</w>
s o
mê me</w>
is i
l ement</w>
c er
em i
c '</w>
for m
1 9
el les</w>
ab le</w>
or s</w>
or i
t e
a ss
l is
t -
bi en</w>
pr ès</w>
en ti
con s
p é
in ter
u e</w>
al is
an d
pré s
L '</w>
é c
p h
al l
f on
f aire</w>
ou r
ai n</w>
ss i</w>
pr i
en tre</w>
t o
u ni
su i
b li
an d</w>
su r
è me</w>
per s
d eux</w>
c or
ap p
d r
an g
il s</w>
p e
c r
tr av
p on
au ssi</w>
d er
ui s</w>
qu i
C h
o c
f fi
f in
t eur</w>
E n</w>
i r</w>
pr emi
ouv er
is s
oi re</w>
n ouv
20 1
b le</w>
is t
é m
tr ès</w>
ét ait</w>
al ement</w>
om b
pou r
tu re</w>
c ol
c tion</w>
p uis</w>
u ti
ti que</w>
ai ne</w>
in t
d ui
0 0</w>
u n
l e
ou r</w>
dé c
f r
lu i</w>
a ce</w>
an de</w>
r en
u r
t a
em ents</w>
s ans</w>
t emp
av oir</w>
m é
end re</w>
fi n</w>
tr ouv
ti n
d onn
pu bli
po si
s y
a s</w>
f ois</w>
qu el
con n
b l
en s
ai s
au tres</w>
i t
e ff
c ar
com p
é v
de v
c ation</w>
peu t</w>
J e</w>
u l
vo tre</w>
t ement</w>
j '</w>
h i
om m
on ne</w>
d em
m et
d re</w>
cu l
è res</w>
ar i
av ait</w>
pa y
20 0
ai ss
con tr
jou rs</w>
c i</w>
ati on
r ap
tr an
g ar
a î
j us
t ous</w>
an te</w>
ar ti
ti onn
o ù</w>
en ne</w>
temp s</w>
pa ss
l eurs</w>
v oir</w>
u m
g ne</w>
pers onn
s é
ai l</w>
so ci
ai son</w>
C '</w>
s or
u i</w>
re c
ti tu
po li
n es</w>
der ni
ain s</w>
pl u
v re</w>
pr es
in s
co re</w>
c ri
o s
ai ll
g én
il le</w>
pe ti
c ré
d i</w>
ag es</w>
au r
tr o
au t
d ont</w>
uti lis
C on
v ent</w>
l s</w>
mo ins</w>
con tre</w>
s eu
an c
d es
por t
n ation
au t</w>
a y
h om
a près</w>
en te</w>
ch o
ch er
p end
P ar
i que</w>
j u
en core</w>
v es</w>
c é
p éri
d s</w>
ali té</w>
jou r
d on
v oi
r ou
il li
ain si</w>
vi e</w>
por t</w>
si d
c el
r em
s ol
a les</w>
f s</w>
o i</w>
p eu</w>
ar d</w>
M ais</w>
j et</w>
Q u
gén ér
n omb
ran ç
r el
i n</w>
g an
di t</w>
d ou
tran s
I n
au tre</w>
ec ti
m a
di ff
F r
P our</w>
an t
ol o
b ou
cou r
cer t
e -
e ts</w>
es ti
C e</w>
pay s</w>
s -
en f
in t</w>
u re</w>
j eu
ég alement</w>
av ant</w>
f u
é qui
ser vi
es si
tr u
eu ro
E t</w>
l on
don c</w>
e v
p li
cou rs</w>
ac ti
el s</w>
pr en
r ement</w>
li té</w>
f ai
no tre</w>
él ec
é ch
an ti
v ers</w>
su l
de puis</w>
par t</w>
ain es</w>
cou p</w>
pro dui
ce p
f a
d o
A l
entr e
e au
at eur</w>
a r</w>
r is
li b
prés ent
al ors</w>
O n</w>
d er</w>
a di
t eurs</w>
Fr ance</w>
ser v
or gan
in ci
c le</w>
v el
ar g
emb re</w>
in di
eu r
s ous</w>
c ro
A n
ch es</w>
C om
m en
U n</w>
v isi
jou r</w>
gr ou
E lle</w>
an ci
n on</w>
N ous</w>
is te</w>
mon de</w>
pend ant</w>
col l
s oit</w>
is es</w>
ê te</w>
ab les</w>
m on</w>
ser a</w>
s al
a ff
v r
gu e</w>
pro gr
v ol
p ec
t u</w>
e ill
a ch
op p
s ec
a que</w>
ar ri
ti ques</w>
ç a</w>
tr ai
is sion</w>
in form
f l
o s</w>
ré gi
ch er</w>
m illi
v is
pr endre</w>
min is
U ne</w>
t ent</w>
en ces</w>
oi n</w>
r u
ab i
E S</w>
f er
M ar
r a</w>
diff ér
D ans</w>
U ni
emb le</w>
tou jours</w>
o ff
r ait</w>
m ent
l ég
el on</w>
tou r</w>
sui te</w>
m u
vi r
ch i
ré e</w>
o ci
qu es
l à</w>
ui t</w>
J '</w>
mi s</w>
m ati
ca s</w>
m or
si tu
dé vel
o t
A u
man i
g l
quel ques</w>
mé di
con om
si m
v al
S u
es se</w>
m at
f aut</w>
posi tion</w>
f em
tou tes</w>
parti e</w>
organ is
eu re</w>
fi l
é tu
ch é</w>
m '</w>
pos si
em pl
pr ise</w>
premi er</w>
li eu</w>
at eurs</w>
tou te</w>
an ces</w>
si eurs</w>
pl ace</w>
dével opp
vo y
œ u
i gn
t ation</w>
f am
sy st
e aux</w>
no s</w>
o y
el lement</w>
eu se</w>
er re</w>
con cer
b les</w>
é li
c li
pr is</w>
ouver n
tri bu
trav ail</w>
T I
é conom
v a</w>
tr ois</w>
b eau
g ie</w>
am ment</w>
h ist
S i</w>
met tre</w>
C ette</w>
ab or
ac c
V ous</w>
m es
an tes</w>
f ér
su is</w>
ce la</w>
E n
pr inci
qu é</w>
f ranç
D i
ou l
a ts</w>
vi ent</w>
com pl
tou r
m et</w>
su p
g ag
premi ère</w>
m al
ca r</w>
c an
p es</w>
j à</w>
i d
di re</w>
pu l
p en
pé ci
b o
ch am
t at</w>
ô t</w>
en n
pou v
P l
ann ée</w>
19 9
plu sieurs</w>
pré sid
qu and</w>
di rec
jus qu'</w>
d é</w>
c lu
vo s</w>
d oit</w>
dé t
d om
c am
c in
in st
m a</w>
A r
dé jà</w>
s péci
g ouvern
mo y
ch ez</w>
no t
si ons</w>
r ent</w>
av i
c et</w>
ré alis
por te</w>
res pon
p le</w>
personn es</w>
in g</w>
M on
in g
par t
ann ées</w>
ci té</w>
l a
for me</w>
su s</w>
m ois</w>
at t
pl ac
qu er</w>
int ér
s se</w>
vi lle</w>
parti cu
é b
com pa
1 0</w>
te ch
app li
emb l
or s
s an
po se</w>
j am
ri r</w>
O N
beau coup</w>
é di
s ement</w>
c ô
s tr
l ors</w>
0 00</w>
ch aque</w>
re cher
ai se</w>
bu t</w>
ati que</w>
D e</w>
E N
euro pé
gr and</w>
si gn
en vir
ré pon
op ér
hom me</w>
ar r
po int</w>
è ne</w>
particu li
m om
sui v
ni v
C omm
i dé
ac tion</w>
p s</w>
pro f
eff et</w>
L i
av ons</w>
comp te</w>
h o
ffi ci
acti vi
si te</w>
aill eurs</w>
M .</w>
ô le</w>
ven ir</w>
n at
i ti
progr am
pro t
s elon</w>
dé r
poli tique</w>
con fi
grou pe</w>
f ace</w>
h ui</w>
u tion</w>
p ens
z -
nomb r
ac tu
éc ri
dr oi
t- il</w>
comm un
se il</w>
n i</w>
m er
ta ts</w>
r è
t on</w>
ri en</w>
t ée</w>
mo i</w>
on e</w>
enf ants</w>
au c
jour d'</w>
c ap
not amment</w>
s em
u m</w>
fon c
b on</w>
T ou
2 0</w>
eu ses</w>
a fin</w>
v ement</w>
n éc
qu oi</w>
g e
gr ande</w>
pri x</w>
1 8
g es</w>
s ouv
nouv eau</w>
g er</w>
derni er</w>
cu ri
as se</w>
gr ap
pr ises</w>
i t</w>
ac cu
a te</w>
m ain
tru c
R é
jour n
b es
pro du
er a</w>
es p
3 0</w>
rap port</w>
A N
D E</w>
ac cor
sou r
è rement</w>
con tin
s oi
peu vent</w>
pr im
a se</w>
parti ci
qu a
v ue</w>
or d
t able</w>
c at
ten ir</w>
en tes</w>
i r
syst ème</w>
i té</w>
dé cl
E u
jam ais</w>
dr oit</w>
eu x
pr om
eu res</w>
im port
tro p</w>
m ise</w>
t y
in es</w>
R e
t aire</w>
P ro
v er</w>
ec tion</w>
app el
c al
j o
qu ement</w>
h au
nomb re</w>
A u</w>
pro bl
n er</w>
re z</w>
ex emp
pro jet</w>
ter min
I ls</w>
per met
nouv elle</w>
er ci
inter nation
a ffi
c h</w>
ét ab
dé f
l er</w>
m e
ç on</w>
ch ar
i ci</w>
or is
ri t
ten ant</w>
ap par
niv eau</w>
ét aient</w>
ê t</w>
ori g
t ex
se ign
é tr
ex pli
mom ent</w>
on c
u es</w>
per met</w>
ens emble</w>
c eux</w>
ven tion</w>
ob j
m ag
ver s
ter r
5 0</w>
peti t</w>
c au
ré sul
ati ve</w>
qu el</w>
olo gi
ch ang
m er</w>
as sur
no m</w>
é vi
I N
princi pa
développ ement</w>
ch e
r er</w>
ex i
û t</w>
d ent</w>
ti f</w>
trouv e</w>
Eu ro
b re</w>
S ain
in v
e il</w>
v u</w>
i ques</w>
se con
s au
ré s</w>
b at
pren d</w>
produi ts</w>
l ors
l les</w>
possi ble</w>
in f
arti cle</w>
pou voir</w>
l aiss
trouv er</w>
or d</w>
h e</w>
ol l
m ul
è mes</w>
su c
con di
po pul
si que</w>
res te</w>
dem and
E R
pu is
pro cé
g é
hist oire</w>
re présent
f our
h y
J e
g ni
donn ées</w>
cons titu
tu res</w>
m emb
é ment</w>
au jourd'</w>
g es
li gne</w>
b r
h um
M i
présid ent</w>
ass oci
conn aiss
ten u</w>
C an
isi on</w>
Par is</w>
a jou
et tes</w>
t ôt</w>
essi onn
se p
servi ces</w>
en c
o de</w>
pres sion</w>
curi té</w>
éri c
fa ci
A v
sor ti
exemp le</w>
m ét
s c
em ent
souv ent</w>
a de</w>
Pl us</w>
r ant</w>
v oul
pro ch
parti r</w>
at ta
1 5</w>
cert ains</w>
pré c
A R
b an
fi cation</w>
v éri
éri eur</w>
cel ui</w>
at ten
v eu
comm uni
a z
in d
vr ai
j eu</w>
av ez</w>
f ais
il les</w>
- ci</w>
milli ons</w>
e d</w>
ch au
gouvern ement</w>
m é</w>
ch an
su b
memb res</w>
D es</w>
bi lité</w>
ver si
ai lle</w>
qu elle</w>
ques tion</w>
l an
s éri
r é</w>
C es</w>
c entr
dem ande</w>
O N</w>
b onne</w>
no v
b er
respon s
D '</w>
b e</w>
form ation</w>
s om
aî tre</w>
P r
por tant</w>
é co
ac t
c ations</w>
N o
mi eux</w>
recher che</w>
T r
prés ente</w>
m aison</w>
is me</w>
génér al</w>
pl e
prof essionn
o r</w>
en nes</w>
f ri
an i
pro pos
u res</w>
po in
franç ais</w>
m al</w>
â ce</w>
t at
fu t</w>
ca pa
to t
f é
t él
sé curité</w>
C e
cho se</w>
fi er</w>
è le</w>
c elle</w>
ai de</w>
t ab
oi res</w>
ti en</w>
ex tr
O U
si è
dev ant</w>
publi que</w>
pers onne</w>
ai r</w>
minis tr
p er</w>
oi x</w>
oc cu
fam ille</w>
servi ce</w>
i es</w>
ex pl
sur tout</w>
par ce</w>
è te</w>
d oi
fem mes</w>
an im
ca dre</w>
min u
seu lement</w>
pro fi
tech ni
es pa
n é</w>
al y
fa çon</w>
vi c
F ranç
r on
onn ement</w>
ap pro
an des</w>
Con seil</w>
mani ère</w>
décl ar
z- vous</w>
cô té</w>
mi li
ati s
équi pe</w>
b al
ser ait</w>
re g
c s</w>
P i
s avoir</w>
g é</w>
mar ché</w>
i ème</w>
D e
am éric
19 8
fi ci
li mi
gr and
néc ess
s ci
ri er</w>
soci été</w>
n u
ci r
f au
b ar
R E
dé fin
th é
b én
b ase</w>
pré ci
ti ent</w>
t te</w>
r om
euro s</w>
ati f</w>
mo d
t or
con st
obj ecti
dé ci
gr é</w>
ê tes</w>
v res</w>
aur ait</w>
ti tre</w>
A près</w>
con si
hom mes</w>
h ai
ser ont</w>
ad ministr
res s
qu alité</w>
l es
san té</w>
f av
tu r
ex péri
a -
is ation</w>
h ab
concer n
all er</w>
m ents</w>
ven u</w>
c es
com b
por ter</w>
si e</w>
publi c</w>
qua tre</w>
lo i</w>
th e</w>
re gar
av aient</w>
seu l</w>
t es
ay ant</w>
1 2</w>
I S
B i
dis posi
dé but</w>
for t</w>
abi lité</w>
E s
pon i
is tes</w>
h é
ar m
ati ques</w>
t ez</w>
minis tre</w>
n et</w>
ati ves</w>
produi t</w>
li er</w>
fonc tionn
V i
h eures</w>
gu es</w>
b ri
fem me</w>
iss ance</w>
mon tr
as si
bes oin</w>
a k
l y
Euro pe</w>
ph o
donn er</w>
ori té</w>
bén é
droi ts</w>
N i
quel que</w>
vrai ment</w>
j ets</w>
g o
ét ant</w>
rè g
at te
sou hai
h abi
en gag
ass ez</w>
L E</w>
t ête</w>
t o</w>
situ ation</w>
vi er</w>
D é
au g
ais se</w>
ré se
régi on</w>
él è
en si
t i</w>
inform ations</w>
olo gie</w>
P ar</w>
entre prise</w>
ag it</w>
qu ant</w>
t a</w>
program me</w>
av is</w>
au tant</w>
s ens</w>
r end
jeu ne</w>
m i</w>
in dre</w>
fér ence</w>
gr âce</w>
pour rait</w>
si r</w>
pass er</w>
j ui
fin anci
f ont</w>
re li
lo c
re di</w>
entre prises</w>
a y</w>
fon d
ar t</w>
p u</w>
t an
w e
Comm ission</w>
jeu nes</w>
ob li
d ès</w>
nouv elles</w>
cor ps</w>
g ens</w>
do cu
mo di
é cu
r aison</w>
trav aill
n or
o o
R i
pl an</w>
év ol
peti te</w>
ag er</w>
ra i</w>
ad a</w>
ouv rir</w>
nombr eux</w>
mon di
pi è
vi ol
id enti
ti s
g en
lo g
dis poni
jus te</w>
Sain t-
l ent</w>
mes ure</w>
inv esti
p ai
arri v
ab ri
enn ent</w>
car act
por ts</w>
cu r
c ès</w>
ré sid
én er
er ie</w>
av ant
tex te</w>
pa gne</w>
G u
ri ère</w>
mor t</w>
a m</w>
con se
ét at</w>
n um
l anc
ch arg
derni ère</w>
1 0
ind us
m eill
R E</w>
dét ail</w>
t ard</w>
pos er</w>
cap it
activi tés</w>
te -
res pec
h u
oc ca
sour ces</w>
s pec
d eux
pho to
at ure</w>
am éli
an aly
o li
ar ds</w>
produ ction</w>
2 5</w>
av en
a c</w>
ag ne</w>
C O
A m
pa sse</w>
fil m</w>
oi gn
di s</w>
étu di
étr ang
ec tu
on d
condi tions</w>
lon g
f ran
économ ique</w>
v eill
n ég
p re</w>
jus ti
pri v
mati ère</w>
ill et</w>
ali tés</w>
ch oix</w>
al u
ins cri
acc ès</w>
doi vent</w>
Uni s</w>
v e
la quelle</w>
som mes</w>
ou ti
1 7
C l
lon g</w>
pass é</w>
pouv ez</w>
ges tion</w>
ac tions</w>
C ar
vi ll
n é
x im
ais ons</w>
en seign
grap hi
is er</w>
ad ap
e i
v end
è rent</w>
comm and
b our
améli or
aî t</w>
tat s-
e ffi
é p
poin ts</w>
re ç
alis ation</w>
b il
di d
tour n
des tin
tru ction</w>
ér er</w>
ter rit
to y
c entre</w>
él ev
com pos
o ffici
plu tôt</w>
deux ième</w>
1 1</w>
1 4</w>
eu sement</w>
pa u
péri ode</w>
pri t</w>
A ll
t aux</w>
ord in
t- être</w>
aur a</w>
in iti
fi que</w>
s û
gu erre</w>
Av ec</w>
re ction</w>
Can ada</w>
inform ation</w>
tats- Unis</w>
t omb
ac cep
R o
J o
œu vre</w>
ca le</w>
li t</w>
sol ution</w>
utilis ation</w>
pa ge</w>
l ec
aut om
as su
compa gn
ma j
sy n
off re</w>
t ées</w>
europé enne</w>
ré gu
con tribu
auc un</w>
m ission</w>
h eur
fon ction</w>
p ère</w>
mul ti
4 0</w>
b as
veu t</w>
A ss
en suite</w>
ch ac
1 8</w>
au té</w>
C H
donn é</w>
- même</w>
sem aine</w>
ty pe</w>
hab it
is tr
Q U
eff ectu
ar s</w>
B er
M o
pro pri
poli tiques</w>
d onne</w>
cons omm
ch ev
cau se</w>
q u</w>
cin q</w>
c en
int é
r ôle</w>
accor d</w>
è tres</w>
fi x
end r
c les</w>
j an
activi té</w>
t ations</w>
s emble</w>
É tat</w>
ch és</w>
pl ai
f ac
p les</w>
L u
m ouv
pa re
sy m
A TI
v ari
ex am
p tion</w>
qu ent</w>
ré s
di ri
e z-vous</w>
C E</w>
e .
a ci
so li
seu le</w>
fon d</w>
pen se</w>
po s</w>
ti ve</w>
In ter
pré par
alis te</w>
main tenant</w>
mat éri
lors que</w>
s truc
A c
li gn
ad op
b on
tri ce</w>
m ain</w>
d ess
can did
dev rait</w>
a h
L I
Je an
S e
v ais</w>
c k</w>
comm ent</w>
ré es</w>
er s
comm enc
er r
cul ture</w>
contin u
cho ses</w>
minu tes</w>
A I
différ ents</w>
mes ures</w>
ins titu
intér ess
s ex
envir on</w>
résul tats</w>
dé termin
inst all
m is
ques tions</w>
on es</w>
qu ête</w>
jui n</w>
V I
at ég
dé s
19 7
es t-
ré uni
su jet</w>
E x
pour r
l oin</w>
al o
cep tion</w>
b lo
nouv eaux</w>
o is
consi dér
ui ts</w>
s aison</w>
f es
or dre</w>
m ou
sim ple</w>
h eure</w>
con sul
cu is
au tour</w>
occa sion</w>
auc une</w>
g ri
Com me</w>
os si
v é
re v
ter me</w>
h aut</w>
an e</w>
nation ale</w>
affi r
1 6</w>
opér ation</w>
che f</w>
déc embre</w>
av ais</w>
1 3</w>
appli cation</w>
di ffici
in vi
li vre</w>
6 0</w>
grand s</w>
pro pre</w>
t ent
ri l</w>
arr ê
conn u</w>
b res</w>
an ge</w>
ann on
se in</w>
is l
jan vier</w>
c y
séri e</w>
probl ème</w>
entr aî
déc ision</w>
E S
dé mo
eu ve</w>
enf ant</w>
arti s
versi té</w>
O u
h ér
gr at
ment ation</w>
l é</w>
mar s</w>
th è
é po
s si
sal le</w>
œu r</w>
concer ne</w>
éri que</w>
z e</w>
in dé
su péri
S on</w>
ess enti
empl oi</w>
O r
p é</w>
sec teur</w>
ê me</w>
g a
év alu
po ss
et tre</w>
vi dé
att end
s oir</w>
prés ent</w>
im portant</w>
Tou t</w>
L e
idé e</w>
t aires</w>
nation al</w>
M al
1 ,
for c
d ate</w>
tr on
o f</w>
bl an
R O
aff aires</w>
Su r</w>
g au
b as</w>
en d</w>
1 7</w>
l ar
par fois</w>
cert aines</w>
étab lis
fi gu
. .</w>
p oi
peu t-être</w>
dé e</w>
trav ers</w>
res t
ém ent
g h
moy en</w>
ré dui
in i
con dui
par ten
val eur</w>
t embre</w>
Ch ar
fr on
su ff
op h
ab lement</w>
v oit</w>
particuli er</w>
visi on</w>
es sion</w>
obli g
t ar
tech n
peti ts</w>
ci vi
d g
1 .
ou bli
b elle</w>
ob re</w>
u el</w>
à -
t end
Jean -
è de</w>
vol on
te fois</w>
G ran
E tat</w>
re tour</w>
E U
str atég
s enti
E M
r endre</w>
ai rement</w>
Ce la</w>
des sus</w>
entr ée</w>
C or
2 4</w>
Qu éb
ra di
comm erci
Al ors</w>
for ce</w>
c k
dé b
fin anc
char ge</w>
cl ass
mo bi
r age</w>
tr ou
pour quoi</w>
E T</w>
ouver t</w>
1 00</w>
a x
orig in
m ai</w>
popul ation</w>
étu de</w>
S i
gi que</w>
O R
four ni
F or
g ui
ob jet</w>
ter re</w>
cré ation</w>
iss ant</w>
trav aux</w>
in ten
m ère</w>
h ô
inté gr
ob serv
dom aine</w>
abor d</w>
franç aise</w>
nat ure</w>
concern ant</w>
cons é
sep tembre</w>
indi vi
empl oy
o le</w>
ris que</w>
lis te</w>
ra ss
et er</w>
investi ss
a me</w>
li e</w>
lib re</w>
oc t
mê mes</w>
ju illet</w>
l ais</w>
201 2</w>
a ï
qu o
j eux</w>
L A</w>
ém ents</w>
av ril</w>
cor respon
expéri ence</w>
1 5
I I</w>
dou te</w>
pro pose</w>
ti ers</w>
ver sion</w>
h or
pré cé
pl an
av e</w>
pa ti
espa ce</w>
épo que</w>
ac compagn
pr ét
contr ôle</w>
t t
comm er
con f
int érieur</w>
ag ri
prot ection</w>
orig ine</w>
1 6
su s
ann onc
pro ces
utilis er</w>
y n
P o
comm une</w>
com pris</w>
nombr euses</w>
pro jets</w>
b â
tr adi
avant age</w>
C er
béné fici
sol u
rése au</w>
N e
ar ch
n eu
iss ent</w>
h ors</w>
mi lieu</w>
anci en</w>
en reg
re f
différ entes</w>
I s
ex t
in er</w>
fai te</w>
S er
S elon</w>
y eux</w>
mani fes
ph y
m au
g ence</w>
il leur</w>
am bi
fi ls</w>
d ant</w>
s in
oct obre</w>
v ou
con serv
app el</w>
s élec
z one</w>
201 5</w>
sou ff
a d</w>
é du
nov embre</w>
ag ré
eff or
B u
ê ts</w>
é cl
0 ,
B ar
h ar
t oire</w>
ré c
mét ho
par ler</w>
au près</w>
é cou
J u
ré v
im age</w>
ti fs</w>
expl oi
dé li
coll ecti
ér ation</w>
201 4</w>
c al</w>
sui vre</w>
intér êt</w>
hist ori
journ ée</w>
pa tion</w>
Uni on</w>
f abri
ré gl
ven us</w>
at h
res se</w>
2 1</w>
d oll
lib er
v ont</w>
o eu
étu des</w>
spec t
proces sus</w>
201 3</w>
for mes</w>
tr ad
n uit</w>
de -
C o
por té</w>
v rai</w>
cons tr
l è
am e
Québ ec</w>
dé sor
envir onnement</w>
tr im
A d
reli gi
pé ti
om e</w>
onn es</w>
C E
mu sique</w>
ori tés</w>
en se</w>
part i</w>
génér ale</w>
trouv é</w>
p an
re au</w>
nécess aire</w>
pr is
gr andes</w>
él éments</w>
bu dg
B el
fi lle</w>
ai me</w>
mon t
Qu and</w>
ter a</w>
mo de</w>
le quel</w>
chi ff
effi ca
élec tri
pl ement</w>
nat ur
o ins</w>
ri e</w>
m uni
siè cle</w>
par mi</w>
P A
gar anti
1 9</w>
chac un</w>
f ré
ap pr
assur er</w>
e y</w>
objecti f</w>
ouver ture</w>
comp ét
s embl
mar i
habi tu
n om
em ment</w>
éco le</w>
T E</w>
ui re</w>
an ni
suc cès</w>
r ue</w>
trai tement</w>
arg ent</w>
t é
1 2
at oire</w>
R A
vi ennent</w>
al li
u t</w>
régi on
es prit</w>
De puis</w>
ologi que</w>
enreg istr
voi e</w>
moy ens</w>
c elles</w>
ex écu
di rection</w>
Di eu</w>
organis ation</w>
É tats</w>
s .
me illeur</w>
c t</w>
gau che</w>
ob tenir</w>
s ais</w>
soi ent</w>
du rant</w>
s ait</w>
i de</w>
comm ande</w>
suff is
su per
probl èmes</w>
ra n</w>
t ali
im ag
R I
l ise</w>
ér o
voi x</w>
particuli èrement</w>
id ement</w>
ra s</w>
S I
gen re</w>
du ction</w>
s ti
t ari
ar d
qu ali
pos é</w>
qu ée</w>
en fin</w>
vi vre</w>
év rier</w>
A in
isi ème</w>
ouver te</w>
vi v
b ois</w>
soci ale</w>
sou s-
D u
201 1</w>
C A
éner gie</w>
ren contre</w>
jou er</w>
au teur</w>
s av
a si
sc ène</w>
lu n
plu part</w>
C I
ist ance</w>
ple in</w>
m él
â ge</w>
app elle</w>
pr atique</w>
Ain si</w>
tr a</w>
2 2</w>
E R</w>
ti di
cu le</w>
si gni
du re</w>
pres que</w>
re ce
ex iste</w>
dé s</w>
ai der</w>
parti es</w>
s titu
ap pare
quel s</w>
cré er</w>
prés ence</w>
li n</w>
res sources</w>
équi p
rap idement</w>
li en</w>
n ent</w>
r ac
ac qu
M er
el l
per mis</w>
vic ti
cham bre</w>
co le</w>
si x</w>
ét és</w>
cons truction</w>
201 6</w>
ap préci
p ecti
premi ers</w>
F ran
alis tes</w>
Mi ch
posi tions</w>
201 0</w>
d ossi
1 4
po l
am me</w>
grap h
en té</w>
dé mar
ati fs</w>
man che</w>
C ou
connaiss ance</w>
1 3
am our</w>
er t</w>
All em
gu eur</w>
cho is
A p
bou t</w>
f évrier</w>
grou pes</w>
Franç ois</w>
vé hi
désor mais</w>
le v
t ons</w>
dis cu
tr ait</w>
mat ch</w>
is é</w>
derni ères</w>
A U
sim plement</w>
en voy
ë l</w>
tr é
f ou
M an
tro isième</w>
el le
cham pi
fi é</w>
ti er</w>
fi ques</w>
t eau</w>
P e
c œur</w>
li tés</w>
rou te</w>
com par
li r</w>
b es</w>
droi te</w>
L ou
confi r
mati n</w>
t '</w>
S y
tr ie</w>
a o
t ait</w>
o re</w>
v ain
ren contr
derni ers</w>
v in
r ation</w>
év én
tr e
mod èle</w>
diffici le</w>
di n</w>
cam pagne</w>
techni que</w>
embl ée</w>
200 8</w>
A fri
vi s</w>
Ch am
pe ine</w>
pro che</w>
personn el</w>
ven ue</w>
quo tidi
cr u
ca les</w>
mar que</w>
ré fl
mal adi
c a</w>
2 3</w>
cli ents</w>
oi e</w>
poli ce</w>
dé part</w>
s er</w>
g lo
suiv i</w>
déc ouvrir</w>
doll ars</w>
vi te</w>
dev r
au di
qui t
ni e</w>
de vient</w>
milli ards</w>
d am
J ac
mouv ement</w>
fon ds</w>
indus tri
dis tribu
car te</w>
ci toy
sup pl
con seil</w>
par l
conn aître</w>
ra y
m ess
vi té</w>
fr ais</w>
plai sir</w>
st y
ap pu
per mettre</w>
Ré publique</w>
terr ain</w>
vi t
sû r</w>
ex is
r ê
lors qu'</w>
i li
internation ale</w>
écri t</w>
pi ed</w>
f eu
m s</w>
long temps</w>
permet tant</w>
am en
économ ie</w>
a- t-il</w>
démo cr
ex per
sorti e</w>
s ensi
ér o</w>
ti ss
n omm
am is</w>
P our
r y
gr os</w>
min ist
cro issance</w>
disposi tif</w>
tr a
produ c
st at
direc teur</w>
200 9</w>
ri di
v ac
is se</w>
rem ar
mi ère</w>
s ai
procé dé</w>
fais ant</w>
par ents</w>
8 0</w>
pres se</w>
sour ce</w>
ai ses</w>
vill age</w>
pr euve</w>
régu li
communi cation</w>
fi e</w>
pour tant</w>
qu arti
sor te</w>
f eu</w>
er ont</w>
oc k
201 7</w>
k i</w>
cert ain</w>
uni que</w>
T A
d el
au -
internation al</w>
n on
e té</w>
E m
B o
ren forc
c ent</w>
qu elles</w>
du rée</w>
L ES</w>
d ang
D ES</w>
n avi
co û
ten ue</w>
justi ce</w>
B re
p én
p eux</w>
m y
bes oins</w>
ot o</w>
200 7</w>
soci al</w>
fré qu
ven te</w>
sem aines</w>
S h
ess ay
o l</w>
é ni
pi re</w>
photo s</w>
aut oris
D I
onn é</w>
ouv re</w>
o t</w>
t ém
esp è
territ oire</w>
emp ê
il lu
mu si
Pi erre</w>
pou ss
ét aire</w>
pren ant</w>
er ait</w>
ab s
laiss er</w>
aff aire</w>
cher ch
v eux</w>
expli que</w>
at es</w>
t em
europé en</w>
ce pendant</w>
coll abor
ca t</w>
ame di</w>
ér is
cr ise</w>
ch ap
s omm
com prendre</w>
mal gré</w>
M ari
titu de</w>
gar de</w>
ffi cul
V oi
re l</w>
vidé o</w>
a f
all em
ch aî
al bu
in vention</w>
ui te</w>
pro b
d a</w>
2 .
pro pr
T h
com prend</w>
di fficul
prot ég
c o</w>
ou tre</w>
tr ouver
è ve</w>
con clu
o g
or ie</w>
m ém
in te</w>
ci el</w>
conse ill
di manche</w>
fr oi
évol ution</w>
9 0</w>
en quête</w>
m embre</w>
s on
re -
ao ût</w>
fé dér
im pli
néc essi
n al</w>
nég oci
consé qu
ari té</w>
t- elle</w>
direc tement</w>
n ée</w>
s atis
1 er</w>
c .</w>
puis que</w>
r appel
m us
i g
di e</w>
b eau</w>
indé pend
m éc
du r
analy se</w>
end ra</w>
déclar é</w>
cons ci
Com ité</w>
ori ent
ATI ON</w>
É tats-Unis</w>
ex e</w>
ré serv
P or
2 8</w>
cro y
S a</w>
R ou
T u</w>
chau ff
fai ts</w>
P résid
a re</w>
ser ve</w>
bâ ti
moy enne</w>
program mes</w>
voi ture</w>
comm ent
mé d
mon tre</w>
m an</w>
all ait</w>
s ac
2 6</w>
habit ants</w>
iss ement</w>
a des</w>
régi me</w>
en -
peti tes</w>
c ent
pos te</w>
ex cel
qu és</w>
è ge</w>
ti rer</w>
2 7</w>
m oi
liber té</w>
dé plac
cat ég
sou tien</w>
b or
li vr
techni ques</w>
ex erci
am i</w>
possi bilité</w>
évi ter</w>
ét ap
2 ,
mo t</w>
pass age</w>
sci enti
par le</w>
to i</w>
secon d</w>
A b
ui -ci</w>
commun auté</w>
A t
pl at
capa cité</w>
Afri que</w>
pro pos</w>
19 6
ré alité</w>
B ou
ré us
jou eurs</w>
mo der
T he</w>
arm ée</w>
ex clu
A jou
arriv ée</w>
vend redi</w>
Com ment</w>
mo ts</w>
B r
secon de</w>
on i
t al
emi n</w>
20 00</w>
re command
di x</w>
oi rs</w>
v ing
répon dre</w>
rem plac
ch al
200 6</w>
P au
tionn el</w>
ten ti
3 1</w>
par tement</w>
k o
k m</w>
compa gni
D on
en du</w>
l ui
onn er</w>
e ille</w>
l arg
man que</w>
dé pen
cons ac
lan gue</w>
suiv ant</w>
M in
clu b</w>
pa ri
sal ari
U N
for te</w>
F i
pai x</w>
arti cles</w>
li s</w>
l in
p ér
c redi</w>
inf lu
exi on</w>
administr ation</w>
ci -
ju di
con cur
li re</w>
commer ce</w>
dis tin
lar ge</w>
E L
lu mière</w>
au to
associ ation</w>
arri ve</w>
po st
de venir</w>
isi ons</w>
Allem agne</w>
T S</w>
cuis ine</w>
améric ain</w>
tot al</w>
d or
f is
C ol
lég isl
av anc
ro i</w>
m ètres</w>
tab l
Je an</w>
é vo
C ON
ma ch
t aille</w>
annon ce</w>
partici p
Pr emi
cour t</w>
S al
tem por
p sy
én ag
ér ature</w>
piè ces</w>
tin g</w>
ac teurs</w>
mondi ale</w>
résul tat</w>
s tu
2 9</w>
déci dé</w>
sor t</w>
d an
h onn
tan dis</w>
si tes</w>
o ss
m as
entraî n
éri eure</w>
o -
g ée</w>
fau dr
rap ide</w>
répon se</w>
200 5</w>
for ces</w>
pa l
édu cation</w>
Bi en</w>
ma xim
aut orités</w>
ess eur</w>
d ro
actu ellement</w>
atten tion</w>
tou tefois</w>
contr ô
U S
ar mes</w>
lun di</w>
vi n</w>
cho isi
s amedi</w>
t h</w>
è les</w>
p il
ali ment
ar din</w>
k e</w>
ju ridi
ri v
soci aux</w>
di ver
En fin</w>
ch emin</w>
li p
pr atiques</w>
F l
ai ls</w>
si eur</w>
lo gi
7 0</w>
m aî
N ations</w>
sorti r</w>
ré vol
qu anti
respons able</w>
es -
peu ple</w>
dé pl
p ê
ex prim
ten us</w>
maj orité</w>
in é</w>
e illi
graph ie</w>
h ui
4 5</w>
véri table</w>
min im
E lles</w>
g ation</w>
G r
im porte</w>
contr at</w>
en vie</w>
E N</w>
trai te</w>
muni ci
es t
lui -même</w>
faci le</w>
lu tte</w>
P u
syst èmes</w>
an che</w>
travaill er</w>
jo int</w>
spect ac
méc an
tr ain</w>
M ad
F in
co de</w>
A S
Franç ais</w>
Inter net</w>
in qui
cl asse</w>
confi ance</w>
O b
aven ir</w>
ra con
suppl ément
can adi
ai e</w>
d -
cri min
EN T</w>
eff ets</w>
emb our
ati onn
pr ati
N ouv
C et</w>
glo b
T ous</w>
e b
p om
C am
premi ères</w>
ro y
man d
ét ais</w>
rel ations</w>
voy age</w>
am ique</w>
S '</w>
d avantage</w>
tou ris
en g
d û</w>
s é</w>
No tre</w>
fai tes</w>
pi t
graphi que</w>
idé es</w>
è nes</w>
import ante</w>
im ages</w>
m ée</w>
ém a</w>
ré ci
d ence</w>
k i
tionn elle</w>
mi gr
élè ves</w>
utilis é</w>
S ar
er n
ac es</w>
règ les</w>
princi pe</w>
der rière</w>
di pl
disponi ble</w>
pu issance</w>
du c
p â
lon gue</w>
dé pu
proch ain</w>
annonc é</w>
objecti fs</w>
par ole</w>
jeu di</w>
Q ue</w>
amélior er</w>
Ce pendant</w>
mon tant</w>
ce -
M me</w>
meill eure</w>
im médi
b ord</w>
N ord</w>
cu l</w>
cou leur</w>
coll ec
ch ant</w>
ré taire</w>
A C
ac te</w>
pa pi
M e
o k</w>
s col
dossi er</w>
a h</w>
dis position</w>
m ains</w>
1 -
alo gue</w>
ologi ques</w>
ag i
end ant</w>
li tt
ad resse</w>
- -
r i</w>
éch ang
l ou
lib ér
gr av
cir cul
l our
demand er</w>
fav or
I tali
pens er</w>
sé jour</w>
règ lement</w>
log ement</w>
vac ances</w>
sur face</w>
mar di</w>
L ors
ren seign
ré si
pouv ait</w>
ç u</w>
mer credi</w>
x e</w>
professionn els</w>
fi l</w>
piè ce</w>
import ance</w>
et c</w>
n e
t oi
pe in
so l</w>
si té</w>
Cer t
pour ra</w>
â tre</w>
tél é
et c.</w>
dis par
Ch ris
eff ecti
G e
reç u</w>
g és</w>
ph oto</w>
chang ement</w>
en i
dess ous</w>
réalis er</w>
fin ale</w>
dé rou
D éc
situ é</w>
5 00</w>
Présid ent</w>
au x
li eux</w>
D U</w>
as pec
syn di
g ent</w>
dou ble</w>
ti é</w>
b ru
M M
blan c</w>
P S</w>
albu m</w>
v oire</w>
J us
g o</w>
pro vo
R en
ins pi
hi er</w>
R oy
s h
dé si
c ab
pr ouv
ven ant</w>
économ iques</w>
ter n
con dam
prom o
ch im
d yn
propr es</w>
publi cs</w>
hau te</w>
no te</w>
indi qué</w>
A L
ti n</w>
dé bu
ang lais</w>
d ents</w>
in tro
com péti
ti ère</w>
ter mes</w>
è s-
sty le</w>
él abor
sui t</w>
dem ment</w>
évalu ation</w>
ou i</w>
200 4</w>
pa th
ex er
t ants</w>
établis sement</w>
D is
po ly
mar chés</w>
vi lles</w>
comm un</w>
endr oit</w>
num éro</w>
j ardin</w>
p eur</w>
ri ch
3 5</w>
v as
t ables</w>
Jo h
n our
édi tion</w>
. 000</w>
cou leurs</w>
indus trie</w>
S U
s sion</w>
an moins</w>
ni té</w>
sou lign
cl é
prés enté</w>
am a</w>
p eau</w>
val eurs</w>
ci en</w>
o k
lo t</w>
fam ili
n et
t ements</w>
caract éris
vol u
ré férence</w>
m ation</w>
Ajou ter</w>
n oir</w>
appare il</w>
l aisse</w>
ven tu
form er</w>
0 0
m ai
contr aire</w>
P hi
poi ds</w>
P ri
S ou
at tribu
munici pa
am b
disposi tions</w>
ç ant</w>
permet tent</w>
20 0</w>
di té</w>
emi -
sur veill
u x</w>
oeu vre</w>
y p
rou ge</w>
ser t</w>
nécess aires</w>
diri ge
a w
su ffi
fin alement</w>
ab and
R us
H u
con for
financ ement</w>
m enti
Comm un
M u
car rière</w>
fai ble</w>
quarti er</w>
V o
è tre</w>
g ement</w>
régi ons</w>
fam illes</w>
rit anni
V al
alis me</w>
pl a
V er
re trouver</w>
M a
li vres</w>
m ises</w>
partici pation</w>
D u</w>
ti ens</w>
m eu
visi te</w>
O r</w>
s ements</w>
ri re</w>
e k
g le</w>
exam en</w>
fi c
ch â
b ons</w>
demand é</w>
é pou
re trouve</w>
m aire</w>
f ur
respec t</w>
ex ist
re conn
déf ense</w>
minist ère</w>
ju st
enseign ement</w>
ci tés</w>
pré f
Su d</w>
volon té</w>
comm ence</w>
b y</w>
per man
B our
vic toire</w>
res ter</w>
con centr
indivi du
j et
concur r
P a
M ême</w>
tél év
su d</w>
occu p
G ar
E C
in ation</w>
g al
trans port</w>
entr er</w>
caract ère</w>
rel ev
M or
B ru
aug ment
si onn
li que</w>
dev ait</w>
co eur</w>
contin ue</w>
exerci ce</w>
él ément</w>
solu tions</w>
m éri
consomm ation</w>
h ou
QU E</w>
ati e</w>
pren nent</w>
ga z</w>
in c
ris ques</w>
alis er</w>
ç ons</w>
ain ement</w>
U E</w>
é mi
P h
Ass emblée</w>
disponi bles</w>
co opération</w>
N or
im pa
inter ro
ag rap
ti m
rest aur
E tats-Unis</w>
so ins</w>
G rou
dis t
ext érieur</w>
le -
budg et</w>
docu ment</w>
mo teur</w>
ca ss
sol eil</w>
appro che</w>
struc ture</w>
con cep
chang er</w>
cel lu
ai lles</w>
rel ation</w>
aff ec
ac cro
us age</w>
accu eil</w>
w s</w>
rév él
alis é</w>
ch u
ti ves</w>
étudi ants</w>
effor ts</w>
in fr
co p
con tenu</w>
opér ations</w>
200 3</w>
sep t</w>
t y</w>
3 ,
B an
pa ges</w>
2 -
vain c
p el
docu ments</w>
cal me</w>
del à</w>
M on</w>
es tre</w>
par agrap
principa l</w>
en cour
P er
n ord</w>
l ée</w>
pr on
S ec
b aisse</w>
av o
l et
d ent
in clu
cour ant</w>
g no
k il
con texte</w>
Ch ine</w>
mag ni
ré fér
ch em
vi a</w>
b elles</w>
A G
po tenti
ref us
cr ois</w>
p .</w>
h on
W e
em pr
rédui re</w>
médi as</w>
arri ère</w>
h an
comm ission</w>
fais ait</w>
am i
montr er</w>
cri ption</w>
.. ..</w>
respons abilité</w>
bu reau</w>
P as</w>
O I
I m
ex cep
é ventu
mém oire</w>
cu les</w>
cl am
b ran
pré vu</w>
qu e
ca d
Ne w</w>
200 1</w>
ten te</w>
ec i</w>
Par lement</w>
faci lement</w>
z ones</w>
end s</w>
re présente</w>
im pression</w>
3 .
pro vin
a pr
am ent
in nov
200 2</w>
bour g</w>
ach at</w>
judi ci
ég ard</w>
ô m
conse ils</w>
vis age</w>
cel ui-ci</w>
améric aine</w>
R ob
ten tion</w>
compl è
pi e
pro xim
puis se</w>
ti v
per du</w>
évol u
regar d</w>
o x
élec tron
ci ens</w>
T i
maladi e</w>
esp ér
rése aux</w>
tour ner</w>
dé lég
citoy ens</w>
agré able</w>
recher ches</w>
compagni e</w>
N on</w>
fonctionn ement</w>
effica ce</w>
maî tr
h uit</w>
moi tié</w>
hé si
C ar</w>
ré u
fu tu
commun aut
jou eur</w>
P al
im p
it ec
ri t</w>
or k</w>
mar che</w>
n au
ag e
ch ance</w>
hau sse</w>
poli ci
ci le</w>
ain te</w>
trad u
Uni es</w>
f o
atte indre</w>
victi mes</w>
d on</w>
p a</w>
k a</w>
F I
abs ence</w>
al lu
es s</w>
19 5
déb at</w>
Phi lip
mi di</w>
procé dure</w>
B eau
fi cations</w>
re té</w>
quel qu'</w>
B l
ter s</w>
b re
sélec tionn
es .
ré di
fav eur</w>
b ain</w>
Au jourd'</w>
comp li
is su
N '</w>
éri e</w>
s por
ten ce</w>
re qu
ch ement</w>
jou e</w>
Mon tré
L y
à- dire</w>
d o</w>
ati vement</w>
dé mi
P I
réalis é</w>
b ras</w>
ren du</w>
éli min
profi ter</w>
r aisons</w>
qu et</w>
A M
présent er</w>
mo bil
Mon t
uni té</w>
dé partement</w>
A T
ré g
ph il
dé tr
An gl
meill eurs</w>
est- à-dire</w>
b ro
ren ouv
réalis ation</w>
di men
b onnes</w>
D es
C our</w>
aiss ance</w>
stratég ie</w>
vi t</w>
di c
lec ture</w>
di vers</w>
mili taire</w>
t â
ren d</w>
port ée</w>
st ock
par tout</w>
R u
in ée</w>
bal l</w>
fil ms</w>
l ettre</w>
ologi es</w>
ré solution</w>
ti enne</w>
î le</w>
w it
thè se</w>
in a</w>
soci étés</w>
f er</w>
Lou is</w>
Mich el</w>
ai gn
uni quement</w>
capa ble</w>
différ ence</w>
pourr aient</w>
F on
ré cu
omb re</w>
ry th
19 4
Itali e</w>
ac k</w>
ajou té</w>
histori que</w>
élec tions</w>
b el
m ement</w>
S oci
on ni
cré é</w>
organis ations</w>
L o
v al</w>
vi eux</w>
sau v
génér alement</w>
assur ance</w>
u elle</w>
professionn el</w>
proxim ité</w>
S ans</w>
fer a</w>
pa ssi
fai tement</w>
h eur</w>
S es</w>
att endre</w>
acc essi
personn ages</w>
f ais</w>
dis ci
est- ce</w>
m eur
uti le</w>
ch in
anim aux</w>
mess age</w>
dis cours</w>
tou rs</w>
Pau l</w>
p ani
r as
intér êts</w>
B en
vo te</w>
ter ie</w>
si l
loc aux</w>
faci li
esti me</w>
pay s
dé p
c élè
dé sign
ou rs</w>
e m</w>
fonc tions</w>
méd ec
ent endu</w>
ch ée</w>
parten aires</w>
ti ble</w>
qu ées</w>
B e
ac ci
fil les</w>
des c
nu clé
éc ran</w>
t- on</w>
inter net</w>
r ar
non -
gag ner</w>
four n
ple ine</w>
ag ent</w>
par faitement</w>
ach eter</w>
O ui</w>
P ay
pré fér
ouv rage</w>
comp ter</w>
cher cher</w>
mondi al</w>
exploi tation</w>
de venu</w>
ri s</w>
tém oign
ve ille</w>
dé cor
papi er</w>
principa ux</w>
cour se</w>
diff us
f lu
ô me</w>
fr ère</w>
ê tres</w>
S O
v ues</w>
choisi r</w>
aug mentation</w>
N e</w>
off rir</w>
C el
cert aine</w>
é pi
devr aient</w>
aut on
Montré al</w>
équi pes</w>
omm age</w>
utilis ateurs</w>
i tion</w>
soli d
s ent</w>
it ali
quotidi en</w>
T R
c lo
Vo tre</w>
cr oire</w>
vit esse</w>
arch itec
réuni on</w>
Ni col
mari age</w>
d oc
ad ress
S E
situ ée</w>
cham bres</w>
go ût</w>
pé di
publi é</w>
développ er</w>
aut eurs</w>
lign es</w>
poss ède</w>
au l
cor rec
rap ports</w>
A D
X I
é ti
port ent</w>
ci n</w>
t ori
phy sique</w>
M E</w>
S te
esp ère</w>
commenc é</w>
ss es</w>
outi ls</w>
atta que</w>
souhai te</w>
M at
exis tence</w>
is ant</w>
ou est</w>
anci enne</w>
fi ée</w>
Es pagne</w>
C u
appar tement</w>
commun es</w>
C entre</w>
atte int</w>
pie ds</w>
ép is
dis pos
sec tion</w>
form ément</w>
centr ale</w>
is c
ag ue</w>
supéri eur</w>
cher che</w>
4 ,
a fri
écl ai
Rus sie</w>
at tr
chois i</w>
tend ance</w>
ran ts</w>
obj ets</w>
nor m
Ch aque</w>
professionn elle</w>
av ance</w>
dépen ses</w>
au me</w>
paragrap he</w>
inst ant</w>
constitu e</w>
tot alement</w>
gé o
3 -
li qui
dis pose</w>
D eux</w>
con férence</w>
cin éma</w>
li ens</w>
6 -
ju ge</w>
pay er</w>
TI ON</w>
sé par
ch ron
re trouv
heur eux</w>
bl ess
ten sion</w>
é mo
heur eusement</w>
D E
vo is
trai té</w>
ph én
tu de</w>
f um
V oir</w>
continu er</w>
tex tes</w>
c m</w>
rem on
étap e</w>
én or
as h
institu tions</w>
ex ac
pour rez</w>
par cours</w>
y er</w>
fi ce</w>
matéri el</w>
viol ence</w>
donn ée</w>
Gran d</w>
proch aine</w>
réu ssi</w>
excel l
t ères</w>
qu in
r am
op position</w>
fi chi
ad er</w>
co ût</w>
S ch
is ent</w>
ty pes</w>
ajou ter</w>
qu ez</w>
compét ences</w>
anci ens</w>
tou che</w>
b e
S an
comb at</w>
ent ôt</w>
R es
hau teur</w>
vis ant</w>
ven tions</w>
cé der</w>
pro position</w>
B or
y m
qu ar
enti elle</w>
is ol
fond ament
ég lise</w>
sim il
li ers</w>
préc ise</w>
co m</w>
ain t</w>
soci ales</w>
P RO
T o
sal on</w>
servi r</w>
ca ts</w>
mi cro
v ê
au de</w>
por tu
suffi t</w>
produi re</w>
blo g</w>
L O
engag ement</w>
and s</w>
n o</w>
cham p</w>
ég i
r et</w>
cli ent</w>
dis pens
S t
l av
b lement</w>
P uis</w>
neu f</w>
bi o
ag ir</w>
ap porter</w>
th er
c ess
T ri
Am érique</w>
min i
re cu
f re
partici per</w>
capit ale</w>
ber t</w>
st atis
siè ge</w>
cré di
h os
figu re</w>
respons ables</w>
ad ul
investiss ement</w>
soi rée</w>
di z
L ors</w>
étrang er</w>
as tique</w>
de au</w>
op ini
r ur
x -
bi ens</w>
ti tres</w>
re venir</w>
Nicol as</w>
c er</w>
bo î
inter vention</w>
d ois</w>
T e
ch ôm
sau f</w>
pro ches</w>
condi tion</w>
niv eaux</w>
A F
par c</w>
pré h
actu elle</w>
priv é</w>
w i
form u
fi t</w>
v ois</w>
ent endre</w>
è g
phil os
im pos
cl as
larg ement</w>
publi ques</w>
ca s
métho de</w>
réguli èrement</w>
élec tion</w>
G en
tr om
tabl eau</w>
uni vers</w>
P R
dom aines</w>
uni versi
M ac
régl ement
ré duction</w>
rev anche</w>
veu lent</w>
4 .
m un
honn eur</w>
alis ée</w>
difficul tés</w>
diver ses</w>
personn age</w>
S eu
é tique</w>
ex pression</w>
l i</w>
chaî ne</w>
P lu
c ence</w>
pass ant</w>
cé ré
conn ec
Or gan
ré p
form ul
E st
C al
salari és</w>
a trice</w>
P ré
mau v
gar der</w>
vers aire</w>
ét aires</w>
dé l
élev é</w>
nomm é</w>
Qu el
W i
éch ange</w>
s ession</w>
mo s
g er
pil o
indi que</w>
ent -
éco les</w>
v ali
ap er
d us</w>
san g</w>
ON S</w>
T ur
financi ère</w>
pro fon
l ois</w>
g â
H oll
diff u
Is ra
candid ats</w>
ph ase</w>
ti ennent</w>
hi ver</w>
phén om
b us</w>
is sions</w>
at er</w>
vo l</w>
ex position</w>
nouv el</w>
f lo
candid at</w>
Y ork</w>
pl ans</w>
cou ple</w>
M arti
vi e
afri c
Commun auté</w>
com ité</w>
médi cam
C ré
véhi cule</w>
h e
ch ent</w>
z i
J ap
om ie</w>
s port</w>
rece voir</w>
part ager</w>
ai l
is tre</w>
iss ons</w>
pri vi
cel le
propos er</w>
do s</w>
puis qu'</w>
ill er</w>
g amme</w>
mod èles</w>
nat u
les quels</w>
b ritanni
trouver ez</w>
consci ence</w>
fav oris
dé es</w>
pr êt</w>
consi dé
commenc er</w>
g enti
hui le</w>
tran si
celle -ci</w>
cul tu
am énag
re venus</w>
techn ologie</w>
r emp
3 2</w>
sol d
t ap
on ie</w>
199 9</w>
fin al</w>
ui e</w>
chan ge</w>
d emi-
aur aient</w>
prépar ation</w>
ser aient</w>
R D
Jac ques</w>
Philip pe</w>
ins tr
anti -
H ar
électri que</w>
f ant
enti er</w>
Lors que</w>
charg é</w>
re cours</w>
7 5</w>
fi r
cir c
o ine</w>
enti ss
C as
cri p
re venu</w>
déc isions</w>
l and
in é
chiff re</w>
is ter</w>
envir onn
cou r</w>
f t</w>
parti s</w>
compl ète</w>
effica cité</w>
cul tur
ri c</w>
H er
cri tique</w>
voy ag
bli o
appel é</w>
l ande</w>
we b</w>
M P
B ri
impa ct</w>
protég er</w>
k e
Uni versité</w>
con vainc
m e-
hy po
Don c</w>
apr ès-
en vis
constr uire</w>
re traite</w>
e f</w>
éch arg
avi ons</w>
L E
onn és</w>
ari at</w>
Ge or
enn em
f en
ré forme</w>
g ou
fur ent</w>
Mar ie</w>
milli ers</w>
jo indre</w>
ac teur</w>
actu el</w>
quanti té</w>
organis mes</w>
l ang
sélec tion</w>
limi te</w>
Es t</w>
dét ails</w>
mor ts</w>
anc er</w>
fr app
lanc é</w>
5 ,
inter prét
Ser vi
dist ance</w>
voul u</w>
ér é</w>
m ant</w>
de aux</w>
pari tion</w>
or er</w>
b ande</w>
arri ver</w>
eu t</w>
Grou pe</w>
con tes
bat tre</w>
g ées</w>
4 -
Cert ains</w>
vi ens</w>
è n
artis tes</w>
essenti el</w>
bi entôt</w>
con cours</w>
h er
im mobi
vou dr
f esti
né anmoins</w>
principa lement</w>
o d
uti lise</w>
catég orie</w>
os se</w>
disci pl
r us
tu s</w>
mau vais</w>
co -
pers pecti
si gne</w>
c essi
j ec
assu re</w>
ér ap
identi té</w>
ori es</w>
pa trim
l ation</w>
r embour
sym bo
par fait</w>
ch ré
r on</w>
outi l</w>
appro pri
P AR
enti èrement</w>
complè tement</w>
représent ant</w>
g ences</w>
évén ement</w>
por te-
lo cation</w>
Qu '</w>
Tou tefois</w>
op pos
lu t
natu rel</w>
G oo
comp tes</w>
ém atique</w>
install ation</w>
en ir</w>
fin i</w>
re ven
eilli r</w>
espè ce</w>
s ent
rom an</w>
évén ements</w>
Mon sieur</w>
terr oris
principa le</w>
propri été</w>
clas sique</w>
dur able</w>
EN T
f ar
aur ont</w>
fer me</w>
d in
stat ut</w>
Bel gique</w>
thé âtre</w>
s pi
um ents</w>
es ses</w>
M I
illu str
fourni r</w>
défin iti
num érique</w>
m én
dom i
re cru
permet tra</w>
pl on
pris on</w>
L aur
aff ron
ar ab
r ai
s sions</w>
extr ê
chap i
réc emment</w>
H en
trav ailleurs</w>
S im
em ain</w>
L ond
cou ps</w>
car tes</w>
ré el</w>
tr on</w>
per form
Mer ci</w>
ac h</w>
P endant</w>
pé tro
arr êt</w>
per te</w>
5 -
pani er</w>
rend ez-vous</w>
an a</w>
at ement</w>
H au
im prim
S tr
accu eill
r appelle</w>
th érap
nécessi té</w>
ffi ce</w>
ré serve</w>
EM ENT</w>
empl ois</w>
S A
l ait</w>
at oires</w>
eux -
0 1</w>
entre tien</w>
fr uits</w>
kil om
R om
ém ission</w>
ca f
D ès</w>
li és</w>
c él
import ants</w>
jeu n
emp s</w>
av er
ap prendre</w>
pu iss
al tern
c aux</w>
tri ces</w>
trav ers
th ème</w>
Pe ti
3 3</w>
j ur
op he</w>
fi li
maxim um</w>
cer ti
D o
s ons</w>
un s</w>
popul aire</w>
f as
prob ablement</w>
r ais
al l</w>
dang er
per dre</w>
élec tor
T U
compl et</w>
écri v
phy si
D avi
EU R</w>
exclu si
faudr a</w>
z y</w>
an o</w>
pé d
â me</w>
représent ants</w>
l aire</w>
ac e
su re</w>
hum aine</w>
cons truc
con vi
distribu tion</w>
part age</w>
établis sements</w>
su res</w>
sup port</w>
di v
v aut</w>
ég alité</w>
déclar ation</w>
compos é</w>
al er
véri té</w>
g our
3 6</w>
re ts</w>
trans fer
grat ui
du res</w>
chev eux</w>
cl air</w>
princi pes</w>
O ri
de hors</w>
f f</w>
ac ement</w>
l am
de cin</w>
vi gueur</w>
Premi er</w>
ob tenu</w>
fé min
aut orité</w>
3 00</w>
spectac le</w>
pouv ant</w>
hum ain</w>
progr ès</w>
Qu ant</w>
G i
a éro
l at
temp érature</w>
ré fu
n aissance</w>
dev oir</w>
métho des</w>
m aître</w>
conséqu ences</w>
éch elle</w>
err eur</w>
ac tes</w>
dé cou
ali e</w>
coû ts</w>
bon heur</w>
mu sul
s ch
appu i</w>
ver t</w>
véhi cules</w>
pourr ont</w>
cré dit</w>
supéri eure</w>
sc én
man ger</w>
P S
con formément</w>
c ui
rel ative</w>
mili taires</w>
ver se</w>
C i
per for
nor mes</w>
M au
présent ation</w>
J am
f ête</w>
cou che</w>
E l
coll è
mand at</w>
exper ts</w>
av ou
ordin aire</w>
ex -
gl ise</w>
provin ce</w>
as tr
fo ot
acti f</w>
célè bre</w>
chang ements</w>
ouv rez</w>
l end
at ti
dui t</w>
z z
su jets</w>
lo cales</w>
issu e</w>
n a</w>
sub st
solu ment</w>
voi là</w>
utilis ateur</w>
pati ents</w>
montr é</w>
déc ouverte</w>
ur gence</w>
H e
effectu er</w>
capit al</w>
civi le</w>
dél ai</w>
sim ul
concurr ence</w>
g lis
rel atives</w>
télév ision</w>
chiff res</w>
U S</w>
promo tion</w>
propos é</w>
cô tés</w>
ag ents</w>
Ber n
h am
S S
bo ok</w>
J é
moder ne</w>
T E
Voi ci</w>
techn ologies</w>
ac k
re pas</w>
m m</w>
D r
Davi d</w>
P O
mach ine</w>
comp ens
st ation</w>
ill on</w>
tionn els</w>
con fort</w>
D om
esp oir</w>
d ette</w>
s t</w>
multi pli
dé di
o des</w>
CE E</w>
éch app
com position</w>
graphi ques</w>
renforc er</w>
im possible</w>
in ement</w>
eu e</w>
ord -
onn at</w>
seu ls</w>
ati quement</w>
laiss é</w>
C N
ta x
cl airement</w>
rem erci
In stitu
inter ne</w>
all ée</w>
loc al</w>
uni versité</w>
R ap
in ce</w>
su g
dé pend
re vient</w>
le ver</w>
sec teurs</w>
D el
ci eux</w>
tradu ction</w>
li ts</w>
ven tes</w>
con t
Ch i
condui t</w>
les quelles</w>
suiv ante</w>
employ és</w>
men té</w>
connaiss ances</w>
is -
9 ,
T ran
pit al</w>
s u</w>
import antes</w>
Av ant</w>
som me</w>
har mon
j au
supplément aires</w>
Pour quoi</w>
étab lir</w>
journ al</w>
so i</w>
f ra
l é
ag o
électron ique</w>
M ou
0 -
res pecti
fi és</w>
P as
idé al</w>
tr o</w>
initi ative</w>
sec rétaire</w>
we ek
volu me</w>
re aux</w>
trav aille</w>
ci te</w>
N E</w>
psy ch
a éri
surveill ance</w>
m aisons</w>
acti ve</w>
f oi</w>
K i
m at</w>
Q ui</w>
let tres</w>
ar gu
artis te</w>
mé decin</w>
S é
3 4</w>
P C</w>
europé ens</w>
financi ers</w>
com prenant</w>
o ise</w>
ti r</w>
trai ts</w>
B I
us tr
e z-
tu é</w>
ri che</w>
acti fs</w>
préc is
R S</w>
Bru x
tent er</w>
écri re</w>
exécu tion</w>
form ations</w>
b all
ordin ateur</w>
di te</w>
con vient</w>
si n</w>
tri ème</w>
au tr
vi tés</w>
lég i
en qu
pri me</w>
voi rs</w>
scienti fique</w>
génér ation</w>
m ass
b anc
n ation</w>
Ç a</w>
Con vention</w>
jou é</w>
m ail</w>
IN E</w>
por tes</w>
C a
c ra
rece v
évi demment</w>
in et</w>
lu min
utilis és</w>
espè ces</w>
renseign ements</w>
ti me</w>
tri c
s ki</w>
ré pu
op tim
per tin
mél ange</w>
ex pédi
influ ence</w>
ag u
bu r
cons iste</w>
aul t</w>
men er</w>
U M
tribu nal</w>
suiv ants</w>
ag ence</w>
ti ères</w>
in dispens
cal cul
pens ée</w>
cr et</w>
Par mi</w>
communi qué</w>
Al ex
in aire</w>
collabor ation</w>
5 5</w>
inter médi
dev ra</w>
associ ations</w>
iss ait</w>
B ro
co les</w>
mo indre</w>
grat uit</w>
am our
V en
ci dent
6 ,
class ement</w>
regar der</w>
ox y
accu s
pr ess
lend emain</w>
prés ents</w>
g ène</w>
ét er</w>
Mal gré</w>
conf lit</w>
Lond res</w>
mo du
fi d
secon d
gr an
eur o</w>
mi té</w>
Li b
pi que</w>
ban que</w>
sé ance</w>
P eu
H om
f allait</w>
l ant</w>
cri tères</w>
è se</w>
intégr ation</w>
ad mi
int ég
dé ch
ou se</w>
mon ter</w>
arrê té</w>
Isra ël</w>
grou p
col or
t om
en tour
détermin er</w>
nom s</w>
diffu sion</w>
Jap on</w>
inten tion</w>
étrang ers</w>
prépar er</w>
g ol
M ag
gn es</w>
r ont</w>
condui te</w>
oubli er</w>
ori z
O n
bi lités</w>
dem eure</w>
modi fier</w>
o les</w>
en vers</w>
ri tu
Pour tant</w>
empr un
re ti
Sain t</w>
échang es</w>
S au
h éb
P L
cli mati
dirige ants</w>
prof esseur</w>
financi er</w>
isc ine</w>
augment er</w>
Char les</w>
ouv r
bou che</w>
at ures</w>
signi fie</w>
domi cile</w>
et erre</w>
dem andes</w>
fabri cation</w>
du e</w>
propri étaire</w>
ouv ri
off res</w>
futu r</w>
. Le</w>
ig n</w>
litt ér
ém er
précé d
con ception</w>
AI RE</w>
inscri t</w>
b éb
direc t</w>
ém atiques</w>
gr ave</w>
dé part
l ab
C ô
t aine</w>
mati ères</w>
quit ter</w>
v ise</w>
œu vres</w>
immédi atement</w>
g érer</w>
v an
châ teau</w>
con tempor
ét oi
pê che</w>
a té</w>
ai mer
gr oss
affir me</w>
s oin</w>
pl age</w>
to r</w>
just ement</w>
Joh n</w>
tot ale</w>
H am
G ouvern
oph ie</w>
aur ais</w>
amélior ation</w>
ar chi
lanc er</w>
et -
con ver
o bi
patrim oine</w>
Ass oci
victi me</w>
perfor man
cl assi
M A
t age</w>
h éri
f ins</w>
Di rec
è tes</w>
in cl
pro positions</w>
fi ant</w>
Pri x</w>
Angl eterre</w>
internation ales</w>
r av
soi gn
Au c
chôm age</w>
minim um</w>
S én
mar i</w>
él us</w>
magni fique</w>
priv ée</w>
origin al</w>
su bi
is ée</w>
rec ettes</w>
au tés</w>
d at
ti bles</w>
ex pos
il l</w>
ré d
al ise</w>
tr e-
ô ts</w>
ryth me</w>
sex e</w>
utilis ant</w>
ain tes</w>
on g</w>
Bre t
ver tu</w>
m assi
qua trième</w>
mer ci</w>
E tats</w>
lo gique</w>
gouvern ement
pouv ons</w>
u els</w>
es te</w>
bâti ment</w>
essay er</w>
alis és</w>
ing éni
G I
3 9</w>
particip ants</w>
gu er
all ez</w>
senti ment</w>
publi cation</w>
ali mentation</w>
sign é</w>
pr ê
res tent</w>
con tient</w>
cl é</w>
G én
g re
expli quer</w>
ban ques</w>
n és</w>
P arti
Su isse</w>
ap parti
caractéris tiques</w>
199 8</w>
n ei
con tres</w>
pai ement</w>
fran ch
dét aill
3 8</w>
ce aux</w>
coll ection</w>
pré serv
voul oir</w>
Tr ès</w>
kilom ètres</w>
S ol
capa cités</w>
pour suivre</w>
progr essi
g a</w>
con sid
ar me</w>
europé ennes</w>
is son</w>
er ies</w>
B on
l ati
ag ers</w>
ven ait</w>
sou tenir</w>
après- midi</w>
sup er</w>
ré su
m am
o ï
Chris ti
f or</w>
st éri
mi n</w>
Brux elles</w>
pron onc
ver re</w>
perform ance</w>
4 8</w>
él u</w>
eu ves</w>
Goo gle</w>
9 5</w>
é d
ten ues</w>
blio thè
hum ains</w>
cert ainement</w>
ang l
A P
Tou tes</w>
E T
cen tres</w>
mobi le</w>
199 0</w>
6 5</w>
ag é</w>
3 7</w>
pi r
ph ère</w>
ch ant
nation ales</w>
T u
publi c
conn aît</w>
ti vité</w>
ch oc
démar che</w>
ci de</w>
7 ,
trans par
sup prim
N ation
5 .
im pres
aven ture</w>
c ée</w>
av an
appr entiss
main tenir</w>
mis sions</w>
pro por
trouv ent</w>
beau té</w>
C ap
No ël</w>
or donn
expli qué</w>
al co
rés istance</w>
cor por
ambi ance</w>
cor d</w>
V ill
allem and</w>
au- delà</w>
dé faut</w>
circul ation</w>
bri ll
s anc
tra fi
ai m
gh t</w>
sci ences</w>
réfu gi
OU R</w>
tionn elles</w>
0 4</w>
p iscine</w>
mis si
ent end
arrê ter</w>
v ég
jeun esse</w>
di versité</w>
ti onne</w>
ri vi
is és</w>
7 -
ex port
multi ples</w>
ar a</w>
pour sui
as truc
pos tes</w>
ajou te</w>
P os
dem ain</w>
Holl ande</w>
effi c
doi g
réfl éch
scienti fiques</w>
aspec t</w>
for tement</w>
con duc
réfl exion</w>
c oin</w>
sur prise</w>
cou rir</w>
tél écharg
ac u
acc él
Gr âce</w>
visi ons</w>
H ist
élè ve</w>
S ur
lan gues</w>
con fron
A U</w>
ch age</w>
Organ isation</w>
M O
défin ition</w>
pou voirs</w>
Li gue</w>
D en
vi es</w>
Sar ko
gr amme</w>
voul ait</w>
m ille</w>
S T
répon ses</w>
cat ho
ci s</w>
pr u
mom ents</w>
pi erre</w>
k ing</w>
cir const
tionn aire</w>
m asse</w>
re t
comment aires</w>
ti e</w>
somm et</w>
dom in
fau te</w>
présid entielle</w>
lo cale</w>
L eur</w>
H i
S ta
em e</w>
ol es
W in
cé ment</w>
ni s</w>
ch ées</w>
gu er</w>
dyn amique</w>
ci- dessous</w>
di r</w>
er ez</w>
correspon d</w>
communaut aire</w>
démocr atie</w>
froi d</w>
spéci fiques</w>
ann ul
viv ant</w>
bi e</w>
conseill er</w>
onn ée</w>
britanni que</w>
in titu
pré voit</w>
ter ont</w>
ou t</w>
sé pa
popul ations</w>
9 9</w>
j ap
sold ats</w>
I I
avant ages</w>
ai t-il</w>
logi ciel</w>
organis me</w>
spéci al</w>
ch at</w>
pro vis
él oign
b a</w>
0 3</w>
g s</w>
ré par
ex es</w>
négoci ations</w>
sou mis</w>
s ho
chal eur</w>
re fu
d y</w>
conn ue</w>
ab solument</w>
P ers
an ie</w>
con tenant</w>
J our
Sarko zy</w>
au quel</w>
in ique</w>
profi t</w>
hô pital</w>
ré clam
c eau</w>
trans ports</w>
di alogue</w>
chan son</w>
juridi que</w>
écri ture</w>
rus se</w>
indi c
We b</w>
appr ouv
pr int
mi -
tran qu
cél éb
au rez</w>
B al
C li
espa gno
plac es</w>
rê ve</w>
Par ti</w>
a k</w>
opini on</w>
dis sement</w>
améric ains</w>
vég ét
an g</w>
on y
Ou est</w>
tour ne</w>
di que</w>
m ol
fra î
mé tier</w>
fr ères</w>
appar aît</w>
s ens
bat aille</w>
l and</w>
compl exe</w>
li ées</w>
cherch eurs</w>
avi on</w>
A s
er ai</w>
Cou pe</w>
week -
ca n</w>
Plu sieurs</w>
tomb er</w>
ouv oir</w>
hu man
cam p</w>
ru p
F er
mouv ements</w>
renouv el
t on
conséqu ence</w>
ces sion</w>
voyag eurs</w>
éc u</w>
com por
b omb
N os</w>
appli c
au- dessus</w>
le y</w>
C r
visi ble</w>
por teur</w>
is mes</w>
0 5</w>
dev ez</w>
gr ès</w>
b er</w>
com porte</w>
terr asse</w>
ge ant</w>
esti ni
ach et
appli quer</w>
dé voi
n ant</w>
re prise</w>
équi libre</w>
st ade</w>
consomm ateurs</w>
for cément</w>
tr ac
voul ez</w>
fu sion</w>
feu ille</w>
elle -même</w>
gui de</w>
y a</w>
annon ces</w>
y -
infr astruc
Cl aude</w>
ouver tes</w>
arriv é</w>
F ace
han di
D ou
oc cident
ar ts</w>
du r</w>
Par ce</w>
mar ques</w>
el l</w>
uni on</w>
x i
essenti ellement</w>
h oriz
ég al</w>
contr e
re .
main tien</w>
pré vue</w>
am end
intéress ant</w>
pl ant
foot ball</w>
v él
re connaissance</w>
lég iti
mauv aise</w>
sus cep
comm en
op pe</w>
rem ettre</w>
C oll
der a</w>
empê cher</w>
S am
h as
pré occu
im men
c ents</w>
struc tures</w>
atten d</w>
dé n
présent ant</w>
jap on
form é</w>
pr euves</w>
concep t</w>
ter res</w>
assur é</w>
F é
ab il
U I
ag ement</w>
chac une</w>
déci de</w>
déc ouvert</w>
T er
re connu</w>
o sité</w>
all ons</w>
di minu
investiss ements</w>
ter ri
che fs</w>
re prendre</w>
environn ement
affir mé</w>
and re</w>
sor ti</w>
En tre</w>
comb in
aiss ent</w>
Ban que</w>
inform atique</w>
f leurs</w>
judici aire</w>
mar ch
éri ques</w>
a qu
B lan
éri r</w>
L .</w>
bil an</w>
consé quent</w>
ur b
dis que</w>
is tant</w>
cl és</w>
in car
règ le</w>
pro cès</w>
vrai e</w>
oc k</w>
oi ts</w>
ren contres</w>
utilis ée</w>
lon gueur</w>
principa les</w>
Soci été</w>
ter ait</w>
récu p
U ni</w>
Rob ert</w>
équi val
S o
espa ces</w>
chu te</w>
Bret agne</w>
pol lu
aliment aire</w>
compéti tion</w>
sym path
g on
anti ll
modi fication</w>
M c
circ uit</w>
ch s</w>
Gouvern ement</w>
scol aire</w>
8 5</w>
bu ts</w>
pl at</w>
dang er</w>
et h
R AN
di o</w>
hér os</w>
nation aux</w>
b s</w>
re joindre</w>
k er</w>
ag no
com édi
4 00</w>
difficul té</w>
R ES</w>
pen sion</w>
dér ation</w>
chapi tre</w>
A V
rencontr er</w>
par all
uni vers
considér é</w>
re prises</w>
prom is</w>
S E</w>
ex ception</w>
Ly on</w>
sim pli
é par
dé bar
compl ément
N O
pré vention</w>
de vi
199 7</w>
M os
dé gr
mél ang
ass istance</w>
ré ser
cent aines</w>
c ou</w>
région al</w>
pro to
eux -ci</w>
esti mé</w>
apprentiss age</w>
ob s
8 ,
C ro
donn ent</w>
rel ativement</w>
S P
form at</w>
suc re</w>
I r
religi on</w>
Face book</w>
M ain
sou ligne</w>
transfer t</w>
ON U</w>
oblig ation</w>
Gén ér
sur -
destin é</w>
col on
garanti e</w>
dev ons</w>
v ul
hy dro
con ç
man uel</w>
chau d</w>
0 6</w>
ni er</w>
î t</w>
M aison</w>
net toy
héb er
st er</w>
extrê mement</w>
parl ement
in tes</w>
mo tiv
com préh
inst aller</w>
appli cations</w>
rédui t</w>
dr é</w>
r y</w>
lég èrement</w>
éri eurs</w>
m és</w>
envoy er</w>
T ro
limi tes</w>
poin te</w>
T hi
CO MM
Est -
agri culture</w>
ré ception</w>
avo cat</w>
effor t</w>
cré e</w>
pr ends</w>
D an
ter ran
possi bilités</w>
ent end</w>
En suite</w>
ré per
mu r</w>
particuli ers</w>
tomb e</w>
expl o
particuli ère</w>
habitu de</w>
par isi
4 2</w>
lis ation</w>
ist an</w>
compor tement</w>
défin ir</w>
qu e-
possi bles</w>
br û
correspon d
ô mes</w>
emb ar
B as
M a</w>
procé dures</w>
des ign</w>
sign al
199 5</w>
ari o</w>
u r</w>
Can adi
Laur ent</w>
men ace</w>
statis tiques</w>
v eau</w>
on g
suffis amment</w>
for êt</w>
caf é</w>
op tion</w>
ap pe</w>
ap pris</w>
C our
ré ment</w>
éri eures</w>
accor ds</w>
organis é</w>
constr uit</w>
gé ni
partici pé</w>
re j
b eaux</w>
ex empl
bl é</w>
O c
en se
pr êts</w>
N é
phénom ène</w>
c ant
cy cle</w>
att ent
vas te</w>
en ce
f e</w>
g ér
jeu ner</w>
autom obi
polici ers</w>
al -
dis ant</w>
re cette</w>
dis crimin
olo gue</w>
ch è
eu il</w>
f our</w>
0 2</w>
6 .
ch ass
j i
précé dent</w>
voi ci</w>
rem ise</w>
ac céder</w>
cou pe</w>
dem eur
am us
sec ret</w>
am or
ad oles
An n
bénéfici er</w>
s cul
onn ant</w>
qu ette</w>
écou te</w>
tis me</w>
pa ssion</w>
ph one</w>
O p
ar bi
extr a
adop té</w>
j oie</w>
n er
Institu t</w>
étrang ères</w>
Mar se
t ère</w>
acci dent</w>
rass embl
week- end</w>
fourn iss
T hom
hum aines</w>
secon des</w>
tu e</w>
étab li</w>
h al
par am
suiv antes</w>
milli on</w>
en sion</w>
financi ères</w>
minis tres</w>
Roy au
au th
Quel ques</w>
ving t</w>
d enti
situ ations</w>
Marti n</w>
facili ter</w>
respec ter</w>
L a
pré al
consul ter</w>
p ann
remar qu
démi e</w>
op portu
dis pu
n ez</w>
sin on</w>
lég u
mes ur
F re
B on</w>
no ter</w>
op hi
T or
confi gu
ab b
s ouver
mus ée</w>
maladi es</w>
ing ton</w>
dou c
ét end
pré pa
c eci</w>
c esse</w>
hu mi
exi gences</w>
dé fici
met tent</w>
déf endre</w>
aspec ts</w>
gi es</w>
hé sion</w>
feu illes</w>
visi ter</w>
dépu tés</w>
stitu tion</w>
voi ent</w>
J eux</w>
L L
formu le</w>
e re</w>
199 6</w>
. com</w>
B ur
dis ent</w>
v écu</w>
dipl om
ga re</w>
sign al</w>
h a</w>
print emps</w>
ay e</w>
nuclé aire</w>
R ome</w>
journ alistes</w>
privi légi
A L</w>
è che</w>
go û
al d</w>
vi de</w>
direc tive</w>
meill eures</w>
D er
accu eillir</w>
ré mun
in con
inv ent
f all
sal les</w>
voi tures</w>
M as
territ ori
Al g
dui re</w>
fac teurs</w>
or é</w>
A B
ouver ts</w>
A ff
la c</w>
ci e</w>
dét ec
appare ils</w>
ém issions</w>
sé qu
sci ence</w>
di a</w>
s ond
péd ago
ang le</w>
tu er</w>
Associ ation</w>
bl eu</w>
in dem
l ance</w>
b us
Voi là</w>
4 4</w>
ph on
st and
fer me
ap porte</w>
électri cité</w>
pré vues</w>
Mar c</w>
met tant</w>
G ui
ch on</w>
mar qu
Vi c
M us
ou x</w>
éner gé
l ac
sim ples</w>
I II</w>
Royau me-
s ée</w>
champi onnat</w>
journ aliste</w>
ax e</w>
fi ces</w>
er ons</w>
O li
franç aises</w>
G rè
plan ète</w>
G er
rappel er</w>
progr ess
enf ance</w>
dé jeuner</w>
charg es</w>
Li re</w>
f éli
on de</w>
él ég
V ille</w>
acc ess
ru es</w>
re fl
br uit</w>
ran g</w>
concer t</w>
all ant</w>
s k
indivi dus</w>
no tes</w>
natur elle</w>
Ar ti
par avant</w>
c on</w>
ill age</w>
internation aux</w>
T oul
centr al</w>
épou se</w>
a ou
E r
radi o</w>
séri eux</w>
commerci al</w>
chang é</w>
y ant</w>
V ol
e x</w>
com bien</w>
pâ te</w>
t aient</w>
L oi</w>
trai ter</w>
Pa tri
vidé os</w>
V in
migr ation</w>
Royaume- Uni</w>
0 .
in ts</w>
cellu les</w>
spéci fique</w>
dépu té</w>
1 50</w>
bl es
R ec
- là</w>
entre pren
ob st
indépend ance</w>
co hér
v endre</w>
C at
s ant</w>
plac é</w>
cli mat</w>
vo i</w>
t ol
pens é</w>
dé bi
organis er</w>
f actu
soulign é</w>
2 5
ann exe</w>
chan dis
E L</w>
Y ou
Am éric
ch ard</w>
ru ption</w>
T él
mi r</w>
oi r
ag res
cy cl
mont agne</w>
p ont</w>
parti tion</w>
reç oit</w>
T ER
it aire</w>
supplément aire</w>
Au ssi</w>
épis ode</w>
gratui tement</w>
h 30</w>
un es</w>
bi en
T C</w>
représent ent</w>
constitu ent</w>
innov ation</w>
in fl
M édi
D ani
expéri ences</w>
trafi c</w>
l abor
fron tière</w>
m onn
asi n</w>
T V</w>
s ach
o v
sembl ent</w>
f ol
oblig ations</w>
4 3</w>
différ ent</w>
lec teur</w>
de venue</w>
potenti el</w>
faudr ait</w>
d ra
di en</w>
a pos</w>
chin ois</w>
visi teurs</w>
extr ême</w>
imp ôt</w>
b aiss
contr ats</w>
l u</w>
T our
trou pes</w>
pro long
dé gu
ét age</w>
trans mission</w>
at mos
é preuve</w>
err y</w>
s én
pro fond
F OR
on s-
î tre</w>
racon te</w>
inter di
contribu tion</w>
ré ellement</w>
di vision</w>
f ro
prom ouvoir</w>
k o</w>
iss ez</w>
chi en</w>
r ons</w>
g am
g yp
gouvern ements</w>
situ e</w>
b ill
G re
f aux</w>
e k</w>
mar qué</w>
8 -
qua si
C onn
choc ol
su d-
mani té</w>
m ans</w>
K ar
C I</w>
uni tés</w>
recommand ations</w>
préc isé</w>
is ra
médec ins</w>
Grè ce</w>
ei m</w>
équip ements</w>
dou x</w>
pres tations</w>
flu x</w>
porte- parole</w>
inscri re</w>
offici el</w>
Bern ard</w>
g in
docu ment
tradi tion</w>
ti ce</w>
restaur ant</w>
4 9</w>
te d</w>
c ouverture</w>
réus site</w>
destin ation</w>
uti les</w>
lon gues</w>
Sec rétaire</w>
accessi ble</w>
opér ationn
comm iss
D É
révol ution</w>
v aiss
adop tion</w>
médicam ents</w>
pl antes</w>
0 8</w>
peu ples</w>
intermédi aire</w>
vê tements</w>
ess ai</w>
démocr atique</w>
pl ani
v us</w>
instr uments</w>
Mon de</w>
T RE</w>
r al
199 4</w>
de l</w>
fin ir</w>
r ist
t est</w>
cham ps</w>
parten ariat</w>
K o
accep ter</w>
d ress
Tran s
conserv er</w>
aut or
Déc ouvrez</w>
performan ces</w>
litt érature</w>
ser ez</w>
préci s</w>
envoy é</w>
s pa
indispens able</w>
es thé
tr ine</w>
résid ence</w>
0 9</w>
ni que</w>
D ur
au d</w>
ordin ation</w>
d re
affi che</w>
mar chandis
Sy rie</w>
k s</w>
- -</w>
cr ème</w>
pau vres</w>
te aux</w>
sil ence</w>
religi eux</w>
por tés</w>
oi ent</w>
cri tiques</w>
attend ant</w>
ol i</w>
i a</w>
f r</w>
w n</w>
ti se</w>
ô les</w>
grap he</w>
rar es</w>
n ey</w>
rivi ère</w>
béb é</w>
atten te</w>
mag az
o c</w>
n ord-
f action</w>
ré action</w>
cin qu
oy er</w>
4 1</w>
T O
en ci
inter nau
qu ait</w>
li é</w>
ra re</w>
répon d</w>
pa tri
G ol
co or
précis ément</w>
D O
isi tion</w>
0 7</w>
boî te</w>
A sie</w>
dimen sion</w>
class es</w>
a che</w>
excel lent</w>
s ac</w>
hy dr
pau v
or es</w>
catég ories</w>
éch antill
territ oires</w>
li es</w>
8 9</w>
représent ation</w>
trim estre</w>
exac tement</w>
or ation</w>
E d
con ci
in age</w>
autoris ation</w>
liqui de</w>
plat e
éch é
bi bliothè
abi lités</w>
oi te</w>
communi cations</w>
ré col
signi fic
fron tières</w>
d ez</w>
livr aison</w>
agri cole</w>
gr osse</w>
Al ain</w>
9 2</w>
adul tes</w>
donn ant</w>
T erre</w>
c tu
cl u</w>
confor table</w>
C A</w>
extr émi
ing s</w>
j a</w>
grand -
acqu is</w>
élabor ation</w>
t oires</w>
ad di
ab sol
elle -
vers er</w>
199 2</w>
enti el</w>
off er
r aine</w>
dé pos
D em
sé cu
prim aire</w>
re vue</w>
vi ce-
cer tes</w>
B ay
dé gag
p ain</w>
par lé</w>
é sie</w>
ex ter
è lement</w>
s cr
trai tés</w>
di am
nei ge</w>
M oi</w>
blan che</w>
souv enir</w>
M oy
dén onc
cat astr
vir tu
l as
lang age</w>
mu tu
exprim er</w>
fonc tionne</w>
ro se</w>
mat chs</w>
pein ture</w>
l y</w>
mag asin</w>
fédér al</w>
7 .
A ustr
L é
C R
C eci</w>
im meu
nour ri
s me</w>
b el</w>
oc é
mi que</w>
cr u</w>
O u</w>
m ente</w>
v é</w>
in cen
étap es</w>
législ ation</w>
men ac
équip ement</w>
enseign ants</w>
ch ers</w>
avi er</w>
adap tation</w>
véri fier</w>
l â
matéri aux</w>
con vention</w>
tourn ée</w>
P OUR</w>
mi x
circonst ances</w>
con fér
ON N
4 7</w>
AF P</w>
commun autés</w>
p .
E X
P E</w>
tionn er</w>
is té</w>
inscri ption</w>
céré mon
rest au
pi ques</w>
Chris t</w>
par ts</w>
j ecti
partici pe</w>
gn on</w>
conn us</w>
Jé sus</w>
ar bres</w>
propri étaires</w>
assi n</w>
ap tis
dé ment</w>
décl en
montr ent</w>
on -
Br un
dé fi
rem pl
enregistr ement</w>
p oign
thé orie</w>
anni versaire</w>
P oli
con çu</w>
déch ets</w>
ç ait</w>
cal end
agno sti
tab lement</w>
l és</w>
Bu reau</w>
6 4</w>
dis ait</w>
ti s</w>
ac a
ass ass
garanti r</w>
po le</w>
cam p
re tard</w>
st e
Marse ille</w>
g as
M AR
es t-il</w>
T our</w>
n oire</w>
ach ev
mu rs</w>
u er</w>
199 3</w>
ci ble</w>
pro cu
déc rit</w>
5 6</w>
tionn ement</w>
d ation</w>
ré elle</w>
d ons</w>
ten ait</w>
G al
collecti vités</w>
spi ritu
t al</w>
f ati
5 2</w>
Hist oire</w>
arr on
con ven
occu pe</w>
b asse</w>
d en
A .</w>
ad ore</w>
orient ation</w>
le ader</w>
Fon ds</w>
par aît</w>
rel ève</w>
B rési
amen er</w>
R égi
prom en
tionn aires</w>
ch anti
produc teurs</w>
ph ar
d ri
ci ter</w>
C .</w>
cab inet</w>
p iste</w>
v ant</w>
nor mal</w>
pri orité</w>
j ard
val oris
T ot
enti ère</w>
dossi ers</w>
correspon dant</w>
c ancer</w>
réci t</w>
ber g</w>
tr age</w>
œ il</w>
invi te</w>
cô te</w>
au paravant</w>
ann uel</w>
S A</w>
y e</w>
touris me</w>
par faite</w>
re connaître</w>
n s</w>
b ass
cor ri
ins pec
y l
G au
dé sir</w>
rel atif</w>
hu manité</w>
fix e</w>
auth enti
entr et
P res
évi dence</w>
ta xe</w>
sign es</w>
qu éb
M il
4 6</w>
201 8</w>
pa tron</w>
ma jeu
minu te</w>
t tes</w>
consid ère</w>
S in
intégr er</w>
tri que</w>
cr oit</w>
K e
o se</w>
Tou te</w>
m ène</w>
eu s</w>
bu reaux</w>
ist ère</w>
s te</w>
z a</w>
P ol
anc s</w>
in i</w>
9 3</w>
travaill é</w>
souhai tez</w>
dé co
mor ceaux</w>
ti ème</w>
i ons</w>
sou rire</w>
sau ver</w>
évalu er</w>
perspecti ve</w>
obst ac
s el</w>
cultu rel</w>
déc en
T hé
collecti f</w>
cat alogue</w>
réfugi és</w>
effecti vement</w>
cam ér
sécu ris
transi tion</w>
pl uie</w>
spéci ale</w>
ch t
réalis ée</w>
eux- mêmes</w>
par oles</w>
to p</w>
effectu é</w>
g or
déc ès</w>
A i
h ommage</w>
fi ées</w>
ju gement</w>
N a
. La</w>
offici elle</w>
Tr av
Cham pi
u é</w>
s hi
agri coles</w>
m ad
th i
les -
UN I
C D
ab outi
im es</w>
mont ag
for um</w>
atta ques</w>
cour age</w>
w a</w>
log ements</w>
aéro port</w>
- je</w>
Ch rist
Pro gramme</w>
pétro le</w>
chan sons</w>
Com p
vi ande</w>
disponi bilité</w>
in croy
rem is</w>
ar n
tâ che</w>
déc ouvre</w>
pass ent</w>
bas es</w>
Main tenant</w>
chau s
Gu erre</w>
p es
ch asse</w>
ri té</w>
isra éli
histori ques</w>
ri ches</w>
vi vent</w>
v ins</w>
per f
consul tation</w>
Bre f</w>
I ra
C U
pauv reté</w>
di vis
gag né</w>
8 8</w>
av es</w>
pour suit</w>
C F
ke ting</w>
parten aire</w>
Fé dération</w>
immen se</w>
mani pul
s able</w>
reven di
initi atives</w>
éch ec</w>
méri te</w>
ple inement</w>
présid ence</w>
us ine</w>
F ai
I ci</w>
qu eur</w>
vi eill
is tique</w>
ai mé</w>
bâti ments</w>
n g</w>
fi che</w>
condui re</w>
Tr ois</w>
l er
ul t
conn exion</w>
allem ande</w>
autom ne</w>
im poser</w>
ap parition</w>
J eu
anim al</w>
olo gne</w>
A gence</w>
bu l
sol li
tari at</w>
Est- ce</w>
adap ter</w>
9 -
c ouv
mon tée</w>
P D
mon sieur</w>
autr ement</w>
bi en-
actu alité</w>
soci aliste</w>
o di
ré sou
région ale</w>
L à</w>
qu ie</w>
F ré
es ter</w>
expéri ment
tur b
F u
Pu bli
men é</w>
5 1</w>
discu ssion</w>
compa gne</w>
ro be</w>
V O
solid arité</w>
mod alités</w>
Au x</w>
7 2</w>
sal aire</w>
n ou
In de</w>
chev al</w>
apparti ent</w>
a- t-elle</w>
no tion</w>
utilis ées</w>
su sci
n ées</w>
chal eur
la m</w>
pass ée</w>
architec ture</w>
ar ran
s tre</w>
lib ération</w>
ran te</w>
y r
voul ais</w>
diz aines</w>
gr am
C lu
wit ter</w>
AU X</w>
g el
5 4</w>
senti r</w>
l o</w>
ch ances</w>
6 00</w>
en jeux</w>
ré public
fl ui
Alg érie</w>
J O</w>
ce voir</w>
institu tion</w>
fa ç
m ac
m â
ta s</w>
ra se</w>
profond eur</w>
cul aire</w>
festi val</w>
soli de</w>
contr e-
devr ont</w>
L an
a el</w>
fichi ers</w>
champi on</w>
install ations</w>
inter dit</w>
um p</w>
198 0</w>
conf lits</w>
An dré</w>
mar t
di min
éc ar
on y</w>
ess ais</w>
d en</w>
sc and
N I
sec ours</w>
al g
X VI
D U
identi fier</w>
cl ar
vi eille</w>
re pris</w>
Thom as</w>
l adi
c ens
S ous</w>
im pose</w>
glob ale</w>
sou p
ca dr
OU R
voi es</w>
c â
en rich
déplac ement</w>
légu mes</w>
G o
5 7</w>
re joint</w>
trans formation</w>
cal cul</w>
stratég ique</w>
Tur quie</w>
E C</w>
énor me</w>
cou p
adi s</w>
b eur
fichi er</w>
li ère</w>
collè gues</w>
R èg
pu issant</w>
S ci
F A
ouvr ages</w>
5 8</w>
co pi
C ES</w>
favoris er</w>
b ag
comm an
cri me</w>
s en
rév èle</w>
endr ont</w>
ch ou
Con férence</w>
ab sor
pau vre</w>
a dé
Servi ce</w>
g al</w>
s avez</w>
É glise</w>
pro venant</w>
alis ées</w>
199 1</w>
li ée</w>
di tes</w>
empl acement</w>
dé cret</w>
pilo te</w>
AN S</w>
P RE
g rés</w>
lut ter</w>
men ée</w>
mo des</w>
min e</w>
7 7</w>
fen être</w>
iss ante</w>
Es pa
n av
pi t</w>
discu ssions</w>
lat ér
re p
co ordination</w>
sac ri
bou te
connaiss ent</w>
ai des</w>
ec h</w>
rais onn
ress embl
S .</w>
Ac tu
interprét ation</w>
è dent</w>
. Les</w>
dou leur</w>
c eux-ci</w>
canadi en</w>
f i</w>
as te</w>
invi tés</w>
entraîn ement</w>
Euro pé
t ante</w>
B as</w>
constitu é</w>
cultur elle</w>
compét ence</w>
bar re</w>
maîtr ise</w>
ca p</w>
ré nov
W ash
édu c
artis tique</w>
do ws</w>
5 9</w>
pres sions</w>
6 8</w>
tru ment</w>
fin ances</w>
appli que</w>
con que</w>
pro s
o m</w>
économ ies</w>
t s
G E</w>
manifes tations</w>
6 2</w>
re vi
ar bre</w>
Hen ri</w>
délég ation</w>
5 3</w>
fonctionn aires</w>
nég li
bl er</w>
San té</w>
T ES</w>
œu rs</w>
hist oires</w>
in és</w>
le aux</w>
aménag ement</w>
O t
amour eux</w>
confir mé</w>
ti ge</w>
personn els</w>
pu issent</w>
sav ent</w>
remplac er</w>
destin ée</w>
t am
H on
j e
logi ci
mess ages</w>
op tique</w>
re cord</w>
associ é</w>
personn elle</w>
hô tes</w>
scén ario</w>
Ori ent</w>
terroris me</w>
ten té</w>
ol ym
serv i</w>
fr ont</w>
Ob ama</w>
engag er</w>
has ard</w>
publi cité</w>
mat h
pro c
li aison</w>
pr ince</w>
de gré</w>
ass embl
essi ons</w>
gar çon</w>
fran cs</w>
Cham bre</w>
L av
spéci aliste</w>
éc ois</w>
i gne</w>
des cription</w>
vois ins</w>
dépen d</w>
ass emblée</w>
W illi
lib res</w>
capa bles</w>
au gu
qu alités</w>
mag as
inter vie
poli ti
siè cles</w>
amb ass
capit aine</w>
différ ente</w>
indi ce</w>
for ts</w>
é prouv
répon du</w>
anti ci
proch aines</w>
calend rier</w>
accompagn er</w>
séri es</w>
Qu el</w>
pa tient</w>
8 .
land ais</w>
gu ère</w>
chi rur
oblig atoire</w>
g an</w>
v esti
aci er</w>
Wash ington</w>
profi l</w>
M S</w>
ti ll
déb ats</w>
philos ophie</w>
l d</w>
struc tu
chocol at</w>
autom atiquement</w>
cré ée</w>
tal ent</w>
6 7</w>
on ze</w>
es cl
ar t
ac comp
pris onni
du c</w>
ti on
déf i</w>
auton omie</w>
scul p
F e
év èn
or i</w>
jau ne</w>
chau ss
I L</w>
lo isi
S N
ran ces</w>
organis ée</w>
re group
di agnosti
diffici les</w>
automobi le</w>
tr ent
dou ce</w>
onn ées</w>
ab at
L in
cour te</w>
p in
ten ance</w>
immobi lier</w>
canadi enne</w>
lanc ement</w>
bat eau</w>
b ris
to s</w>
ign or
pro cur
ins trument</w>
écou ter</w>
F C</w>
car bu
l et</w>
no i</w>
déli vr
b ar</w>
off rent</w>
dé faite</w>
T H
arab e</w>
ri ez</w>
isl am
t onnes</w>
col ère</w>
mon o
Mar oc</w>
k g</w>
en de</w>
év ê
pa tions</w>
migr ants</w>
J ér
ser vent</w>
favor able</w>
manifes tation</w>
déc ro
m énag
vo cation</w>
O ffice</w>
R É
S or
R a
C it
éc art</w>
s aint</w>
r entr
quarti ers</w>
bl ancs</w>
rencontr é</w>
pal estini
jo lie</w>
atten tes</w>
commerci ale</w>
gyp te</w>
spect ateurs</w>
char me</w>
an th
Ri en</w>
hési tez</w>
co s
th èmes</w>
Tr ump</w>
st abil
tes -
co lis</w>
modi fications</w>
dan se</w>
ch eur</w>
occu per</w>
mi t</w>
ori que</w>
ré tariat</w>
fu si
accompagn é</w>
ti r
danger eux</w>
Se ign
ol s</w>
pa pe</w>
nouv eau
fon dé</w>
appel er</w>
comment aire</w>
9 .
vél o</w>
U N</w>
G ro
développ é</w>
ég ale</w>
at a</w>
dem i</w>
fou le</w>
P rés
in no
dr ap
diz aine</w>
f ans</w>
AN T</w>
st abilité</w>
eni rs</w>
rap i
s ag
renforc ement</w>
dé ta
si s</w>
. -
internau tes</w>
fac es</w>
navi gation</w>
équip ée</w>
gén é
mécan isme</w>
disposi tifs</w>
aux quels</w>
stu dio</w>
9 4</w>
atten du</w>
f asse</w>
ach ats</w>
mor ale</w>
op tions</w>
m ont</w>
6 6</w>
ri el</w>
V all
sep h</w>
ferme ture</w>
adop ter</w>
adé qu
6 3</w>
natur elles</w>
C é
alco ol</w>
V A</w>
ti ne</w>
élev ée</w>
ali ments</w>
T É</w>
ét hi
empê che</w>
bou tique</w>
en vel
re tte</w>
musul mans</w>
an es</w>
par venir</w>
A li
d ay</w>
destin és</w>
6 1</w>
adap té</w>
al le</w>
qui tte</w>
s .</w>
M é
s core</w>
laiss ant</w>
C ode</w>
nourri ture</w>
ot te</w>
réguli ère</w>
g end
acqu isition</w>
fix é</w>
mach ines</w>
A ffi
H y
aug menté</w>
médec ine</w>
T witter</w>
présent ent</w>
gl ace</w>
comm andes</w>
nu l</w>
pl aque</w>
handi cap
priv és</w>
n ations</w>
end rait</w>
stock age</w>
Te ch
Jo seph</w>
bl esse</w>
r ati
8 6</w>
compréh ension</w>
prot é
Brési l</w>
ra les</w>
7 8</w>
U ti
Por tu
9 1</w>
voudr ais</w>
tou cher</w>
qu art</w>
re trouvé</w>
C L
off ert</w>
év acu
9 8</w>
dr am
f un
ent ation</w>
m ur
accu sé</w>
tu n
compos ée</w>
C y
fon dée</w>
sensi ble</w>
mét é
termin é</w>
endr oits</w>
exemp les</w>
précéd ente</w>
pres tation</w>
9 6</w>
M él
contribu er</w>
regar de</w>
at ur
l ine</w>
si f</w>
ni es</w>
tes ts</w>
dou ze</w>
all ég
Win dows</w>
Dani el</w>
tr ag
in ti
conn ais</w>
is sus</w>
déclar ations</w>
poss é
hum our</w>
ennem i</w>
tari fs</w>
Min istère</w>
const at
const até</w>
pa lais</w>
ob tient</w>
fran co
veill er</w>
condam né</w>
oo d</w>
port ait</w>
A ca
ving t-
préc ision</w>
quit té</w>
In di
b ét
ri es</w>
lég ère</w>
cin qui
err eurs</w>
classi ques</w>
op i
ap i
in suffis
Ch â
constitu tion</w>
limi ter</w>
respons abilités</w>
engag é</w>
engag ements</w>
8 7</w>
plat eau</w>
E ss
marchandis es</w>
exam iner</w>
bi ais</w>
j ection</w>
associ és</w>
progr ession</w>
lég er</w>
Règ lement</w>
8 00</w>
pl as
lec teurs</w>
F au
ant aine</w>
région ales</w>
grav es</w>
W il
respecti vement</w>
x ième</w>
u elles</w>
monn aie</w>
in verse</w>
L am
Jus qu'</w>
part ag
D im
plac er</w>
at titude</w>
pays age</w>
o te</w>
in o</w>
aliment aires</w>
P ER
réalis és</w>
ass ist
conclu sions</w>
pi ers</w>
indivi du</w>
réuni ons</w>
intér esse</w>
mat ern
P H
const ater</w>
M et
stratég ies</w>
An ti
concern és</w>
d omm
C a</w>
maj eur</w>
S a
lu e</w>
voy ant</w>
install é</w>
investiss eurs</w>
trouv ez</w>
g el</w>
énergé tique</w>
Mad ame</w>
so r</w>
W al
cad res</w>
H o
mal heureusement</w>
u p</w>
A f
sti mul
vill ages</w>
esti m
x embour
y ez</w>
invi té</w>
résou dre</w>
ar k</w>
tiss u</w>
excell ente</w>
s év
ess eurs</w>
l à-
les -ci</w>
famili ale</w>
C .
cou ples</w>
souv enirs</w>
scr uti
au d
C in
J ui
imp ôts</w>
ill ez</w>
Gran de</w>
super be</w>
en v
pro ven
consac ré</w>
for tes</w>
fr om
dyn am
U R
dou che</w>
accep té</w>
rev ê
syndi cats</w>
procé dés</w>
fr ag
itali en</w>
UM P</w>
OU S</w>
serv eur</w>
an te-
étudi er</w>
Patri ck</w>
t airement</w>
po t</w>
v allée</w>
déf ens
ex cu
mar keting</w>
impres sionn
pl astique</w>
ent ement</w>
P E
ag on
li eu
communi quer</w>
am pl
off ensi
thérap eu
am ateurs</w>
S S</w>
tr ont</w>
re tirer</w>
er -
S av
mi r
Gu ill
sign ature</w>
Tot al</w>
X e</w>
Den is</w>
g ère</w>
sc ènes</w>
rou tes</w>
am iti
dé mon
s pon
1 1
P y
élec teurs</w>
déc ri
limi tée</w>
f oli
ing rédi
co t
F F
198 9</w>
s pati
com mis</w>
no ti
vir us</w>
7 1</w>
beur re</w>
Bor deaux</w>
Mari e-
sou s
SU R</w>
acc ent</w>
sensi bil
w ay</w>
ges te</w>
entraîn eur</w>
présent ée</w>
mar ge</w>
trans form
clu bs</w>
pl us
Str as
S an</w>
d y
second aire</w>
et h</w>
tin s</w>
ent er</w>
e- mail</w>
cui r</w>
ma r</w>
bill ets</w>
tour né</w>
st ock</w>
ag issait</w>
direc te</w>
mé tro
p t
A fin</w>
rem porté</w>
pén étr
C D</w>
rec ens
min aire</w>
I ran</w>
tâ ches</w>
restau rants</w>
7 6</w>
car di
équi lib
réglement ation</w>
cuis son</w>
trou bles</w>
olo g
rel s</w>
inf érieure</w>
re trait</w>
avan t-
pré venir</w>
or able</w>
qui n</w>
lan tique</w>
Mau ri
cinqui ème</w>
bel ge</w>
remp lir</w>
8 3</w>
b ains</w>
L au
pro pa
ch e-
An to
o eil</w>
trad uit</w>
pi er
posi tif</w>
accu mul
man n</w>
e illes</w>
propri étés</w>
cul tures</w>
Beau coup</w>
tran ge</w>
mou rir</w>
rich esse</w>
mo des
ar ra
A ir</w>
pour suite</w>
crédi ts</w>
ai gu
re froi
lev é</w>
am ie</w>
ent- ils</w>
tu eux</w>
ex ique</w>
G ér
re tourner</w>
fourni t</w>
L or
satis faction</w>
is ées</w>
Au tri
Peti t</w>
rou ges</w>
J os
r entrer</w>
V ER
pouss er</w>
révol uti
per eur</w>
d ait</w>
Mich ael</w>
8 2</w>
co tis
lo s</w>
récup érer</w>
ins truction</w>
Peu t-être</w>
p istes</w>
quin ze</w>
2 50</w>
R os
différ ences</w>
sou ci</w>
con qu
mécan ismes</w>
A C</w>
scol aires</w>
Jam es</w>
or th
Pay s-
spéci alistes</w>
départ ement
prés entes</w>
si er</w>
E D
port ées</w>
su spec
bre f</w>
t .
li v
origin ale</w>
li cence</w>
anim ation</w>
Seign eur</w>
ré alise</w>
di er</w>
O s
im pu
Pay s</w>
mo tifs</w>
ré partition</w>
B at
in fir
offici ellement</w>
im ent</w>
natur ellement</w>
magaz ine</w>
S e</w>
cop ie</w>
7 3</w>
al iné
b rou
A z
pré fé
ju gé</w>
bour ge
M I</w>
cou pa
Arti cle</w>
régl er</w>
discrimin ation</w>
dép ôt</w>
Clu b</w>
béné fice</w>
tot alité</w>
pl ats</w>
al en
préf ère</w>
atmos phère</w>
mi d
enregistr é</w>
matéri au</w>
dé riv
certi fi
édi teur</w>
tr ente</w>
com posi
fond ateur</w>
cau ses</w>
hou si
RD V</w>
él arg
organ es</w>
can al</w>
conclu sion</w>
W or
pr ête</w>
per d</w>
ois eaux</w>
toi le</w>
and a</w>
pouv aient</w>
trouv ait</w>
compar aison</w>
inter venir</w>
vo ter</w>
int érieure</w>
ch et</w>
tru c</w>
intitu lé</w>
intro duction</w>
At tention</w>
P ME</w>
8 1</w>
s ais
cli ent
ré tab
I S</w>
8 4</w>
extra ordinaire</w>
ff e</w>
ver ti
c is
Em manuel</w>
coll ège</w>
M e</w>
j eter</w>
inf érieur</w>
t- ils</w>
équi pé</w>
A N</w>
au ssi
déc isi
QU ES</w>
for ment</w>
access oires</w>
ll e
collecti ve</w>
inté gré</w>
b a
fin it</w>
dé non
j us</w>
le ts</w>
cérémon ie</w>
chim iques</w>
logici els</w>
rap proch
appro fon
des sin</w>
Ri chard</w>
p ée</w>
fréqu ence</w>
ul aire</w>
pl ais
infrastruc tures</w>
l ées</w>
effic aces</w>
5 0
num ér
distin c
ét ér
espér ons</w>
co opér
tiss ement</w>
attr ap
con clu</w>
gi ques</w>
ex tension</w>
ess ence</w>
H or
charg ée</w>
a tre</w>
mag istr
Aff aires</w>
anci ennes</w>
soi x
U n
9 7</w>
magas ins</w>
el d</w>
ali er</w>
so ft</w>
gr ève</w>
fr uit</w>
h am</w>
Ir lande</w>
En vir
sai d</w>
Lors qu'</w>
déc é
ri ve</w>
S té
ro ck</w>
génér ales</w>
6 9</w>
re pose</w>
r ent
confir me</w>
per tes</w>
évolu er</w>
rend ement</w>
réd action</w>
2 e</w>
V OI
b al</w>
qu ettes</w>
all on
extrémi té</w>
cri ti
con cr
per ç
T -
Mi cro
7 4</w>
indé pendant</w>
dev aient</w>
e ût</w>
UN E</w>
bless és</w>
as h</w>
exer cer</w>
progressi vement</w>
Dur ant</w>
ti le</w>
re prend</w>
at aire</w>
viol ences</w>
is ie</w>
sou tenu</w>
- à-
évi dent</w>
ob é
m 2</w>
industri elle</w>
R eu
Lu c</w>
o ffice</w>
Tr ai
ré un
C G
contrô ler</w>
concentr ation</w>
ennem is</w>
élev és</w>
dui ts</w>
ri ers</w>
constitu er</w>
ent i</w>
R adi
Cel ui-ci</w>
A g
in sul
ré formes</w>
enqu ê
électri ques</w>
d î
atte inte</w>
mer veill
s mart
ré cep
écriv ain</w>
plate forme</w>
Geor ges</w>
cer veau</w>
di ts</w>
considér er</w>
Mac ron</w>
préfér é</w>
cou tu
contr airement</w>
cl ô
sembl ait</w>
glob al</w>
s tric
pé ni
ou t
b illet</w>
B us
préci pi
Pays- Bas</w>
lo y
si ve</w>
mo tif</w>
for t
on des</w>
dispar u</w>
de viennent</w>
pr endra</w>
g ènes</w>
grat uite</w>
an tique</w>
or ch
g ê
observ er</w>
mé tiers</w>
comb ats</w>
détermin ation</w>
prob able</w>
re tourn
M es</w>
sorti es</w>
Austr alie</w>
g il
m ètre</w>
Com man
M ON
é rée</w>
Nouv elle-
con vers
vi l
tionn é</w>
î les</w>
ca deau</w>
v ap
h i</w>
refu se</w>
Oli vier</w>
gag ne</w>
Nation al</w>
mar iti
présid ente</w>
app els</w>
eng age</w>
e d
l ai
li ques</w>
ad hér
préal able</w>
cri t</w>
ent housi
ori taire</w>
scruti n</w>
desc end
pl ainte</w>
navi g
pi ration</w>
pro v
industri els</w>
j oli</w>
om es</w>
S to
con tenus</w>
ali gn
Con stitution</w>
roy aume</w>
fabri c
Christi an</w>
ra ce</w>
ven du</w>
h eim</w>
h éli
R em
di t-il</w>
imag iner</w>
dégr ad
co ok
convainc re</w>
dé lais</w>
M y
termin e</w>
re dou
déci der</w>
tour noi</w>
personn alité</w>
ph rase</w>
gé nie</w>
f ou</w>
e g
procé der</w>
om bi
B ul
commerci ales</w>
is on</w>
198 8</w>
mont age</w>
es tion</w>
vol s</w>
Mar ine</w>
oi gne</w>
amend ement</w>
aci de</w>
sau ve
observ ations</w>
s tes</w>
cri mes</w>
re pos</w>
ad hésion</w>
Ch ez</w>
bou ton</w>
pu re</w>
in ture</w>
men u</w>
c av
f êtes</w>
I V</w>
val oir</w>
An ge
B en</w>
accor der</w>
chaus sures</w>
é pau
Stras bourg</w>
C F</w>
PA G
fr agi
visi tes</w>
it aires</w>
péri odes</w>
. -</w>
japon ais</w>
auton ome</w>
197 0</w>
audi ence</w>
tent ative</w>
V I</w>
ref us</w>
Jour nal</w>
ad versaire</w>
refus é</w>
ar y</w>
port able</w>
vers é</w>
rup ture</w>
avanc er</w>
per pé
arm ées</w>
cho c</w>
profon de</w>
propos és</w>
espagno l</w>
fac teur</w>
trai tements</w>
fai bles</w>
ap prend</w>
fam eux</w>
Hom me</w>
financ er</w>
milli ard</w>
Sy st
O S</w>
all é</w>
si t</w>
tri ct</w>
mon étaire</w>
cul te</w>
sal aires</w>
catho lique</w>
professionn elles</w>
k y</w>
ch ette</w>
s s</w>
re voir</w>
génér aux</w>
res sort</w>
ly cée</w>
n y</w>
pren ez</w>
arr ête</w>
ô ne</w>
sin gu
p o</w>
considé rée</w>
réc ente</w>
In st
T y
Auc un</w>
ré jou
ci- dessus</w>
lè ve</w>
aler te</w>
N u
auto cht
b ot
2 4
communaut aires</w>
bas é</w>
ri ons</w>
c é</w>
ér ance</w>
7 9</w>
suc cessi
appro visi
travaill ent</w>
four ni</w>
M E
Sté ph
M es
er i
ec s</w>
PI B</w>
rè gne</w>
m ets</w>
ép aiss
ann es</w>
ch i</w>
mét al</w>
bibliothè que</w>
conduc teur</w>
su pr
an o
é tions</w>
on t
doig ts</w>
décl are</w>
mam an</w>
cor ruption</w>
cam pa
g ements</w>
ques -
inter pr
Qu elle</w>
voy ages</w>
physi ques</w>
A S</w>
V oy
ins truc
L im
bat tu</w>
discu ter</w>
oubli é</w>
al titude</w>
pul sion</w>
b ol
améric aines</w>
tr aî
publi ée</w>
D r</w>
P en</w>
t atif</w>
ly m
Gen ève</w>
Cert aines</w>
C S
no y
impli que</w>
ca lité</w>
autom atique</w>
trans former</w>
P U
com te</w>
E l</w>
commerci aux</w>
P ologne</w>
L is
ad joint</w>
b aign
esti val</w>
con forme</w>
industri el</w>
propos ées</w>
réus sir</w>
D ev
In t
équival ent</w>
défi s</w>
dis parition</w>
Ou tre</w>
caract ér
exper tise</w>
ress emble</w>
nom ination</w>
spéci alement</w>
v ag
mor ceau</w>
mili tants</w>
rappel é</w>
th at</w>
F ond
g az
pi n</w>
suc c
G ir
P an
étudi ant</w>
heur euse</w>
com port
montag nes</w>
Inter national</w>
inter ventions</w>
con jo
essay é</w>
Ap ple</w>
tr aces</w>
des truction</w>
é trange</w>
Vin cent</w>
contr adi
gu é</w>
Toul ouse</w>
M IN
Né anmoins</w>
arm ac
re commande</w>
du es</w>
accu eille</w>
amiti é</w>
A ir
S tre
ai dera</w>
ach eté</w>
en tou
discipl ine</w>
net tement</w>
Sain te-
D V
appu yer</w>
er aient</w>
banc aire</w>
i ra</w>
N et
men su
préc iser</w>
interdi ction</w>
aper ç
ni tés</w>
onn aire</w>
restaur ation</w>
étoi les</w>
3 e</w>
T un
observ ation</w>
ab ond
compagni es</w>
bat terie</w>
st age</w>
my th
te .
ti ré</w>
G ri
comb us
rel atifs</w>
ampl eur</w>
pu r</w>
élec tro
civi ls</w>
en a</w>
préc isions</w>
U k
Cer tes</w>
sai sir</w>
P eu</w>
e ant</w>
man u
mal ade</w>
édi tions</w>
cou per</w>
s és</w>
exist ent</w>
ai mer</w>
contin ent</w>
ti es</w>
Pi er
b one</w>
ar gi
o ts</w>
c y</w>
ra ff
mét alli
le ad
at er
parall èle</w>
bas ée</w>
Lu xembour
const ate</w>
éventu ellement</w>
ag o</w>
pou sse</w>
v ar
candid ature</w>
tu be</w>
b é
définiti vement</w>
B lo
ren onc
r entrée</w>
civi l</w>
défici t</w>
toi l
P A</w>
v ague</w>
mi ères</w>
ver sement</w>
S il
présent és</w>
TI ONS</w>
ui té</w>
natur els</w>
P .</w>
réalis ateur</w>
L oire</w>
Fré dé
f e
s ombre</w>
E di
a po
Portu gal</w>
b ra
V ers
G ren
chi ens</w>
inter ven
ord res</w>
av ez-vous</w>
ai tre</w>
1 20</w>
ec tions</w>
thérap ie</w>
s œur</w>
chev aux</w>
L aiss
ran i
p è
b an</w>
utilis ent</w>
ac cr
re connaiss
vis -à-
po issons</w>
as i</w>
man qu
dépl oy
propos ons</w>
D or
perspecti ves</w>
e p
dimen sions</w>
vis-à- vis</w>
T ar
C op
b assin</w>
Ar ab
è ches</w>
fédér ale</w>
al s</w>
olo gues</w>
bri que</w>
limi té</w>
M exique</w>
198 6</w>
mo bilité</w>
N eu
in augu
ai ment</w>
seu les</w>
S ER
employ é</w>
senti ments</w>
li te</w>
é man
in ess</w>
1 000</w>
gag n
génér ations</w>
symbo le</w>
appréci é</w>
chan teur</w>
al lo
relev er</w>
majeu re</w>
analy ses</w>
super fici
répu tation</w>
médi cal</w>
v an</w>
J an
souhai tent</w>
mai rie</w>
imag in
rar ement</w>
se au</w>
pier res</w>
aimer ais</w>
P ap
trav er
D am
An ne</w>
budg étaire</w>
pour cent
. fr</w>
chauff age</w>
s avait</w>
labor atoire</w>
rap porte</w>
contr aintes</w>
satis faire</w>
transpar ence</w>
pren ait</w>
Li vr
reconn aît</w>
ence inte</w>
conserv ation</w>
ain dre</w>
ri que</w>
eb dom
Cô te</w>
ill é</w>
exécu tif</w>
m ées</w>
M is
prov inci
ma qu
souff le</w>
ent am
po isson</w>
F o
T an
z aine</w>
Ber lin</w>
inter face</w>
f uite</w>
s o</w>
ten sions</w>
3 0
C ul
accompagn ement</w>
as t
ebdom ad
titu des</w>
aliné a</w>
investi r</w>
tab leaux</w>
gar s</w>
oi ff
Direc teur</w>
Di rection</w>
pro lon
mon d</w>
Fl or
bal le</w>
Affi cher</w>
T é
d ement</w>
a la</w>
im migration</w>
échapp er</w>
Con sul
hy per
législ atives</w>
re ine</w>
h o</w>
fer ont</w>
ann uelle</w>
ro bo
S t</w>
cl aire</w>
dével oppe</w>
FOR M
nécess airement</w>
personn elles</w>
Geor ge</w>
program mation</w>
fer mé</w>
G é
fort une</w>
ath er
Premi ère</w>
rè gl
tr ace</w>
or iste</w>
Ré pon
ét ats</w>
ang er</w>
ar i</w>
journ aux</w>
cultur elles</w>
aug mente</w>
pou dre</w>
juridi ques</w>
rou l
bien- être</w>
s aisons</w>
commer ces</w>
d ommage</w>
po ésie</w>
ab ri</w>
d ec
moder nes</w>
C O</w>
suscep tibles</w>
Su p
administr atif</w>
ver sions</w>
tend ances</w>
198 7</w>
pri orités</w>
f ine</w>
Cor ée</w>
municipa l</w>
è vement</w>
port ail</w>
mi e</w>
posi tive</w>
e y
at tirer</w>
g rec
sanc tions</w>
pré férence</w>
ext érieure</w>
cr ist
E ur
simil aires</w>
co ff
ingrédi ents</w>
k in</w>
S ui
M en
pl ages</w>
M C</w>
collec te</w>
ju ges</w>
quasi ment</w>
po che</w>
administr ative</w>
A le
ony me</w>
ac compl
parlement aire</w>
évo que</w>
prof ession</w>
sui vent</w>
ving taine</w>
P ou
mobil isation</w>
décor ation</w>
sin c
K h
g h</w>
bo x</w>
cook ies</w>
trans mettre</w>
param ètres</w>
ec ture</w>
c ouvert</w>
popul aires</w>
li cen
di um</w>
mo dé
e tre</w>
cour ses</w>
termin er</w>
profon dément</w>
D ar
Ch ac
Reu ters</w>
fil tr
du quel</w>
ci er</w>
Autri che</w>
En core</w>
7 00</w>
exempl aires</w>
préserv er</w>
ét ern
b loc
J ou
isi n</w>
ray on</w>
priv ées</w>
bran che</w>
hypo thèse</w>
sub i</w>
T RA
m oul
com prennent</w>
Anto ine</w>
identi fication</w>
n d</w>
og a</w>
incroy able</w>
éc ras
tou ché</w>
sou d
op e</w>
S tu
prom et
An g
sou tient</w>
int éri
inst aur
ta re</w>
terroris tes</w>
- de-
fall u</w>
R am
lu xe</w>
chau de</w>
arri vent</w>
exclusi vement</w>
citoy en</w>
B C</w>
sign er</w>
accep te</w>
accessi bles</w>
for êts</w>
ac compagne</w>
fédér ation</w>
li ation</w>
Alex andre</w>
a sion</w>
sé ances</w>
P ère</w>
t z</w>
chè que</w>
ph ones</w>
ér on
r ance</w>
Luxembour g</w>
th é</w>
P oi
F estival</w>
écri te</w>
tradi tionnelle</w>
organ ise</w>
n ér
élector ale</w>
encour ager</w>
déplac er</w>
3 D</w>
nor me</w>
s eur</w>
religi euse</w>
Auc une</w>
co stu
F am
compa tible</w>
ch a</w>
aussi tôt</w>
pass és</w>
fer ait</w>
dess ins</w>
crip tions</w>
préci eux</w>
Mo ham
appel ée</w>
oir -
perman ente</w>
gr as</w>
chanti er</w>
ar re</w>
émo tion</w>
Ira k</w>
com battre</w>
dr a</w>
off rant</w>
cer cle</w>
journ ées</w>
ass ister</w>
enqu êtes</w>
terr ains</w>
seu il</w>
Mal heureusement</w>
sond age</w>
Pro ven
cul ation</w>
oeu vres</w>
tre fois</w>
inter rom
radi o
im péri
R C</w>
proto cole</w>
fid èle</w>
Sy l
en z
ér ant</w>
C ali
sym pa</w>
continu ent</w>
bless é</w>
Tou jours</w>
V ir
isl amique</w>
a e</w>
tar es</w>
région aux</w>
gri s</w>
amen é</w>
plani fication</w>
chem ins</w>
jam bes</w>
p p
Christ ophe</w>
propos ent</w>
ca che</w>
exi ons</w>
Man uel</w>
ran ge</w>
quotidi enne</w>
attend ent</w>
péri ph
el opp
wit h</w>
car bone</w>
réfléch ir</w>
C entr
épis odes</w>
perman ent</w>
M it
F aire</w>
recru tement</w>
supprim er</w>
am pli
dé posé</w>
do se</w>
port eurs</w>
configu ration</w>
fourniss eurs</w>
Au tre</w>
sor tes</w>
b ec
universi taire</w>
incl us</w>
fl am
O C
réser ves</w>
voul ons</w>
accro ître</w>
indépend ante</w>
confér ences</w>
l au
mati que</w>
d ing</w>
pr o</w>
cir cons
incen die</w>
universi tés</w>
u t
compl exes</w>
pass agers</w>
ons- nous</w>
ON G</w>
an i</w>
b rev
temp ér
e ine</w>
con so
acqu érir</w>
fis cale</w>
t eux</w>
Sén at</w>
correc tement</w>
atta quer</w>
pays ages</w>
pens ent</w>
tari f</w>
oc tro
ro b
diri gé</w>
ac trice</w>
at ér
douc eur</w>
mécan ique</w>
Ar t</w>
employ eur</w>
nécessi te</w>
long s</w>
phar ma
qu at
contribu é</w>
ch ère</w>
tr ons</w>
mo teurs</w>
cor de</w>
hau ts</w>
moder n
pollu tion</w>
élimin er</w>
appar aître</w>
h 00</w>
ta les</w>
té moins</w>
micro -
norm ale</w>
w or
D év
client èle</w>
immeu ble</w>
gar çons</w>
li a</w>
ci des</w>
tes ter</w>
serv ant</w>
Fr ont</w>
bi n</w>
Sin on</w>
ag issant</w>
P P
pri ts</w>
blo c</w>
lin gu
e z
im plant
par king</w>
dis poser</w>
d eur</w>
ss ent</w>
aff ai
re cul
voy ez</w>
sex uelle</w>
j al
envir ons</w>
mer i
aux quelles</w>
an ne</w>
mesur er</w>
emb au
tr iste</w>
tri b
in tri
pati ence</w>
ois se</w>
my stéri
jou ent</w>
cons écu
èg re</w>
si dér
D ét
Pl an</w>
Améric ains</w>
st ar</w>
entraî ne</w>
pos ée</w>
inform er</w>
b aptis
référ ences</w>
Ni ce</w>
mili eux</w>
di eu</w>
itali enne</w>
Dom inique</w>
destin ées</w>
titu laire</w>
visi bles</w>
chré tiens</w>
voy ait</w>
dé pit</w>
publi ci
CO MP
rembour sement</w>
actu els</w>
L ac
cou n
por trait</w>
indic ateurs</w>
alen tours</w>
campa gnes</w>
Servi ces</w>
vo isin</w>
198 5</w>
hi ér
exper t</w>
dé poser</w>
rend ent</w>
pro fond</w>
ass er</w>
arron dissement</w>
littér aire</w>
terri ble</w>
Su ède</w>
n oirs</w>
S omm
musi ciens</w>
c uire</w>
actu elles</w>
cou ches</w>
res tera</w>
ven ues</w>
er .
ag ences</w>
adap tée</w>
pré vus</w>
N E
dem an
cour rier</w>
Mos cou</w>
compos és</w>
affi chage</w>
Mad ri
pré voir</w>
ph armac
obli gé</w>
esp érer</w>
sec rets</w>
Em pire</w>
provis oire</w>
j oy
lo ts</w>
pru dence</w>
y cl
avi té</w>
com pose</w>
centr e-
lè vres</w>
fu ture</w>
C -
fais aient</w>
cer titude</w>
municipa lité</w>
l or
ali tion</w>
administr atives</w>
di versi
res té</w>
afric aine</w>
F ace</w>
rémun ération</w>
men tion</w>
recommand é</w>
mon té</w>
dipl ôme</w>
collec tionn
Y ves</w>
M ul
dé bou
im pér
Au g
p y
US A</w>
coor données</w>
Dé f
Guill aume</w>
onn age</w>
médi cale</w>
idé ale</w>
arch ie</w>
remplac é</w>
IS E</w>
G az
onn ements</w>
in ées</w>
e fs</w>
étend ue</w>
f ui
b oire</w>
pres s</w>
adress er</w>
h a
dé tention</w>
pa ci
soup ç
déco r</w>
particu les</w>
inter nes</w>
lè vement</w>
d ge</w>
effectu e</w>
sol o</w>
om ique</w>
commiss aire</w>
éch ou
recev rez</w>
dé fil
Af gh
cul teurs</w>
produc teur</w>
somm eil</w>
ex te</w>
M ati
L oc
enthousi as
gar dien</w>
appréci er</w>
ph e</w>
cou cher</w>
occu pation</w>
én onc
viv ants</w>
tr ou</w>
reg ret
C elle
mén ages</w>
f li
meur tre</w>
syn thèse</w>
ré pli
re cul</w>
Tri bu
gri m
bénéfici e</w>
é ph
oi vent</w>
c -
2 2
remarqu able</w>
remplac ement</w>
b arr
ai r
E ric</w>
Q ui
On tari
En tre
ay s</w>
éthi que</w>
Ac cu
men ées</w>
jard ins</w>
fid èles</w>
exerci ces</w>
compl éter</w>
my st
L ab
entraî ner</w>
com portant</w>
emb lement</w>
sub s
inst ance</w>
diagnosti c</w>
extr ait</w>
Don ald</w>
f us
Rap port</w>
archi ves</w>
E glise</w>
S oins</w>
vul nér
t oit</w>
gr en
lis tes</w>
P ho
N ot
su isse</w>
ather ine</w>
ouvri ers</w>
en di
adap tés</w>
r um
re pos
indi quer</w>
modi fié</w>
fer mer</w>
ay er</w>
ét al
st able</w>
rés ist
adul te</w>
étrang ère</w>
ag on</w>
réalis ées</w>
h â
subst ances</w>
s age</w>
ev ue</w>
di gne</w>
F ri
er ge</w>
er ais</w>
sû rement</w>
cu re</w>
représent er</w>
es ca
élimin ation</w>
con du
fix er</w>
ser tion</w>
C eux</w>
è re-
st on</w>
intéress é</w>
pourcent age</w>
lev ée</w>
enf er
auto -
s tique</w>
bru t</w>
sépar ation</w>
cellu le</w>
as es</w>
graphi es</w>
e e</w>
con c
ense igne</w>
m y</w>
contribu tions</w>
ess aie</w>
hô te</w>
sur pris</w>
B os
dimin ution</w>
navi re</w>
a just
ci a</w>
déc al
es prits</w>
gl om
Al s
ég al
du cation</w>
Ne w
é rés</w>
mor t
g re</w>
mag né
tax es</w>
con cert
Celle -ci</w>
H eur
d ame</w>
str ess</w>
fr appe</w>
navi res</w>
c ouvrir</w>
cel les-ci</w>
qu asi</w>
doc teur</w>
témoign age</w>
ra jou
n aux</w>
jus qu</w>
h ec
c tions</w>
F illon</w>
R oi</w>
prés en
B ra
fl exi
Gran de-
personn alités</w>
M A</w>
P é
nu tri
ar ro
tin ér
S C
détermin ée</w>
ap porté</w>
ATI ONS</w>
. Pour</w>
mon te</w>
exter ne</w>
de dans</w>
futu rs</w>
la ï
an ou
sou ris</w>
EN TS</w>
siè ges</w>
s ab
d ensi
négoci ation</w>
proch ains</w>
norm alement</w>
f ût</w>
trouver a</w>
Au t
m ens
s ec</w>
provin ces</w>
avou e</w>
cam ar
R hô
décen nies</w>
per turb
cent aine</w>
b y
Roy al</w>
ré vision</w>
remar quer</w>
musi cale</w>
avo cats</w>
jur y</w>
st ations</w>
inten sité</w>
ré vis
requ is</w>
poss ession</w>
vol et</w>
tél é</w>
publi és</w>
éclai rage</w>
incon tourn
mi rac
gouvern ance</w>
prépa re</w>
lour d</w>
en contre</w>
in -
B ritanni
pl ante</w>
prati quement</w>
révél é</w>
h aine</w>
di gi
occu pé</w>
voi le</w>
j ac
ren voy
sup pression</w>
bi s</w>
ter ies</w>
domm ages</w>
pou ssi
écri ts</w>
ter res
S .
ati vité</w>
dérou le</w>
s ées</w>
num ériques</w>
av eu
A .
esthé tique</w>
ét e
vers aires</w>
réserv é</w>
G as
béné fices</w>
ver ra</w>
horiz on</w>
mi cr
s emi-
sol aire</w>
autocht ones</w>
sus pension</w>
ball on</w>
proven ance</w>
ch ants</w>
vari été</w>
oph es</w>
s avons</w>
Uk raine</w>
i te</w>
k y
gé ant</w>
affron ter</w>
attent ats</w>
r aient</w>
Min istre</w>
p aire</w>
gross es</w>
â gé</w>
f oyer</w>
bi o</w>
bou le
béné vo
198 4</w>
Canadi ens</w>
lanc ée</w>
débi t</w>
gour man
EU RO
Dis poni
emb all
émo tions</w>
Al -
V an</w>
as t</w>
m ali
arch é
m ec</w>
mor al</w>
véri fication</w>
Bour se</w>
spor tif</w>
Madri d</w>
pouss é</w>
géo graphique</w>
R ég
fac ture</w>
Frédé ric</w>
Mus ée</w>
At lantique</w>
P N
r ad
en voi</w>
at o
Po int</w>
nuclé aires</w>
Dév elopp
assi s</w>
dé passe</w>
profi te</w>
ad h
dét ection</w>
DV D</w>
ron de</w>
second aires</w>
procur eur</w>
pe aux</w>
sau ce</w>
di x-
angl aise</w>
F ou
qu oi
Micro soft</w>
ai es</w>
appar ence</w>
B .</w>
camér a</w>
so vi
CH E</w>
opér ateurs</w>
convi vi
chaî nes</w>
cr oix</w>
propor tion</w>
op ti
demand ent</w>
co té</w>
considér able</w>
vr a</w>
os ex
mai l
orth o
min ér
en jeu</w>
électron iques</w>
démon str
lin ge</w>
pour suivi</w>
acti v
w er</w>
con ju
iss u</w>
c ér
tionn ellement</w>
re jet
AR TI
débu ts</w>
co qu
vain queur</w>
inscri ts</w>
combin aison</w>
ang es</w>
sav oir-
arr y</w>
mass ac
Con grès</w>
human itaire</w>
document aire</w>
en cadr
pl ur
é puis
re bon
en voie</w>
pay é</w>
Nor man
f ois
ti re</w>
um s</w>
dro gue</w>
T É
remar que</w>
cultu rels</w>
pom mes</w>
québ écois</w>
commenc ent</w>
par aître</w>
stat u
licen ci
excep tionnel</w>
concer ts</w>
modu le</w>
man ie</w>
dé passer</w>
cont am
co l</w>
Aca démie</w>
ray ons</w>
v ain</w>
ur bain</w>
ak e</w>
mar ine</w>
ab us</w>
spéci fi
J .</w>
1, 5</w>
sup pose</w>
aven tures</w>
ur ban
r atta
sub stitu
fai l
G RA
ver a</w>
â gées</w>
ca deaux</w>
départ ements</w>
y oga</w>
tém oin</w>
l aires</w>
appar tenant</w>
supr ême</w>
an ten
perman ence</w>
prét end
sui vie</w>
mén age</w>
T A</w>
opportu nité</w>
Ontari o</w>
liber tés</w>
ex pan
c te</w>
19 60</w>
Ch au
cli quez</w>
cy l
at aires</w>
d ates</w>
rem porte</w>
c enti
fi ction</w>
por te
ai rs</w>
ir ré
rê ves</w>
climati que</w>
habit ation</w>
F R</w>
c el</w>
inspi ration</w>
Al pes</w>
a de
Mauri ce</w>
mal ades</w>
compos ants</w>
P on
direc trice</w>
propos ée</w>
sympath ique</w>
cru ci
médi a</w>
Com pa
mé ment</w>
dra me</w>
eur -
conn ues</w>
garanti es</w>
Jus tice</w>
exi ge</w>
médicam ent</w>
ou te</w>
es tr
spéci ales</w>
d d
ot age</w>
justi fier</w>
ét end</w>
Cit y</w>
em pereur</w>
quali fication</w>
rass er</w>
fant as
const ante</w>
ré actions</w>
é preuves</w>
envis ager</w>
ambi tion</w>
subst ance</w>
h ad
. L'</w>
m eme</w>
f an</w>
qu e.
touris tes</w>
enti r</w>
Pr om
r o</w>
di gni
gl oire</w>
Ré sul
env ah
se g
prof esseurs</w>
par fum
E -
app uie</w>
excep tionnelle</w>
men aces</w>
tab ac</w>
R ol
assur ant</w>
ti endra</w>
trai tes</w>
ré péti
indi rec
j on
C OU
Tribu nal</w>
ec teur</w>
conseill ers</w>
fai m</w>
ladi te</w>
Ot ta
tradi tionnel</w>
b is
arti fici
accor dé</w>
ri n</w>
c oiff
détermin é</w>
bi z
r ôles</w>
in corpor
R et
ré chauff
h ol
AG E</w>
cant on</w>
analy ser</w>
r ais</w>
affi cher</w>
Cel ui</w>
ce inture</w>
D A</w>
m n</w>
pr e
ser ai</w>
v acc
alli ance</w>
p neu
T ab
stand ard</w>
sym pt
pau se</w>
L un
ad o</w>
de grés</w>
far ine</w>
V EN
or eilles</w>
V end
l ap
Comm uni
R .</w>
pl eur
publi e</w>
f leur</w>
pilo tes</w>
par u</w>
publi er</w>
trans fér
F il
tri om
comp t
prouv er</w>
séqu ence</w>
Mon di
e- t-il</w>
applic ables</w>
thè ses</w>
ex posé</w>
mé tro</w>
Se p
ni ère</w>
fac ul
cons en
charg és</w>
ét onn
imag ination</w>
C atherine</w>
précé dents</w>
ES T</w>
simil aire</w>
T P</w>
syndi cat</w>
Fond ation</w>
lo ok</w>
qu ets</w>
P aci
diam ètre</w>
loisi rs</w>
col oni
V E</w>
vi endra</w>
ti gi
O lym
publi cations</w>
complément aires</w>
contribu e</w>
ser ais</w>
Par t
parti sans</w>
A T</w>
Uti lis
fl euve</w>
au trefois</w>
pré visions</w>
ais er</w>
res tre
li t
fémin in</w>
ci euse</w>
commun s</w>
pass ées</w>
r eux</w>
ad res
rég imes</w>
ré comp
ban des</w>
Rou ge</w>
com prends</w>
â mes</w>
P eter</w>
L U
pens ées</w>
t ac
ch ons</w>
. Vous</w>
rédui te</w>
indépend ants</w>
sensi bles</w>
ven ti
per su
VOI R</w>
éc r
édi e</w>
télé phon
d an</w>
sach ant</w>
comb att
bou lot</w>
par lent</w>
I R
ul tr
ju ger</w>
c end
quel conque</w>
mat ches</w>
Joh n
f an
appu y
appar aissent</w>
pein tre</w>
res tant</w>
P .
I G
cr eu
intervie w</w>
ch ante</w>
st é
É cole</w>
do té</w>
e la</w>
te z-
onn ais</w>
ch ait</w>
P I</w>
az z</w>
cou l
F N</w>
ver te</w>
F RAN
Ar genti
influ enc
techn ologique</w>
consomm ateur</w>
mar cher</w>
maxim ale</w>
s ing
Se con
démar ches</w>
vé ni
conclu re</w>
Mar ché</w>
com positions</w>
U r
contrô les</w>
Dé clar
volon taire</w>
dé gâ
témoign ages</w>
ag n
in sertion</w>
pare il</w>
H ou
ouv rent</w>
Otta wa</w>
accueill i</w>
v as</w>
m ères</w>
considér ation</w>
gu eu
d am</w>
il la</w>
Afgh an
es que</w>
ant i</w>
b lu
froi de</w>
des tin</w>
réserv ation</w>
Ch ev
maî tres</w>
éc ologique</w>
doig t</w>
per çu</w>
oo t</w>
enti n</w>
M el
f oul
essenti elle</w>
co des</w>
a b</w>
spéci alisée</w>
dédi é</w>
R ay
ch at
cour riel</w>
fix ation</w>
fonctionn er</w>
n ette</w>
religi euses</w>
A meri
ch é
par quet</w>
orig ines</w>
ti les</w>
ambass ad
ill ement</w>
vol er</w>
mobi les</w>
con version</w>
L IS
simul tan
confi é</w>
détr uire</w>
empr e
L ar
fondament aux</w>
G lo
Pro f
intro duit</w>
nomm ée</w>
Nouv eau</w>
v o</w>
affir mer</w>
coupa ble</w>
éri té</w>
vi ve</w>
or eille</w>
gouvernement ales</w>
EL LE</w>
inten se</w>
ll er</w>
Afghan istan</w>
M ay
étab lie</w>
al ph
class é</w>
ordonn ance</w>
n az
organ e</w>
a o</w>
com i
mad ame</w>
comport ements</w>
b ation</w>
aper çu</w>
. Il</w>
déf end
t êtes</w>
cro is
on ce</w>
ag i</w>
H ol
la -
demand ant</w>
effecti fs</w>
bles sures</w>
om b</w>
effecti f</w>
S I</w>
absol ue</w>
D ANS</w>
to x
ca de</w>
ca te</w>
vo té</w>
flui de</w>
ab st
T EN
or y</w>
F R
obstac les</w>
c re
initi ale</w>
all er
198 2</w>
i m</w>
r eur</w>
sou l
applic able</w>
ebdomad aire</w>
g ain</w>
minist éri
pla fond</w>
inter vient</w>
conse ille</w>
f a</w>
régu l
tranqu ille</w>
hér oï
C LE</w>
ag ran
vi vement</w>
i on</w>
dé chi
quali fié</w>
pri ère</w>
a trices</w>
compar er</w>
sû re</w>
par vient</w>
savoir- faire</w>
moi -même</w>
confir mer</w>
ex cessi
épaiss eur</w>
op posé</w>
fen êtres</w>
f ê
em pire</w>
t ale</w>
r ence</w>
sign aux</w>
min eurs</w>
ex ag
par er</w>
inspi ré</w>
ail leur</w>
situ és</w>
in aires</w>
prépar é</w>
guer res</w>
collabor ateurs</w>
gouvern eur</w>
s ap
ch eurs</w>
Su d-
Cali for
par ent
b act
déplac ements</w>
répar ation</w>
imag ine</w>
ul time</w>
I E</w>
e .</w>
Ph one</w>
relev é</w>
fi ent</w>
asi le</w>
évê que</w>
expli cation</w>
m ill
donn era</w>
r at
hi n</w>
et age</w>
compl ex
cé dé</w>
M ét
si xième</w>
Pas cal</w>
fais ons</w>
manifes tants</w>
consac rée</w>
sex y</w>
seign eur</w>
en vies</w>
ci dent</w>
from age</w>
formul aire</w>
pourr ais</w>
confor mité</w>
k h
N antes</w>
télécharg er</w>
res titu
sens ation</w>
Stéph ane</w>
référ end
adop tée</w>
Cam er
T RI
R y
b log
rel ais</w>
M AN
s ang
dr ôle</w>
Pro t
export ations</w>
dis ques</w>
se -
retrouv ent</w>
chim ique</w>
sauv age</w>
inf os</w>
souhai té</w>
parti cul
Dé jà</w>
ther mique</w>
urb aine</w>
associ ée</w>
bi ologique</w>
famili al</w>
in sur
w ard</w>
A ch
198 3</w>
vr ais</w>
Comman der</w>
am s</w>
fond ation</w>
fis cal</w>
t endre</w>
Fai tes</w>
précéd entes</w>
cré ations</w>
ad versaires</w>
convainc u</w>
C S</w>
command ant</w>
sor tant</w>
infl ation</w>
terr oriste</w>
reg istre</w>
réuni s</w>
élabor er</w>
L ille</w>
jus que</w>
constr uite</w>
T VA</w>
annonc er</w>
gi n</w>
soulign er</w>
p us</w>
chirur gi
suscep tible</w>
dépend ance</w>
prisonni ers</w>
pann eaux</w>
P age</w>
s en</w>
océ an</w>
boute ille</w>
le dit</w>
statis tique</w>
laiss ent</w>
Als ace</w>
exprim é</w>
jo r</w>
ab ou
psy chi
considér ablement</w>
g ents</w>
arm és</w>
w as</w>
m ons</w>
diri ge</w>
Gér ard</w>
ri z</w>
dé g
v étér
lo cu
tomb é</w>
Déf ense</w>
du o</w>
photo graphie</w>
M ur
po ète</w>
cli quant</w>
Bar cel
hum eur</w>
Grande- Bretagne</w>
vic toires</w>
volu mes</w>
bu lle
excell ence</w>
comédi e</w>
inform é</w>
R évolution</w>
papi ers</w>
Angl ais</w>
in édi
cl inique</w>
pro cher</w>
for d</w>
étr oi
th e
in tr
construc teur</w>
en cl
certifi cat</w>
No te</w>
ar res
habitu ellement</w>
B lu
cul tiv
effic acement</w>
re belles</w>
S yn
ré sol
mar quée</w>
ven ez</w>
Su per
con vo
résu mé</w>
s ports</w>
par ad
énor mément</w>
ou d</w>
tis sus</w>
prot es
raisonn able</w>
b i</w>
diminu er</w>
n arr
Sur tout</w>
défin i</w>
198 1</w>
présent ées</w>
figu rent</w>
nettoy age</w>
particuli ères</w>
pl aît</w>
volon taires</w>
lis sement</w>
qu eue</w>
altern ative</w>
sec ou
D A
préoccu pations</w>
catastr ophe</w>
è vre</w>
di ab
ob tenus</w>
p ist
ad or
o ît</w>
S our
profi té</w>
vis uel</w>
w ood</w>
m our
réc entes</w>
géo graphiques</w>
tor t</w>
2 3
ver n
dispos ent</w>
explo sion</w>
to xi
tri ques</w>
ci bl
p ill
- d'</w>
concern ent</w>
u k
F em
ges tes</w>
ô tre</w>
H O
dî ner</w>
uti lité</w>
tradi tionnels</w>
massi f</w>
ru brique</w>
Qu es
lo tte</w>
offici er</w>
él o
pom piers</w>
g ations</w>
é on</w>
héber gement</w>
fi dé
tu és</w>
vice- président</w>
permet trait</w>
ni ques</w>
rend us</w>
ém et
livr er</w>
D H</w>
0 .000</w>
ann u
od eur</w>
offici ers</w>
cra te</w>
rom ans</w>
A ma
aiss es</w>
entret en
j um
R el
tourn ant</w>
doll ar</w>
b ac</w>
Thi erry</w>
B O
Comm iss
autoris é</w>
enregistr er</w>
ot a</w>
ent ente</w>
arti san
lar mes</w>
engag és</w>
résul te</w>
- M
ch air</w>
racon ter</w>
dirige ant</w>
vari able</w>
Dé partement</w>
alli és</w>
E .</w>
f aut
ac cou
re tenue</w>
y me</w>
ch en
col onne</w>
vi c</w>
Ch ang
si ens</w>
2 1
ori taires</w>
al é
émi que</w>
concern ées</w>
vap eur</w>
ex prime</w>
re production</w>
li on</w>
sur vie</w>
spéci alisé</w>
Gu y</w>
gre c</w>
dégâ ts</w>
éner gies</w>
nation alité</w>
H el
trans mis</w>
in vo
oubli ez</w>
centr ales</w>
e a</w>
B é
P ren
B E
Cap it
permet tront</w>
In d
t ain</w>
mauv aises</w>
argu ments</w>
au ts</w>
as tu
subi r</w>
F A</w>
or ange</w>
évo qué</w>
d age</w>
Mont pel
Médi terran
mi er</w>
all en
Proven ce</w>
L os</w>
éri es</w>
sur faces</w>
D S</w>
ré fri
ag eux</w>
hos pit
è tent</w>
u ment</w>
s aurait</w>
Con tr
densi té</w>
fi le</w>
occa sions</w>
essenti elles</w>
in ois</w>
Brun o</w>
fl or
stratég iques</w>
gri lle</w>
H él
for mid
parl ant</w>
ru sses</w>
f eux</w>
Sau f</w>
albu ms</w>
b o</w>
onn ent</w>
y '</w>
Tun isie</w>
for esti
fer ro
on to</w>
Ju lien</w>
t ant
su bli
consul tations</w>
de venus</w>
contin u</w>
r h
Heur eusement</w>
plac ement</w>
int ègre</w>
z o
i cô
Déclar ation</w>
cr ainte</w>
ra y</w>
abor der</w>
str e
C ab
mar ins</w>
arab es</w>
fon dre</w>
étab lit</w>
t oni
export ation</w>
D .</w>
E ff
de m</w>
b at</w>
exis tant</w>
si ble</w>
em pris
s co
inc esse</w>
exclu sion</w>
é -
L et
co alition</w>
E h</w>
atta quant</w>
Ré union</w>
faci lité</w>
M ass
pass ages</w>
n ement</w>
can ap
Sim on</w>
spectac les</w>
mar quer</w>
puiss ante</w>
eff on
vis u
sus pen
S and
Ad ministr
r appel</w>
mini um</w>
sou mettre</w>
particip ent</w>
Sé curité</w>
i tinér
pré su
z éro</w>
com promis</w>
meur t</w>
G illes</w>
An dre
expédi é</w>
ag glom
tran che</w>
tap is</w>
is lam</w>
tr ah
dédi ée</w>
Livr aison</w>
Par c</w>
L on
hom osex
si fs</w>
appel és</w>
di tions</w>
chaleur eux</w>
intéress ante</w>
AI S</w>
parlement aires</w>
av re</w>
T OU
in utile</w>
syn thé
gu re</w>
mag ique</w>
so yez</w>
tal ents</w>
m o</w>
jui fs</w>
convers ation</w>
distin ction</w>
atis ation</w>
accor dée</w>
con serve</w>
m l</w>
remon ter</w>
touris tique</w>
B A</w>
qu ants</w>
pré -
Jean- Pierre</w>
j i</w>
T ré
navig ateur</w>
iss age</w>
ra c</w>
gross esse</w>
salari é</w>
audi o</w>
ob serve</w>
con tent</w>
G UI
oi ement</w>
re tenir</w>
- tu</w>
pi tali
Vi enne</w>
Al li
produc tions</w>
habitu des</w>
k et</w>
Chac un</w>
déc ouvertes</w>
champi ons</w>
fi bres</w>
bi jou
- F
consci ent</w>
For um</w>
ass or
chant euse</w>
ouv rant</w>
peu pl
D ame</w>
expli cations</w>
produi te</w>
en ch
s el
entr ées</w>
caract ères</w>
agri culteurs</w>
bor ds</w>
déf av
tém oigne</w>
L .
procu rer</w>
rou es</w>
qu a</w>
Se ine</w>
menti onné</w>
fonctionn alités</w>
avanc ée</w>
s et</w>
ax i
souver ain
Tor onto</w>
Su per</w>
j ette</w>
A h
hau tes</w>
Aug us
bran ches</w>
cam ps</w>
opér ateur</w>
ten eur</w>
L eurs</w>
C AR
enn ement</w>
méd aille</w>
cohér ence</w>
. En</w>
Au tres</w>
con grès</w>
fro m</w>
satis fait</w>
co ton</w>
identi que</w>
me d</w>
sal u
chron ique</w>
in fin
g éré</w>
centre- ville</w>
r ag
trent aine</w>
sou pe</w>
tra jet</w>
ap port</w>
mobi lier</w>
D I</w>
cul aires</w>
tribu naux</w>
fin ition</w>
refus er</w>
sub ventions</w>
Pro duits</w>
res tric
tu des</w>
att es
j onc
épar gn
en lever</w>
B LI
attent at</w>
u ation</w>
accu eilli
épar gne</w>
mo t
bénéfici ent</w>
fa çons</w>
polici er</w>
spor tifs</w>
c ann
th er</w>
cô tes</w>
di es</w>
G estion</w>
enseign ements</w>
sou ri
omb res</w>
ac tionnaires</w>
F 1</w>
ad mis</w>
Gui de</w>
ordin aires</w>
V E
alg éri
post -
ai dé</w>
vr ais
en chaî
mat u
cu ill
définiti ve</w>
e ffici
lo v
trai rement</w>
de x</w>
re quête</w>
meu bles</w>
pharmac eu
régu lation</w>
on ique</w>
I L
fin ance</w>
D S
sélectionn er</w>
m aux</w>
suffis ant</w>
f at
mariti me</w>
min es</w>
fu m</w>
commun iste</w>
complément aire</w>
P in
fili ale</w>
lab el</w>
Ben oît</w>
g by</w>
échantill on</w>
L INE</w>
R appel
ex cès</w>
plac és</w>
ci gar
por tera</w>
gn ons</w>
uni s</w>
dési gne</w>
ferro vi
Willi am</w>
cess é</w>
R EN
Int érieur</w>
fi able</w>
lumin eux</w>
tabl ette</w>
A gri
sy ri
man ches</w>
moy ennes</w>
B au
coû te</w>
chois is</w>
individu elle</w>
civi lisation</w>
ch rom
préf et</w>
ca cher</w>
plac ée</w>
ar de</w>
a x</w>
atte ign
lib érer</w>
cl ame</w>
S ho
pa st
re d
provo qué</w>
constitu ée</w>
défens eur</w>
4 e</w>
bi ère</w>
re port
è tement</w>
ten d</w>
lon gu
vrais embl
smart phone</w>
concurr ents</w>
pass ait</w>
ge ait</w>
hy gi
hon or
pédago gique</w>
pro jec
mag ie</w>
re présenté</w>
ap pl
expan sion</w>
souff rance</w>
j eté</w>
197 9</w>
ant al
G il
éché ant</w>
sensi blement</w>
re tenu</w>
const at</w>
él ecti
dou lour
quel ques-
dé tenus</w>
né er
ch a
amen de</w>
ai re
livr é</w>
nom in
entrepren eurs</w>
ch t</w>
im posé</w>
libér al</w>
dispar aître</w>
fil tre</w>
Py ré
b é</w>
pré cau
son ore</w>
F our
S om
em ark</w>
197 8</w>
so eur</w>
Pers onne</w>
manifes te</w>
pan or
P om
foli e</w>
tou ches</w>
O U</w>
cr aign
é en</w>
e v</w>
ol ine</w>
att én
â gés</w>
s ter
traver se</w>
spéci aux</w>
rapi des</w>
v int</w>
B LE</w>
ven tre</w>
inst alle</w>
approvisi onnement</w>
cherch ent</w>
envel oppe</w>
t el</w>
li ères</w>
vend us</w>
ré tro
désign é</w>
as simil
diffus é</w>
compli qué</w>
ri gueur</w>
ém atiquement</w>
dam es</w>
ambi ti
gui tare</w>
lég ende</w>
intég rée</w>
pén ale</w>
bles sure</w>
provo quer</w>
cou rants</w>
const amment</w>
At l
contempor ain</w>
rend ue</w>
Con cer
IN S</w>
dé ro
197 5</w>
SI ON</w>
rest ait</w>
pro ph
SO CI
appro bation</w>
quanti tés</w>
anth ro
d ettes</w>
ét endre</w>
diri ger</w>
acci dents</w>
pos ez</w>
défin it</w>
sou cis</w>
figu res</w>
visi bilité</w>
fourni s</w>
command er</w>
fix ée</w>
por ters</w>
J on
ap préh
tempér atures</w>
curi eux</w>
propos ant</w>
s w
C C
p el</w>
sup porter</w>
desc endre</w>
sec rè
sec rétariat</w>
AN CE</w>
chauss ée</w>
habit at</w>
échang er</w>
un anim
î te</w>
s pé
man e</w>
gram mes</w>
A ri
div or
Montpel lier</w>
sensi bilité</w>
ra ch
Stre et</w>
dev int</w>
v ez</w>
légiti me</w>
d j
allem ands</w>
montr ant</w>
cher a</w>
contr o
alu minium</w>
B es
direc tives</w>
considé rés</w>
inci dent</w>
ci- après</w>
appli quent</w>
matéri els</w>
frapp é</w>
Génér al</w>
expédi tion</w>
du -
détr uit</w>
l ing</w>
E conom
exer ce</w>
ran donnée</w>
Ren é</w>
r ab
i Phone</w>
M ah
ç ants</w>
remerci er</w>
dé sert</w>
H um
IN TER
import ations</w>
séri eusement</w>
ni r</w>
ci tation</w>
us ages</w>
sup ports</w>
Méditerran ée</w>
Seu l</w>
effectu ée</w>
cer a</w>
ê le</w>
déli cat
pens ais</w>
magni fiques</w>
in e-
P ass
ac o</w>
av ère</w>
res .
Dan emark</w>
origin aire</w>
étoi le</w>
capit aux</w>
accor de</w>
nu lle</w>
alo gues</w>
e in</w>
duc tions</w>
EU RS</w>
vi gil
Nor v
rempl i</w>
suc cession</w>
infrastruc ture</w>
s avais</w>
an n</w>
P ai
lo int
G .</w>
chap elle</w>
nom me</w>
c aisse</w>
soli des</w>
G AR
é .
re poser</w>
assu rée</w>
Na pol
répon dit</w>
clô ture</w>
c able</w>
eff ac
de bout</w>
t w
Ar ts</w>
sélectionn é</w>
règl ements</w>
obli ge</w>
offici elles</w>
pon ctu
si ll
lou er</w>
M er</w>
gal erie</w>
us al
Fin alement</w>
représent ations</w>
Ph il
oi rement</w>
S ach
consen sus</w>
B ab
tradi tionnelles</w>
instruc tions</w>
Con go</w>
C ri
digni té</w>
interven ants</w>
c ouvre</w>
climati ques</w>
ét onnant</w>
con tent
roy ale</w>
bat eaux</w>
engag ée</w>
esti ment</w>
hor aires</w>
réc ent</w>
au str
accep table</w>
ti rs</w>
ten ez</w>
ri gour
poss èdent</w>
ca se</w>
è nent</w>
in connu</w>
distin gue</w>
arm ement</w>
st ar
matern elle</w>
Ob serv
mor te</w>
o p</w>
ra te</w>
fran chement</w>
contr ac
i ez</w>
supéri eurs</w>
pi ano</w>
Con se
héri tage</w>
gar age</w>
v en</w>
man qué</w>
ingéni eur</w>
opini ons</w>
B U
5 e</w>
symbo lique</w>
in ég
temp le</w>
ali ers</w>
ch or
spéci alisés</w>
no t</w>
pom pe</w>
p seu
b en</w>
aband onner</w>
gâ teau</w>
D ate</w>
envis ag
anci ers</w>
B ran
Moy en-
S ouv
part agé</w>
VI H</w>
attend ait</w>
bi te</w>
pro clam
vi enne</w>
larg eur</w>
Blan c</w>
Wi ki
con s</w>
V eu
médi caux</w>
dé ser
po sera</w>
progress er</w>
rac ines</w>
offici els</w>
ré publique</w>
Au -
tempor aire</w>
fas cin
chin oise</w>
F abri
us agers</w>
fu tures</w>
ock ey</w>
fréqu entes</w>
k in
li c
L ui</w>
tu y
feu ill
fu r</w>
Em pl
métho d
aven ue</w>
aéri enne</w>
tor at</w>
Régi on</w>
entour age</w>
des cen
is ses</w>
H an
sympt ômes</w>
effectu ées</w>
compéti tivité</w>
on a</w>
l t</w>
um ent
Con sidér
ex cé
con d
Al bert</w>
hec tares</w>
bon us</w>
fr ac
Qu atre</w>
pres tigi
lo cat
S ab
ant an
Mar s</w>
approuv é</w>
S -
combatt ants</w>
anc é</w>
désign er</w>
sol s</w>
pl omb
souff re</w>
hé dr
o tes</w>
véri tablement</w>
Sén égal</w>
pouv ais</w>
sou mise</w>
ext érieurs</w>
pré con
ro tation</w>
œu fs</w>
Alex and
architec te</w>
Jac k</w>
Con st
étr oite</w>
figu rant</w>
y o</w>
Hau te-
Pl ace</w>
T im
trans actions</w>
Nouv elle</w>
référend um</w>
si en</w>
pens ez</w>
afric ains</w>
s ain
n uits</w>
ter ai</w>
ajou tant</w>
Barcel one</w>
mo to</w>
no té</w>
universi taires</w>
10 ,
end or
car ré</w>
génér er</w>
ob tention</w>
c anc
pr enne</w>
épou x</w>
V éri
là- bas</w>
ci me
collec tions</w>
mu le</w>
compl ét
st al
tur ation</w>
ARTI CLE</w>
ti vement</w>
soci alistes</w>
fai blesse</w>
sai si</w>
For ce</w>
w e</w>
t esse</w>
fourniss eur</w>
véri tables</w>
musi cal</w>
l em
confi denti
ji had
Califor nie</w>
édi fice</w>
ment ale</w>
comp tait</w>
per ception</w>
sou ple</w>
cinqu ante</w>
ab u
z ième</w>
évol ue</w>
Is ab
aband on</w>
par fum</w>
mar oc
én aire</w>
con tienne</w>
immédi ate</w>
essenti els</w>
re tar
ré agir</w>
recommand ation</w>
ig no
ph onie</w>
ag it
F ar
ss er</w>
rénov ation</w>
res truc
vari ations</w>
fémin ine</w>
ét an
ajou tée</w>
pr être</w>
spon tan
résid ents</w>
I n</w>
mens on
essi eurs</w>
aut o</w>
ren omm
Sta r</w>
z on</w>
ex positions</w>
Cli quez</w>
Nation ale</w>
di eux</w>
élev age</w>
relev ant</w>
s ors</w>
Cô té</w>
S péci
dé tente</w>
10 .
contr ainte</w>
Pal ais</w>
illu stre</w>
F .</w>
m ette</w>
S t-
micr o</w>
remerci e</w>
g en</w>
onn ats</w>
ser re</w>
H A
habi li
U .
probl ématique</w>
tr ains</w>
tradi tions</w>
hédr ale</w>
renouv ellement</w>
parti ellement</w>
nour rir</w>
hydr at
co ins</w>
con tente</w>
V ers</w>
truc s</w>
pla ques</w>
ant a</w>
inten tions</w>
prét exte</w>
harmon ie</w>
intéress és</w>
pa tron
N ath
appli quée</w>
appar emment</w>
command ement</w>
st ati
effectu és</w>
Blan che</w>
Con trairement</w>
phénom ènes</w>
ap h
vit am
. Je</w>
K u
vol ant</w>
S uite</w>
E ly
é mis</w>
éro ï
S w
pu n
po lon
ris ti
G abri
con quête</w>
parisi enne</w>
S oit</w>
U l
e p</w>
C re
A ni
mas cul
faç ade</w>
r amener</w>
enthousias me</w>
T TC</w>
Sci ences</w>
tr i</w>
pré judi
T emp
gon fl
uni es</w>
S éb
sub str
dépl oiement</w>
ver ts</w>
cr yp
argu ment</w>
motiv ation</w>
au rai</w>
univers el</w>
l une</w>
lour de</w>
dé sol
c ouver
lo w</w>
dor mir</w>
m g</w>
y le</w>
lib rement</w>
particip ant</w>
budg étaires</w>
â t</w>
Déc ision</w>
édi teurs</w>
2, 5</w>
ré conci
pl ay</w>
complex ité</w>
entr é</w>
acc en
im précisions</w>
t ome</w>
inclu ant</w>
ari ats</w>
adoles cents</w>
simpli cité</w>
W at
A mi
favor ables</w>
arriv és</w>
ré pression</w>
v én
prom et</w>
S mi
évolu tions</w>
trouv é
ju gés</w>
A LE</w>
offensi ve</w>
par cour
st a</w>
remon te</w>
ran gs</w>
si enne</w>
char bon</w>
av al
univers elle</w>
ra m</w>
plur alité</w>
ré compens
pos és</w>
san itaire</w>
bal les</w>
produ isent</w>
assass in
réper toire</w>
Mal i</w>
réuni r</w>
rur al</w>
Qu elles</w>
dé montrer</w>
Prés entation</w>
stock s</w>
con g
Paci fique</w>
G l
Wor ld</w>
Ob jecti
eu rement</w>
vers ée</w>
20 20</w>
cin ém
M ir
hos pitali
ste in</w>
Jér usal
To m</w>
T ok
loc alisation</w>
cl avier</w>
f oc
y e
puiss ants</w>
réserv er</w>
gen res</w>
enseign ant</w>
caractéris tique</w>
réus sit</w>
er ce</w>
J O
Pr o</w>
F IN
laiss ez</w>
cl au
carbu rant</w>
rec ycl
form ée</w>
aca démi
on al</w>
M ol
an isme</w>
compl ément</w>
Ange les</w>
individu el</w>
M ill
aband onné</w>
comm issions</w>
él argi
réper cu
conseill é</w>
Pro to
initi alement</w>
c ées</w>
prom esse</w>
mon uments</w>
orch estre</w>
sep tième</w>
T ru
a ques</w>
concentr er</w>
dis trict</w>
Fin ances</w>
t euse</w>
vi f</w>
M emb
qu er
L A
perf ec
expl orer</w>
fréqu emment</w>
di ens</w>
industri es</w>
12 .
proté ines</w>
N ord-
G R
gé om
qu ad
h an</w>
Al i</w>
I e</w>
spor tive</w>
ss ant</w>
baiss er</w>
Re cherche</w>
man us
immédi at</w>
Pr inci
G EN
prati quer</w>
débu te</w>
circ uits</w>
gr aines</w>
hor reur</w>
chim ie</w>
M am
inqui étude</w>
y s</w>
Ren ault</w>
suffis ante</w>
conso le</w>
man quer</w>
pa quet</w>
techn ologiques</w>
Al ber
précé demment</w>
fili ère</w>
initi al</w>
invi tation</w>
din al</w>
l era</w>
contin uité</w>
Séb as
age ant</w>
sac ré</w>
chan ter</w>
M ise</w>
math ématiques</w>
oeu fs</w>
ordin ateurs</w>
Par fois</w>
myst ère</w>
clo s</w>
po t
bi enf
numér os</w>
L ag
ma tri
vend eur</w>
ay a</w>
Développ ement</w>
remar qué</w>
ax es</w>
rési de</w>
prim aires</w>
R e</w>
n e-
mer ie</w>
fau sse</w>
l entement</w>
t an</w>
cotis ations</w>
superfici e</w>
donn ait</w>
Re trouvez</w>
indem n
rel â
É gypte</w>
ég yp
I T</w>
Par isi
mélang er</w>
A vi
fer mée</w>
issu es</w>
L ég
E lec
délég u
ph i
ad missi
import ation</w>
oubli e</w>
t ais</w>
ti t</w>
197 7</w>
bour se</w>
pa l</w>
ER S</w>
réalis te</w>
S TA
on ais</w>
b ête</w>
Ro ger</w>
B ir
dr ome</w>
k m
prononc er</w>
ag grav
occident ale</w>
car i
in iques</w>
habi tant</w>
sac s</w>
tant ôt</w>
plat e-
contempor aine</w>
reconn ue</w>
révoluti onnaire</w>
Envir onnement</w>
assu rances</w>
Ques tions</w>
chré tienne</w>
n el</w>
PA R</w>
adres ses</w>
T ER</w>
accomp lir</w>
dis cr
C P</w>
renseign er</w>
al i</w>
G o</w>
sch éma</w>
détaill ée</w>
douc ement</w>
cu mul
rec ti
privi lè
A h</w>
v on</w>
mol écu
Tr ouv
M uni
E li
man agement</w>
le .
vi tr
produc tivité</w>
ill ard</w>
inter val
inqui ète</w>
ph ases</w>
acti ver</w>
Es prit</w>
po p</w>
gr ade</w>
syst ématiquement</w>
ou n</w>
é tiques</w>
cri re</w>
câ ble</w>
p uits</w>
rend ant</w>
décé dé</w>
pi taux</w>
g r</w>
Franç aise</w>
exam ens</w>
Fl ori
mété o</w>
sovi étique</w>
poi trine</w>
Veu illez</w>
viol ation</w>
Ju li
pro jection</w>
h as</w>
incontourn able</w>
M ess
si on
I P</w>
canadi ens</w>
cou teau</w>
choisi t</w>
Li ber
n eau</w>
judici aires</w>
exist ants</w>
el la</w>
expl os
tar di
indi quant</w>
Jui fs</w>
W ar
bo l</w>
Au tant</w>
re z-vous</w>
fil et</w>
b ab
G E
inten si
h ém
évèn ements</w>
12 ,
V ar
bénévo les</w>
vi br
bénéfici aires</w>
Pos te</w>
C ir
rap porteur</w>
prononc é</w>
autom ati
con ventions</w>
rés ister</w>
appli qué</w>
Vic tor</w>
US B</w>
Ch il
pai ements</w>
19 45</w>
art .</w>
L og
im mer
ingéni eurs</w>
ti c</w>
afric ain</w>
o v</w>
sai sie</w>
sec tions</w>
4 0
occup ent</w>
ré pan
employ eurs</w>
mati née</w>
attend ue</w>
ui tes</w>
Dim anche</w>
sex u
gr avité</w>
entraî né</w>
si li
cré ateur</w>
Mari a</w>
d ants</w>
aéri en</w>
banc aires</w>
blan ches</w>
F E
mon s
poss éd
travaill ant</w>
interpr ète</w>
Cor se</w>
ma jor</w>
lun ettes</w>
ab eth</w>
organis ées</w>
S C</w>
b rési
acti ves</w>
ré du
bou tiques</w>
débu té</w>
britanni ques</w>
ex traits</w>
M ai
197 6</w>
conserv ateur</w>
c ts</w>
Accu eil</w>
intégr alité</w>
exempl aire</w>
devi endra</w>
op pose</w>
p ent</w>
ri gi
w an</w>
aler tes</w>
PS G</w>
re groupe</w>
compagn on</w>
espagno le</w>
B ER
ér able</w>
ass es</w>
poign ée</w>
Napol éon</w>
fati gue</w>
AI RES</w>
autor oute</w>
com té</w>
pri ori</w>
tourn age</w>
n d
vaiss elle</w>
proch ainement</w>
neu tr
S hi
olym pique</w>
V isi
de- France</w>
enn eté</w>
valoris ation</w>
acti vement</w>
gri e</w>
b rè
O ù</w>
hy bri
ac ou
mas que</w>
coll er</w>
provo que</w>
par adis</w>
eng end
docu mentation</w>
Allem ands</w>
surveill er</w>
Cul ture</w>
hi bi
sauv ages</w>
ol et</w>
pe ines</w>
L es
per a</w>
f oot</w>
aff lu
ér ations</w>
t aill
pi res</w>
recher cher</w>
gr ad
écr ans</w>
S un
gr ati
G L
déclar er</w>
s ain</w>
expl or
imag inaire</w>
Z o
préf ecture</w>
di rait</w>
inci dence</w>
avanc ées</w>
du l
I dé
ou ts</w>
admi r
ce .
hou se</w>
Vall s</w>
bou cle</w>
is tres</w>
déc rire</w>
Fam ille</w>
install és</w>
car d</w>
différ enci
Ac cord</w>
reg rette</w>
tr ous</w>
intéress er</w>
sauve garde</w>
19 50</w>
supéri eures</w>
18 0</w>
os ci
hon te</w>
re tourne</w>
E qui
a éron
G a
gr o
ass isté</w>
cour onne</w>
tr au
r entre</w>
In s
dom ination</w>
mir oir</w>
enti té</w>
C TION</w>
Argenti ne</w>
appréci erez</w>
im pl
arbi tr
A vis</w>
en ver
con gé</w>
ai les</w>
p ente</w>
Ch ap
réfri gér
charg er</w>
bat tant</w>
ni en</w>
appréci e</w>
p ôle</w>
tu euse</w>
san itaires</w>
li eue</w>
V os</w>
Con tin
mar in</w>
compos ant</w>
distin guer</w>
meur tri
pos ent</w>
Norman die</w>
Memb res</w>
D oc
exploi ter</w>
el et</w>
pa t
inform atiques</w>
intro duire</w>
En voy
en tion</w>
pos t</w>
Mat hi
res sorti
b ê
flo tte</w>
Ri vi
in évi
diffus ée</w>
pann eau</w>
ten nis</w>
parisi en</w>
E gypte</w>
Ma x</w>
bijou x</w>
conç ue</w>
prom esses</w>
main tenance</w>
j on</w>
V u</w>
collè gue</w>
larg es</w>
ér u
c us</w>
t- ce</w>
étudi é</w>
tomb ée</w>
trans forme</w>
mes u
Ar th
XI Xe</w>
tr ès-
sui cide</w>
con soli
Thé âtre</w>
G U
démonstr ation</w>
O ff
og ène</w>
faci les</w>
accél érer</w>
scand ale</w>
sond ages</w>
i er</w>
tent atives</w>
éli te</w>
1 40</w>
in gue</w>
obstac le</w>
perpé tu
amend ements</w>
Pers onn
In f
dé ni
nég atif</w>
Ind us
i tions</w>
No v
pr incesse</w>
d ente</w>
médi atique</w>
vag ues</w>
H D</w>
réc ents</w>
po int
co sse</w>
M ission</w>
ai sie</w>
gl y
Hen ry</w>
organ ique</w>
consac rer</w>
L ev
médi év
minist ères</w>
j ou</w>
exist antes</w>
grand eur</w>
anim é</w>
é min
grat uits</w>
ré els</w>
ob le</w>
ad y</w>
bal ance</w>
ot tes</w>
uni forme</w>
sé minaire</w>
m esse</w>
voudr ait</w>
sembl able</w>
favor is</w>
ay ez</w>
pro li
Mu si
R ac
individu elles</w>
cour ts</w>
ren te</w>
c alement</w>
I .</w>
travers er</w>
con cré
formid able</w>
psy cho
Secon de</w>
CO M</w>
car ton</w>
p antal
fran co-
and ais</w>
SO MM
char man
part ements</w>
I ni
am ont</w>
Li vre</w>
lati n</w>
em porter</w>
lis se</w>
est- elle</w>
réuni t</w>
f .</w>
sub ti
R and
Actu ellement</w>
s électi
fran c</w>
p ell
er o</w>
sor tent</w>
sé curi
h is</w>
f al
assur ent</w>
val able</w>
cr ises</w>
197 3</w>
inst ar</w>
ari tés</w>
lour ds</w>
am bu
r ain
or ph
ci tron</w>
S T</w>
si de</w>
re faire</w>
par lement</w>
indi ces</w>
parten ariats</w>
gar dé</w>
correspon dent</w>
cou pl
démo crate</w>
mi ers</w>
ar mé</w>
No tre-
déc o</w>
philos ophi
él ément
merveill eux</w>
es ti</w>
gri ll
mo re</w>
distin gu
si es</w>
v ents</w>
éventu elle</w>
in ven
pour vu</w>
6 e</w>
An d
accep tez</w>
on t-ils</w>
vis é</w>
b onn
ser ons</w>
T ex
ph ras
fr aude</w>
lev ard</w>
esca lier</w>
ind res</w>
sav our
con tenir</w>
F abi
touris tiques</w>
Hon grie</w>
respec te</w>
exis ter</w>
sou viens</w>
évèn ement</w>
bét on</w>
plate- forme</w>
pu rement</w>
it a</w>
s eurs</w>
Norv ège</w>
sem estre</w>
d .
sensibil isation</w>
termin ée</w>
révél er</w>
R on
trou ble</w>
Sol eil</w>
Hau te</w>
mont ants</w>
C ATION</w>
am ène</w>
développ és</w>
j azz</w>
invi tons</w>
psych ologique</w>
H I
cap i
b aie</w>
entret enir</w>
Trav ail</w>
rac isme</w>
Aut orité</w>
adap tées</w>
délég ué</w>
accr ue</w>
recens ement</w>
sold at</w>
R hin</w>
p tions</w>
T T</w>
modes te</w>
D C</w>
per cu
drap eau</w>
is ti
accus ations</w>
cot t</w>
Seu lement</w>
Parti es</w>
1 30</w>
ins ec
expos és</w>
organis ateurs</w>
ol é
Té l</w>
r ages</w>
we b
maj eurs</w>
pa pa</w>
Qu els</w>
orient ations</w>
L ec
tin es</w>
2 ème</w>
souverain eté</w>
lati ne</w>
bus iness</w>
con joint</w>
mou le</w>
II e</w>
personn ellement</w>
Ste ph
compagn ons</w>
mar gin
Ri o</w>
G N
pres tat
étab lis</w>
in jec
arti cul
graph es</w>
al t
con tiennent</w>
ai t-elle</w>
handi cap</w>
esti ne</w>
ca sse</w>
an ique</w>
pe int</w>
Sébas tien</w>
pou le</w>
quar ts</w>
sid a</w>
exam iné</w>
rel è
su é
photo graphe</w>
op poser</w>
déf ensi
impli cation</w>
qui ert</w>
SN CF</w>
con cevoir</w>
S ign
Eur o</w>
P ak
li ve</w>
interro ger</w>
inf li
co ach</w>
r ois</w>
assu mer</w>
K er
R ennes</w>
R .
bo issons</w>
û te</w>
ill y</w>
ach em
hô pitaux</w>
lo -
cré ant</w>
i rani
form és</w>
lin é
commerci alisation</w>
m ait</w>
S pi
tou ff
bou ill
mix te</w>
démar rage</w>
inst antan
PA S</w>
ré solutions</w>
G ra
ir ri
continu é</w>
ra -
201 9</w>
diffus er</w>
sui tes</w>
9 00</w>
I l
ani me</w>
eff ray
Sal on</w>
am ent</w>
end et
enti tés</w>
sû reté</w>
fabric ant</w>
i i</w>
automati que
collecti vité</w>
ai le</w>
porte feuille</w>
goû ts</w>
P C
a ï</w>
peti t-
T ch
élev ées</w>
S oy
pré li
renseign ement</w>
Ber tr
T RO
le çons</w>
é qu
équi page</w>
t acti
dé ménag
colon el</w>
correspond ance</w>
aci des</w>
accompagn ée</w>
posi tifs</w>
AD N</w>
s pl
olym piques</w>
C lo
régu lier</w>
Pro jet</w>
dis e</w>
s aou
as tron
récup ération</w>
her be</w>
F O
W ol
h er</w>
Au- delà</w>
g ers</w>
potenti els</w>
PR É
recu eil</w>
h ad</w>
cl us</w>
at -
rou e</w>
arrê tés</w>
gag nant</w>
concep ts</w>
Lib an</w>
ois eau</w>
t onn
A LI
famili ales</w>
in time</w>
concer né</w>
observ é</w>
diri gée</w>
abb é</w>
M .
197 4</w>
r ô
te- t-il</w>
ais ément</w>
avanc é</w>
A us
Bar ack</w>
dis sements</w>
A l</w>
connec ter</w>
d os
Mil an</w>
Espa ce</w>
Mar cel</w>
Jac k
tionn és</w>
t én
re traites</w>
n u</w>
étr ie</w>
g ains</w>
hi p</w>
atta ché</w>
D eux
col onnes</w>
appu yant</w>
éch o</w>
ill ée</w>
on cle</w>
automatique Oui</w>
h ait</w>
métalli que</w>
attend s</w>
b oite</w>
dess in
Pro duit</w>
sign ée</w>
GUI DE</w>
O l
H aut</w>
us ines</w>
inst ances</w>
cri s</w>
tr oph
comp tent</w>
indi cations</w>
S amedi</w>
annul ation</w>
quin zaine</w>
spect ateur</w>
go gne</w>
En f
b att
toil ettes</w>
signific ative</w>
Si tué</w>
cap tu
Res te</w>
situ ées</w>
B onne</w>
tor al</w>
préjudi ce</w>
for ti
portu g
w h
s ar
ap proch
f -
S ophie</w>
conclu t</w>
habi te</w>
cin é
mon ument</w>
du rer</w>
gor ge</w>
Pier re-
par ent</w>
hygi ène</w>
a ches</w>
bénéfici é</w>
soi rées</w>
fi ants</w>
tr ement</w>
conserv é</w>
Di dier</w>
cri ts</w>
réalis ations</w>
confi e</w>
libér é</w>
dé montré</w>
ag isse</w>
T ant</w>
garanti t</w>
c tur
de vis</w>
entour é</w>
inf o</w>
g -
tr y</w>
mou sse</w>
desc ente</w>
M ach
mis ère</w>
direc teurs</w>
médi terran
p inc
ph os
quasi -
Ch o
h ockey</w>
B D</w>
tionn ée</w>
h ur
cime tière</w>
in tu
M aître</w>
cat hédrale</w>
Ch ef</w>
empl oie</w>
nouveau tés</w>
mal heureux</w>
dom esti
rem et
Oc cident</w>
s èche</w>
Pal estini
économ iser</w>
fron tali
canadi ennes</w>
camar ades</w>
A P</w>
I voire</w>
ci enne</w>
catho liques</w>
fis cales</w>
Concer nant</w>
dou leurs</w>
es pi
célè bres</w>
mul titude</w>
ven aient</w>
ré veill
Ma j
quar ante</w>
ati ne</w>
attribu tion</w>
présid ents</w>
r attrap
hor ri
budg ets</w>
cré és</w>
jo ints</w>
ab onnements</w>
all aient</w>
var ie</w>
re construction</w>
gueu le</w>
rem pla
vo tes</w>
bl i</w>
shi r
par cs</w>
ali s</w>
w ell</w>
fr ustr
thé ori
enc ement</w>
pr in
Do cu
quoi que</w>
curi osité</w>
a .
Disponi ble</w>
lead ers</w>
dénonc er</w>
ob il
pos ées</w>
vil la</w>
conn ait</w>
reç oivent</w>
au dit</w>
prouv e</w>
équi table</w>
ext érieures</w>
ag ress
inter locu
dou ard</w>
col le</w>
er nité</w>
Jérusal em</w>
J a
Mon aco</w>
lon gi
bri g
aly se</w>
li tres</w>
d eurs</w>
appropri é</w>
fabri quer</w>
inf ection</w>
appro ches</w>
and ez</w>
pouss ée</w>
igno re</w>
des -
fidé lité</w>
in capable</w>
fi bre</w>
En tr
ver b
c .
H al
constitu tionnel</w>
co ï
Pro fi
mi el</w>
p -
pu r
pér é</w>
bl eue</w>
cas que</w>
u se</w>
p ing</w>
Rhô ne</w>
es té</w>
con fusion</w>
3 50</w>
ci bles</w>
accep tation</w>
vis ée</w>
Considér ant</w>
pro pi
Mar ne</w>
contr aint</w>
recu eilli
ab onnement</w>
rap porté</w>
ca ché</w>
dou blé</w>
at ar</w>
musi ques</w>
indi quent</w>
su le</w>
Vend redi</w>
Jér ôme</w>
V ie</w>
opportu nités</w>
m û
pu t</w>
des ign
co équi
196 8</w>
atta che</w>
alph ab
exécu ter</w>
ass ent</w>
dé mission</w>
lég al</w>
f ère</w>
ter aient</w>
et n
g os
oli ve</w>
Ac ti
vari ables</w>
1 60</w>
exist ait</w>
substr at</w>
end er</w>
modi fiée</w>
dis simul
gén étique</w>
log istique</w>
ad ou
ban c</w>
B â
all ou
onn aires</w>
renonc er</w>
Or dre</w>
cher ché</w>
min i</w>
s ation</w>
im position</w>
ationn elle</w>
X avier</w>
offer ts</w>
n oires</w>
dro gues</w>
indispens ables</w>
circons cription</w>
facul té</w>
è que</w>
écl at
con ten
D un
o ises</w>
G ab
ci tations</w>
E cole</w>
cré ativité</w>
Jus te</w>
X X
blo quer</w>
o gie</w>
cherch eur</w>
g y</w>
territori ale</w>
ég lis
ck s</w>
gn ols</w>
si r
fant astique</w>
fir me</w>
Qu oi</w>
can aux</w>
appel lent</w>
im pré
l eau</w>
S Y
Arab ie</w>
install ée</w>
Di vision</w>
préc ises</w>
cou pé</w>
O ne</w>
ar merie</w>
ois elle</w>
dégrad ation</w>
par tant</w>
Pr ince</w>
Fin lande</w>
vi té
char te</w>
ran tes</w>
rem porter</w>
vis és</w>
déf auts</w>
intég rité</w>
T am
Lib ye</w>
To p</w>
b arri
gn y</w>
atti re</w>
espér ance</w>
t ative</w>
lo ge</w>
Car oline</w>
ban lieue</w>
rass emblement</w>
comp table</w>
trou pe</w>
vois ine</w>
C AN
cap teur</w>
G or
fum ée</w>
l ing
A -
1 10</w>
tr és</w>
h ave</w>
command é</w>
fois -ci</w>
défin ie</w>
iss ements</w>
ex o
V an
territori ales</w>
ré ti
inég alités</w>
rapproch ement</w>
B L
197 2</w>
P -
consul tatif</w>
dé passé</w>
am o
Char te</w>
V .</w>
om bie</w>
Bl ack</w>
Or lé
municipa le</w>
tou chant</w>
on .
négoci er</w>
ins iste</w>
réfl exions</w>
Gaz a</w>
Sh er
r ations</w>
Pol y
ationn el</w>
S AN
B ach
is si
ur a</w>
répon dent</w>
Ar nau
G on
ron d</w>
récomp ense</w>
h ebdomadaire</w>
S tat
B a
compar able</w>
authenti que</w>
municipa les</w>
v au
chap eau</w>
sembl ables</w>
k it</w>
l aine</w>
s ar</w>
ro s</w>
P ense
om ni
voy ager</w>
esti mation</w>
favor ise</w>
boî tier</w>
br onze</w>
spectac ulaire</w>
B oo
vou s-
n t</w>
B il
Comp te</w>
an t-
ap partements</w>
pa vill
en gr
A M</w>
institu t</w>
gar des</w>
parl ait</w>
t ateur</w>
e te</w>
sup porters</w>
regar ds</w>
1. 1</w>
rich esses</w>
el -
im muni
se e</w>
commer çants</w>
pré nom</w>
t ter</w>
inclu re</w>
dram atique</w>
R end
Jos é</w>
co que</w>
individu els</w>
P RI
convi ction</w>
Jean- Luc</w>
G am
spor tives</w>
associ ées</w>
Jean- François</w>
mani ères</w>
Ap pli
ori tairement</w>
pl omb</w>
mini -
ast éroï
Isab elle</w>
sau ter</w>
M U
ra f
infr action</w>
Moyen- Orient</w>
résu me</w>
aiss ait</w>
puiss ances</w>
se i
tor ture</w>
sol de</w>
quali fiés</w>
agres sion</w>
épau les</w>
For t</w>
PU BLI
ol o</w>
M r</w>
w hi
énor mes</w>
ment al</w>
n aï
H aï
plu me</w>
Ser ge</w>
ais ance</w>
termin al</w>
fix és</w>
demand eurs</w>
am ateur</w>
hui tième</w>
Châ teau</w>
mail lot</w>
visi blement</w>
élector al</w>
fi ez</w>
s aut</w>
PD G</w>
log o</w>
inclu t</w>
Bertr and</w>
arn aque</w>
ab sur
Sec rétariat</w>
u ri
A ction</w>
ss on</w>
jou ant</w>
is ait</w>
Uni ted</w>
ét ages</w>
N at
B et
o ff</w>
au ph
lo cations</w>
trans formé</w>
jau nes</w>
Parti ci
brill ant</w>
plu ri
Pé kin</w>
re jet</w>
v ér
ec do
val ent</w>
rej eté</w>
propr ement</w>
sal ut</w>
sho w</w>
m .</w>
rou ler</w>
Christi ne</w>
sé mi
Mar k</w>
intitu lée</w>
ar om
refl ète</w>
ist ent</w>
di tion</w>
républic ain</w>
pré venu</w>
noy au</w>
ab oli
mort alité</w>
bomb e</w>
l on</w>
contribu ent</w>
recu eill
églis es</w>
Hau t-
Ro se</w>
Britanni que</w>
ex pul
.. ...</w>
fui r</w>
inst ants</w>
ec k
évo quer</w>
met tra</w>
no tions</w>
em ens</w>
sex es</w>
élabor é</w>
no ble</w>
n oix</w>
mondi alisation</w>
cl iniques</w>
viol ent</w>
rê ver</w>
franch ise</w>
effon dr
fondament ale</w>
P â
st ars</w>
es e</w>
ple ins</w>
corri ger</w>
enquê teurs</w>
is tiques</w>
év ent
québ éco
p is
métro pole</w>
ag ra</w>
ma ï
C au
mus ées</w>
sé min
oxy de</w>
end omm
pa ttes</w>
financ ements</w>
nord- est</w>
J av
An droi
fam euse</w>
cons istant</w>
L it
héli cop
mé trage</w>
oy ers</w>
n a
absol u</w>
thé â
Sour ce</w>
sou hait</w>
arres tation</w>
cr oient</w>
inqui ét
V ue</w>
F ern
entre pris</w>
fi abilité</w>
pl éni
N um
Champi onnat</w>
réci pi
D IS
honn ête</w>
y en</w>
audi o
B TS</w>
associ er</w>
W eb
ce v
pay sans</w>
m ecs</w>
s cru
orient ale</w>
stat ue</w>
anim ations</w>
revê tement</w>
attribu é</w>
Pr ès</w>
b ack</w>
échantill ons</w>
fi ables</w>
b oy
signi fication</w>
Pl at
rem et</w>
re comman
le- de-France</w>
serv eurs</w>
Jean ne</w>
co hésion</w>
que fois</w>
im mi
fin ales</w>
glob alement</w>
arti sans</w>
S am</w>
Dis ney</w>
S ing
s ine</w>
signal er</w>
K y
écl at</w>
land aise</w>
accro issement</w>
é e.
F MI</w>
éri eurement</w>
pl aintes</w>
a- t-on</w>
Pyré nées</w>
pu b</w>
T O</w>
reç us</w>
avou er</w>
ss ement</w>
av or
mal heur</w>
donn a</w>
parti el</w>
o d</w>
pren ons</w>
é oli
tr am
p on</w>
Moham ed</w>
ép anou
or ale</w>
D F</w>
dé ran
trans action</w>
Si te</w>
Cré dit</w>
japon aise</w>
J ones</w>
l ave</w>
Tél écharg
mobil iser</w>
ri ères</w>
In tro
car rés</w>
se ins</w>
Radi o</w>
N av
pol émique</w>
utilis ez</w>
fon de</w>
vis ent</w>
ass e
14 ,
an ais</w>
gi le</w>
ez- moi</w>
bur g</w>
tes ses</w>
fi er
s aine</w>
anci er</w>
volon tiers</w>
m ég
T al
cri tère</w>
ap portent</w>
environnement ale</w>
vie illes</w>
promen ade</w>
dénonc é</w>
condam nation</w>
sex uelles</w>
donn és</w>
pens ait</w>
tu ée</w>
des ser
Mari o</w>
franco phone</w>
Pense z-vous</w>
in ond
camp ing</w>
tr ist
C omb
E .
T re
anten ne</w>
hui les</w>
sug gère</w>
qu eurs</w>
rec ouv
stric tement</w>
réci ts</w>
souff rir</w>
enc re</w>
3 ème</w>
form ant</w>
opérationn el</w>
chem inée</w>
th ique</w>
hu mili
ne w
op ie</w>
élev er</w>
ol l</w>
Cl er
C él
dériv és</w>
tis te</w>
occup ée</w>
anc y</w>
arri ère-
or di
s oph
A yant</w>
l l</w>
pay és</w>
h es</w>
Fran c
cess er</w>
Proto cole</w>
dou ani
bou tons</w>
syst ématique</w>
maîtr iser</w>
industri elles</w>
cl and
end rez</w>
canap é</w>
hor aire</w>
pein tures</w>
un g</w>
rom aine</w>
sus cité</w>
phras es</w>
Ar chi
Trai té</w>
si a</w>
per due</w>
J er
tent ent</w>
faut euil</w>
Rou manie</w>
n eur
réun i</w>
en visage</w>
aur ons</w>
ou l</w>
K en
ray onnement</w>
dui te</w>
b rass
ferrovi aire</w>
pom me</w>
196 7</w>
Can al</w>
th ématiques</w>
diffici lement</w>
W hi
ab onnés</w>
optim iser</w>
trim ent</w>
F ON
T able</w>
Dev ant</w>
res source</w>
dé montre</w>
Ini ti
Cu ba</w>
dev oirs</w>
sépar er</w>
ris quent</w>
pau x</w>
trad uire</w>
J ord
œu f</w>
émer gence</w>
s aura</w>
s and
origin alité</w>
ci ation</w>
trouv ant</w>
s ainte</w>
immeu bles</w>
Comm ent
tex ture</w>
ambassad eur</w>
expl oration</w>
cli cs</w>
juridi ction</w>
s eni
pré co
I .
déf end</w>
C annes</w>
pass era</w>
déli cieux</w>
dé lin
prot ec
Europé ens</w>
réser voir</w>
Tok yo</w>
Androi d</w>
es cence</w>
co te</w>
observ ateurs</w>
P R</w>
boute illes</w>
co ck
Peti te</w>
com prise</w>
pro jet
qui er</w>
céré ales</w>
résul tant</w>
inv esti</w>
chois ie</w>
exi gence</w>
Su jet</w>
Sta de</w>
atta qué</w>
dang ers</w>
inspec tion</w>
cli chés</w>
dénon ce</w>
tr opi
L iste</w>
al ter
bri ques</w>
administr ations</w>
jon ction</w>
détec ter</w>
i ra
le çon</w>
â ne</w>
scén ar
o x</w>
cr aindre</w>
révol te</w>
comi tés</w>
D ES
D re
publi ées</w>
temp ête</w>
anti ques</w>
concert ation</w>
b asi
inter dire</w>
sur prises</w>
prot ège</w>
ensi ble</w>
entr ain
ré gn
F S</w>
p i</w>
pr ie</w>
su n
ul tra</w>
comp il
Par k</w>
e ar
al la</w>
transfer ts</w>
assi ette</w>
gas tron
cro issant</w>
ci ère</w>
vari és</w>
É N
el les-
grec que</w>
pi de</w>
offer te</w>
cou lis
re z-
k el</w>
B CE</w>
Roy aume</w>
cr eux</w>
fraî che</w>
incon véni
accompl i</w>
an gu
rap procher</w>
las er</w>
p pe</w>
av oit</w>
accus ation</w>
préoccu pation</w>
an ecdo
ex hau
ob us</w>
fourni es</w>
res tée</w>
ll on</w>
évolu é</w>
EU X</w>
soign eusement</w>
décen nie</w>
unanim ité</w>
ass aut</w>
b aiser</w>
sou tenue</w>
demeur ent</w>
ad el
Mo d
con te</w>
dé vou
O S
ti ver</w>
c uit</w>
sus pend
sag esse</w>
ini ère</w>
protég é</w>
dép ôts</w>
nu ages</w>
ho p</w>
ri ves</w>
com pr
est om
administr atifs</w>
F ils</w>
cro issante</w>
né o-
bou lang
occu r
Syst ème</w>
ssi s</w>
Ch er
bou ger</w>
doc trine</w>
voy ons</w>
mis sionn
pr êtres</w>
édi tori
E E</w>
évalu ations</w>
mét aux</w>
cou rante</w>
pré déc
circul aire</w>
19 40</w>
Alli ance</w>
fau t-il</w>
volon tairement</w>
me di
fondament al</w>
Euro pe
PAR IS</w>
vis ées</w>
pro vient</w>
dé ç
indi cation</w>
vaiss eau</w>
3 60</w>
ag ro
agré ables</w>
cré ateurs</w>
Pu is
abb aye</w>
L I</w>
Op en</w>
ver rou
refu ge</w>
rac cour
man ge</w>
implant ation</w>
diminu é</w>
éti quette</w>
jui f</w>
Sal le</w>
dé pou
Commun autés</w>
télécharg ement</w>
propa g
c ente</w>
C oo
nettoy er</w>
forc é</w>
emball age</w>
tr ône</w>
soi -même</w>
R T
reti ré</w>
S ac
O range</w>
hé site</w>
ch aise</w>
t s-
m en</w>
soign er</w>
dis pers
estim ations</w>
fréqu ent
ter n</w>
B .
conduc teurs</w>
terres tre</w>
chauff er</w>
int on</w>
1 1.
aéri ennes</w>
libér aux</w>
v eur</w>
fragi le</w>
l isi
sex uel</w>
gouvernement ale</w>
D a
C ad
s ale</w>
W C</w>
se y</w>
- 1</w>
étroi tement</w>
correc t</w>
simultan ément</w>
op us</w>
fau ne</w>
im a</w>
regar dant</w>
par courir</w>
p ères</w>
hâ te</w>
crip t</w>
encour age</w>
ou tre-
tap e</w>
vi demment</w>
C M
B elle</w>
pro -
éché ance</w>
on ale</w>
Rou ss
s ki
t en</w>
T ATION</w>
dou bl
2 8
é rées</w>
compens ation</w>
tr ei
blo cs</w>
Administr ation</w>
p ées</w>
enf er</w>
sus p
S tan
K ur
restric tions</w>
f oss
sud- est</w>
es pé
S em
Comm erce</w>
origin aires</w>
plan che</w>
é no
P en
agglom ération</w>
fin es</w>
élargi r</w>
B aptis
man quent</w>
M az
humi dité</w>
gu e
ré at</w>
ach ète</w>
n ing</w>
chré tien</w>
massi ve</w>
g et</w>
Chi c
prim ordi
pré ven
oi es</w>
déc ouvri
religi ons</w>
alli é</w>
Orlé ans</w>
tr é</w>
composi teur</w>
13 ,
G ou
artis tiques</w>
construc teurs</w>
évent ail</w>
pa p
po dium</w>
dé triment</w>
po ts</w>
des sert</w>
po êle</w>
ch ats</w>
rassembl er</w>
Hu go</w>
7 e</w>
costu me</w>
récol te</w>
ré cur
V OUS</w>
ell i</w>
tol érance</w>
lég ale</w>
part agent</w>
appropri ée</w>
for fait</w>
cardi aque</w>
construc tions</w>
as pir
qu era</w>
sév ère</w>
tou chés</w>
chôm eurs</w>
Ad am</w>
B is
maîtr esse</w>
sélectionn és</w>
fourni ture</w>
ciném ato
C os
ra chat</w>
Uni versi
répon dant</w>
struc tur
S tar
reç ues</w>
gar o</w>
C ER
res pir
br us
dou tes</w>
tr emp
reconn us</w>
envel opp
f oyers</w>
voul aient</w>
discipl ines</w>
Re d</w>
C C</w>
mi ques</w>
M éd
charg ement</w>
sur vivre</w>
affec té</w>
dress er</w>
T F1</w>
é pa
Ch arg
fi eld</w>
ri ght</w>
conç us</w>
identi ques</w>
recu eillir</w>
organis és</w>
ab aiss
palestini en</w>
enregistr és</w>
M ém
manipul ation</w>
Re al</w>
Char lie</w>
profon des</w>
gé no
amélior ations</w>
av o</w>
ag erie</w>
B M
T om
sens ations</w>
FORM ATION</w>
Ch ris</w>
reli ef</w>
plai gn
oris ation</w>
tr embl
EN CE</w>
spécifi quement</w>
adhér ents</w>
pi er</w>
fail lite</w>
Vers ailles</w>
W all
popul arité</w>
IS I
pou let</w>
exter nes</w>
P OR
orient er</w>
absor b
jam in</w>
B A
g i</w>
pharma cie</w>
avi ez</w>
dé tourn
emb les</w>
T .
tom ates</w>
M ac</w>
uni ques</w>
sol aires</w>
fol le</w>
ai t-ce</w>
connec té</w>
m aires</w>
Poli tique</w>
o graphie</w>
sym bol
occup és</w>
oxy gène</w>
Ju les</w>
ol y
E U</w>
V is
Pak istan</w>
T ra
O G
cor des</w>
Fran cis</w>
dis cré
lib rai
ti rage</w>
compa tri
ti ck
vari er</w>
mon as
M ouv
po lo
lav er</w>
aim ez</w>
Ch an
bi ologiques</w>
intermédi aires</w>
autor ise</w>
lè v
trans porter</w>
amour euse</w>
g y
franch ir</w>
adress ée</w>
Moy en</w>
B ois</w>
pass e
dic tat
v écu
S oli
S har
appréci ation</w>
solid aire</w>
goû ter</w>
pi le</w>
pén al</w>
fondament ales</w>
194 4</w>
im plan
dérou lement</w>
exam in
n ul
psychi a
bou le</w>
po étique</w>
es cal
annonc ée</w>
A y
réfrigér ateur</w>
an or
pour suivant</w>
CG T</w>
franco phones</w>
S port</w>
ré elles</w>
du el</w>
fi a</w>
é pu
0, 00</w>
sud- ouest</w>
rum eurs</w>
Mathi eu</w>
Au trement</w>
poussi ère</w>
arbi tre</w>
V au
F as
ade p
di ra</w>
caractér ise</w>
aill on</w>
ins pire</w>
B R
entrepren eur</w>
Hi er</w>
encadr ement</w>
ambiti eux</w>
cli c</w>
i c</w>
poursui tes</w>
développ ée</w>
peu t-on</w>
è lent</w>
O pér
Ale x</w>
légiti mité</w>
intri gue</w>
subst anti
rel ance</w>
O P
effecti ve</w>
B all
dé v
tri o</w>
pi rer</w>
austr ali
infl am
s ois</w>
admi rer</w>
chapi tres</w>
b et
Par is-
abouti r</w>
ass ou
séqu ences</w>
concr ètes</w>
ro ses</w>
No m</w>
th ématique</w>
x y
ve dette</w>
certi fication</w>
outi ne</w>
subi t</w>
lu mières</w>
car bon
contr aste</w>
Jean- Claude</w>
pou ces</w>
ap ais
w in</w>
é pon
par oi</w>
is t</w>
ven d</w>
ref our</w>
b ac
allen ge</w>
allu re</w>
voul ant</w>
un d</w>
ass ise</w>
conserv ateurs</w>
Prot ection</w>
L LE</w>
Cr oix</w>
is ons</w>
ta r</w>
1 ère</w>
li ons</w>
écriv ains</w>
aff ection</w>
S el
se z-
ren voie</w>
défin ies</w>
appel ait</w>
M ai</w>
Arth ur</w>
f oie</w>
suspen du</w>
formu la</w>
or a</w>
197 1</w>
RD V
ch ester</w>
Chic ago</w>
administr ateur</w>
camér as</w>
réguli ers</w>
B RE</w>
gl ori
cr i</w>
dé pense</w>
cor rection</w>
all ais</w>
fas c
indic ateur</w>
cu lin</w>
K an
CH AR
stati onnement</w>
sty les</w>
cli p</w>
ann uels</w>
consid èrent</w>
ar c</w>
quar antaine</w>
cam ion</w>
propag ande</w>
affir mant</w>
path ie</w>
cau sé</w>
fraî cheur</w>
Hél ène</w>
c ouverts</w>
épau le</w>
cour be</w>
com bler</w>
fl amb
L em
10 -
Smi th</w>
op le</w>
quali fier</w>
ty pique</w>
all ées</w>
pertin entes</w>
sup pli
civi les</w>
intéress antes</w>
TA N</w>
ins isté</w>
im provis
v i</w>
N ombre</w>
dat ant</w>
br on
eau -
es tique</w>
Fr ais</w>
cinqu antaine</w>
or donné</w>
f ous</w>
com poser</w>
ENT RE
ag a</w>
T M
fer ai</w>
Ven ez</w>
O B
ph are</w>
assassin at</w>
enn u
Vic tori
modu les</w>
et ti</w>
t z
F err
ti mi
dé pression</w>
es el</w>
inscri ptions</w>
détermin e</w>
e h</w>
évacu ation</w>
littér alement</w>
n aître</w>
fall oir</w>
bou levard</w>
appro xim
Jeu di</w>
rétab lir</w>
éc us</w>
au ber
ral entiss
v ée</w>
mar ches</w>
r ure</w>
Cal ais</w>
g me</w>
s essions</w>
. --
Ro y</w>
M ani
contin ent
b and
tes té</w>
étab lies</w>
possé dant</w>
gar der
V e</w>
S SI
jeu x
nég ative</w>
souver ain</w>
pi ét
H arry</w>
t op
tu es</w>
15 ,
enti elles</w>
chois issez</w>
Ch api
pl i</w>
dy s
N ar
étudi e</w>
compa tibles</w>
Compa gni
Z él
N o</w>
bar bec
â gée</w>
fonctionn el</w>
R ab
permet tait</w>
senti ers</w>
S k
P ens
ins tin
b av
Dr oit</w>
entre prendre</w>
forc er</w>
F in</w>
6 0
identi fié</w>
tes- vous</w>
dynam iques</w>
éclai r
ang les</w>
in oubli
occa sionn
consac re</w>
ad mission</w>
glo be</w>
prim er</w>
cui vre</w>
mo derni
ag r
veu illez</w>
demand a</w>
pan ne</w>
ec k</w>
Cu is
Bul l</w>
im matri
gr ossi
P outine</w>
A k
ill ég
ru gby</w>
plon gée</w>
gran dis
photo graphies</w>
ci r</w>
gi gan
enti s</w>
suppl ément</w>
frapp er</w>
ter ez</w>
Ki m</w>
rem place</w>
vi ce</w>
trau mati
C R</w>
pè ler
dé tient</w>
cass er
ver rez</w>
dégag er</w>
men és</w>
abri te</w>
limi tées</w>
jo lies</w>
col lo
do r</w>
pertin ence</w>
fabri que</w>
D um
dom estique</w>
fabric ants</w>
pass es</w>
ell o</w>
ens ol
gér ant</w>
a p</w>
Le ague</w>
T I</w>
3 5
di os</w>
escl av
obs cu
CON SE
fic ateur</w>
pa ssions</w>
mon i
A mé
Tech n
é touff
ak a</w>
histori en</w>
indi gn
Arnau d</w>
trouv aient</w>
trac é</w>
tré sor</w>
envoy és</w>
on i</w>
men a
trim es
consomm er</w>
an terie</w>
Ste ve</w>
P ér
con formes</w>
concré tis
ra ci
H ab
tran ches</w>
chirur gie</w>
mer veille</w>
renouvel ables</w>
bil atér
bal con</w>
h .</w>
no ctur
lo b
am ing</w>
z i</w>
défin is</w>
quel quefois</w>
collecti fs</w>
ement .
réserv ée</w>
lumin euse</w>
Canadi en</w>
Th er
e go</w>
refroi dissement</w>
arrê ts</w>
Cin q</w>
bar s</w>
st ages</w>
Ex pl
For mation</w>
évi te</w>
mi t
plon ger</w>
SER VI
dess inée</w>
Ray mond</w>
accu se</w>
Europé enne</w>
Gren oble</w>
n es
la y</w>
march ands</w>
Mar di</w>
s onn
co t</w>
intég rés</w>
sén ateur</w>
magné tique</w>
Ex press</w>
escl aves</w>
sou mises</w>
L ei
attend us</w>
Tré sor</w>
Quel que</w>
thé orique</w>
CO 2</w>
mas culin</w>
T .</w>
w er
symbo les</w>
te té</w>
N A
rel ax
Ben jamin</w>
exi c
nomm er</w>
bourge ois</w>
off ri
hau tement</w>
can on</w>
urban isme</w>
Envoy er</w>
connaiss ait</w>
Bi g</w>
b ob
t .</w>
Ajou tez</w>
Ch el
rent abilité</w>
B ill</w>
F il</w>
M ath
rem or
cho s</w>
bus te</w>
pen sions</w>
déc ouvrez</w>
confi er</w>
gu ise</w>
manu factu
ca hier</w>
sy rien</w>
en ter
rép ét
par oisse</w>
ré clame</w>
stu pé
nour r
essay e</w>
onni er</w>
mondi aux</w>
I denti
Dé sor
je an</w>
labor atoires</w>
I M
off rons</w>
z u
min orités</w>
g éri
éventu elles</w>
di able</w>
vis uelle</w>
occident aux</w>
élég ance</w>
I mag
i ts</w>
inter action</w>
prot est
H .</w>
fl an
pa n</w>
Ne ws</w>
B N
Cl inton</w>
Ret our</w>
ca li
ambi tions</w>
con jonc
Conn exion</w>
Flor ence</w>
fi ll
n ess</w>
Gar anti
représent és</w>
humi de</w>
D R
vis er</w>
W h
Intro duction</w>
mét ap
ui es</w>
robo t</w>
En er
posi tionnement</w>
ver tus</w>
hiér archie</w>
co ol</w>
fonctionn aire</w>
T imes</w>
roy al</w>
jam be</w>
gen oux</w>
Palestini ens</w>
indem nité</w>
1 1,
des crip
Bi bliothè
B I</w>
196 9</w>
is h</w>
apparti ennent</w>
restruc turation</w>
An th
adress é</w>
harmon i
inv ali
bri s</w>
a hi
î tes</w>
cons entement</w>
PAR TI
autoris és</w>
noti fication</w>
viv ante</w>
oppos ants</w>
b arrière</w>
soci o-
fis calité</w>
Pren ez</w>
lingu istique</w>
gol f</w>
conn aitre</w>
du dit</w>
fond ement</w>
res tes</w>
re dev
péri mètre</w>
aim ait</w>
Lav al</w>
AI T</w>
E P</w>
do tée</w>
mé pris</w>
trans vers
connaiss ez</w>
vr ont</w>
candid ate</w>
gl aci
vê tement</w>
an cr
ch ê
g lu
on el</w>
min orité</w>
ensol eill
idé ologie</w>
nord- ouest</w>
F M</w>
oul d</w>
X Xe</w>
mystéri eux</w>
her bes</w>
ad mettre</w>
at i</w>
rel ancer</w>
N .
cul er</w>
All ez</w>
capit alisme</w>
b le
fon te</w>
modern isation</w>
ép ée</w>
trouv ée</w>
H ér
class és</w>
tra jec
altern ance</w>
es- nous</w>
déf aill
contes tation</w>
G PS</w>
insec tes</w>
M ES</w>
Ré seau</w>
Lor raine</w>
em po
Commiss aire</w>
invent aire</w>
ti lle</w>
ridi cule</w>
en ses</w>
li tion</w>
ge ance</w>
An cien</w>
travers ée</w>
sé duire</w>
Ar mée</w>
8 0
entre tiens</w>
esp oirs</w>
b ach</w>
Pl an
progress é</w>
li m
requ érant</w>
quelques- uns</w>
dé pass
c aisses</w>
menti onnés</w>
réci pro
lam pe</w>
ation .
D onn
int ol
des truc
cont empl
O h</w>
ru rales</w>
res tés</w>
ex il</w>
vol é</w>
musul man</w>
r â
g ab
diplom atique</w>
chev alier</w>
domin ante</w>
av al</w>
re vers</w>
w ork</w>
chanti ers</w>
Bus h</w>
ex poser</w>
B ag
Mas ter</w>
inf ec
calcul s</w>
o la</w>
compos antes</w>
ver be</w>
ch ol
enver gure</w>
classi fication</w>
val uation</w>
b os
N oir</w>
pl esse</w>
dis cret</w>
fr ai
Seu ls</w>
illu sion</w>
Lun di</w>
san gu
téléphon ique</w>
Ely sée</w>
ad é</w>
atti ré</w>
comm ém
Qu anti
2 9
b oi
Souv ent</w>
Du rée</w>
ay -
ers hip</w>
parti elle</w>
Oc t
Mouv ement</w>
s at
B ol
confir mation</w>
interro ge</w>
spéci alisées</w>
Ar d
progressi ve</w>
TI QUE</w>
calcul er</w>
limi tation</w>
et t</w>
épi ces</w>
boî tes</w>
Th e
n ar
incl in
pai e</w>
19 30</w>
médi cales</w>
biz arre</w>
n ets</w>
ô tres</w>
ex on
pi c</w>
ré partis</w>
H it
sou vient</w>
ari n</w>
Chapi tre</w>
K ir
occur rence</w>
J .-
t we
formu les</w>
Désor mais</w>
e vi
é e
p èse</w>
An der
discipl inaire</w>
ex pose</w>
sépa rés</w>
tu m
agon istes</w>
ran d</w>
débar rasser</w>
Dét ails</w>
équip és</w>
in cul
habitu el</w>
éch appe</w>
octro i</w>
ç aient</w>
f â
profi ls</w>
É qui
mété or
ti a</w>
main tient</w>
T en
féli cite</w>
re produire</w>
an é
chev ê
main tenu</w>
titu laires</w>
st at</w>
fau sses</w>
vari étés</w>
t chèque</w>
islam istes</w>
Ch ois
revendi cations</w>
con venu</w>
z o</w>
demand ait</w>
a j
déc ors</w>
infr actions</w>
céléb rer</w>
abor d
aliment er</w>
ti quement</w>
pantal on</w>
Ni k
jui ve</w>
ak i</w>
spati ale</w>
tu bes</w>
pron on
fi ches</w>
cour tes</w>
gr ain</w>
S ony</w>
poi l</w>
vieill issement</w>
d ences</w>
W est</w>
int end
amus er</w>
fier té</w>
mi le</w>
ad os</w>
O cé
Mer credi</w>
i di
al location</w>
considé rées</w>
répar er</w>
R ue</w>
int ement</w>
S pe
ju pe</w>
péri l</w>
civi lis
Compagni e</w>
h eu
pl aine</w>
Di ff
don i
gui der</w>
cl e
mirac le</w>
publici taires</w>
s ati
statu ts</w>
cher chez</w>
gratui tes</w>
compos ent</w>
maj oritairement</w>
encour ag
10 0
s ax
suspec t</w>
démar rer</w>
J .
ç à</w>
t ailles</w>
minim ale</w>
mutu elle</w>
condam nés</w>
pédago giques</w>
Cl aire</w>
possé der</w>
fl eu
at outs</w>
év eill
imprim é</w>
aill er</w>
G ES</w>
fix ées</w>
rom antique</w>
origin aux</w>
AN N
glis ser</w>
s tiques</w>
atte ints</w>
C eux-ci</w>
éch al</w>
end a</w>
ter ons</w>
in jection</w>
optim ale</w>
V it
he in</w>
Ven ise</w>
ag issent</w>
ci tant</w>
endr ons</w>
ob tenue</w>
po ches</w>
considér ant</w>
ti bilité</w>
é o</w>
ou n
per s</w>
A thè
ENT AIRE</w>
M T</w>
succ esseur</w>
n us</w>
Sain te</w>
ann a</w>
K ing</w>
Bour gogne</w>
gigan tes
déci dent</w>
ré ductions</w>
196 2</w>
is ations</w>
S ég
Gu y
P at
éventu els</w>
analy stes</w>
in capacité</w>
rappel ant</w>
sé qui
rédi gé</w>
environnement ales</w>
domesti ques</w>
ot h</w>
aî tra</w>
sou plesse</w>
8 e</w>
in contes
1 1-
ar bor
K am
aven tu
5 00
s œurs</w>
b u</w>
Ré serv
su ng</w>
AV EC</w>
au tique</w>
S ES</w>
quali fications</w>
en chon</w>
contradi c
collectionn eurs</w>
n aiss
Sav oie</w>
neu tre</w>
fourni e</w>
par -
u le</w>
st opp
matu rité</w>
défens eurs</w>
blog s</w>
prét end</w>
no stal
R ém
ten du</w>
lè tes</w>
2 7
lèv ements</w>
vi tesses</w>
F éli
ai g
Par all
Rob er
di oc
ant s.
N ancy</w>
triom ph
affec tation</w>
OC DE</w>
fourn issent</w>
bl eus</w>
Mar tin
enregistr ée</w>
O M</w>
pê cheurs</w>
o che</w>
innov ations</w>
intéress ants</w>
E I</w>
pers écu
mu tation</w>
accompagn és</w>
C aisse</w>
Lou ise</w>
F al
présen tera</w>
renouvel er</w>
fau tes</w>
Résul tat</w>
s phère</w>
è bres</w>
ai gne</w>
adop tées</w>
Ex emp
di ques</w>
ex acte</w>
pa trie</w>
As sur
et ta</w>
Jean- Paul</w>
oli que</w>
ch aises</w>
barr age</w>
prim es</w>
Ex cel
san ction</w>
2 6
LI N</w>
i quement</w>
justi fie</w>
alis ations</w>
grand ement</w>
définiti f</w>
TU RE</w>
vi de
char mant</w>
z er</w>
j un
jou ets</w>
ci tée</w>
SOMM AIRE</w>
ultr a-
inci dents</w>
con su
te int</w>
T ony</w>
élec trom
prim iti
ss ants</w>
s cep
régl age</w>
c ouverte</w>
ges tionnaire</w>
lo r</w>
par tent</w>
Seu le</w>
chan ce
r ation
An toni
ét oit</w>
partag ée</w>
fre in</w>
ent ends</w>
séri euse</w>
s emb
chi c</w>
appel lation</w>
M ettre</w>
d ou</w>
espér ant</w>
E tienne</w>
vi gn
3, 5</w>
D T</w>
mo tion</w>
C ité</w>
philos ophe</w>
ain issement</w>
manifes ter</w>
prét endre</w>
colon ies</w>
compt abilité</w>
pré di
R ach
pénétr er</w>
E ducation</w>
assu rés</w>
cy cles</w>
déc lin</w>
L and
négli ge
préfér able</w>
L R</w>
délégu és</w>
dis posé</w>
gend armerie</w>
AR I
autoris ée</w>
T ay
sex uels</w>
plan ches</w>
di visions</w>
o b</w>
délég ations</w>
rép éter</w>
dét éri
inter pell
uk rai
ni enne</w>
extr action</w>
cl er
abor de</w>
ath lètes</w>
Athè nes</w>
con fon
fl eur
d res</w>
at e
ad or</w>
musi cien</w>
jihad istes</w>
met tait</w>
inter pel
ori th
répéti tion</w>
Mi ke</w>
g ay</w>
ess or</w>
divor ce</w>
a z</w>
cul pa
pneu s</w>
paragrap hes</w>
acqu ise</w>
quat or
pon ts</w>
an om
cessi ons</w>
trans fé
V al</w>
él an</w>
Fran cis
direc ts</w>
vari ation</w>
autr ui</w>
cass er</w>
F ord</w>
pro viennent</w>
D EM
Ameri can</w>
privilégi é</w>
qui té</w>
cond ens
Mél enchon</w>
dégu ster</w>
re proche</w>
israéli en</w>
vi gno
D G
vers ées</w>
alis ant</w>
aveu gle</w>
handicap ées</w>
appar tenance</w>
autom atis
danger euse</w>
pa tin
occup ant</w>
trag édie</w>
E A</w>
ges tions</w>
automobi les</w>
atmos ph
én é
mus cles</w>
l ente</w>
par aly
intéress ent</w>
racon té</w>
rass emble</w>
publici taire</w>
co gni
bloc age</w>
D ak
jur is
Ch al
préc isant</w>
ré tr
inv asion</w>
rom ain</w>
éc olog
report age</w>
b ap
publi quement</w>
lev és</w>
g îte</w>
B oul
soli tude</w>
trom p
asse oir</w>
cat aly
S pa
O TAN</w>
N ature</w>
sign és</w>
R ev
bien veill
us er</w>
dé cer
invent er</w>
Gabri el</w>
div ine</w>
ac ul
sécuris é</w>
ter rass
que- là</w>
coï n
soud ain</w>
oblig atoires</w>
achev é</w>
eu d</w>
ouv rier</w>
U TI
B ak
origin ales</w>
liqui des</w>
probl ématiques</w>
génér eux</w>
Franç oise</w>
pos tu
di rais</w>
métro poli
D .
con solid
or al</w>
si rs</w>
fond ateurs</w>
Ar riv
om me</w>
to -
im pulsion</w>
imprim er</w>
re y</w>
ab î
récep teur</w>
qu isi
croy ait</w>
toil ette</w>
R evue</w>
lour des</w>
is s</w>
ti ges</w>
dé vas
Bon jour</w>
fun ér
re pli
vou lu
mél an
ex pressions</w>
vend eurs</w>
considér ables</w>
par ois
Mo z
éli gi
prê ter</w>
dé séqui
rej oign
ci tement</w>
Saint- Denis</w>
Se ine-
produi tes</w>
É E</w>
dévoi le</w>
par i</w>
opérationn elle</w>
L N
Lib ération</w>
ED F</w>
viol ente</w>
littér aires</w>
or gu
poi vre</w>
ab ul
cons ol
par ait</w>
é enne</w>
I N</w>
Por t</w>
colon isation</w>
l us</w>
compens er</w>
poly mère</w>
cé lib
Québ écois</w>
En semble</w>
re courir</w>
di t-elle</w>
contr aign
Jean- Marc</w>
appropri ées</w>
S cho
qu et
thé ories</w>
V e
Loc ation</w>
sav eurs</w>
por tion</w>
cr atie</w>
invi ter</w>
assembl age</w>
financ é</w>
particul arité</w>
M ot
b isc
renforc é</w>
déli cat</w>
v age</w>
compéti tions</w>
com prim
tranqu illement</w>
vers és</w>
illi té</w>
D -
Con formément</w>
conjo intement</w>
X V</w>
témoign ent</w>
entr evue</w>
bien venue</w>
sil hou
F ES
ari os</w>
brev et</w>
ajou tent</w>
pro di
Parti e</w>
empre inte</w>
g eurs</w>
il y</w>
cos mé
st agi
li gue</w>
c ède</w>
el er</w>
3 3
por traits</w>
cli quer</w>
IS S
195 8</w>
a justement</w>
modi fiant</w>
contempor ains</w>
in certitude</w>
en e</w>
o dique</w>
grand- père</w>
t onne</w>
Z i
ron d
P éri
devr ais</w>
relè vent</w>
bâti r</w>
bio diversité</w>
T N
mo dér
fl ag
accél ération</w>
mon stre</w>
as tre</w>
Fran k</w>
péri odi
min ce</w>
contre partie</w>
dé çu</w>
bulle tin</w>
opér a</w>
em porte</w>
Ju lie</w>
tun nel</w>
b ad
fis caux</w>
ré alités</w>
figu r
vis ages</w>
cari cat
Part ager</w>
sauv etage</w>
nomm és</w>
élarg issement</w>
anti n</w>
for tu
bomb ard
ther mo
ob e</w>
C V</w>
inci ter</w>
2. 0</w>
Bi ble</w>
ré agi</w>
do c</w>
béb és</w>
bibliothè ques</w>
extrê mes</w>
prolon ger</w>
Bibliothè que</w>
on d</w>
cr aint</w>
lu x
op ère</w>
vers ant</w>
pou les</w>
aï que</w>
trent e-
pa trons</w>
Jo e</w>
rem édi
Pal estine</w>
1 25</w>
Zél ande</w>
j oign
déli cate</w>
jo inte</w>
pass er
div ul
barbec ue</w>
ou ement</w>
proli fér
cl aires</w>
mon des</w>
entr ent</w>
es car
s pe
end rai</w>
l enti
syn chron
fai lle</w>
vi ème</w>
al arme</w>
défil é</w>
Soy ez</w>
car dinal</w>
susci te</w>
or ge</w>
re tours</w>
P resse</w>
const ant</w>
rev ues</w>
Gau lle</w>
ass iste</w>
ortho do
tun isi
Fi garo</w>
ran e</w>
Re i
fabri qué</w>
cou pes</w>
Nath alie</w>
passi onnés</w>
Ban k</w>
urb ains</w>
ens embles</w>
Pr ise</w>
ag as
S ah
nouveau té</w>
all y</w>
ó n</w>
Car aï
0, 5</w>
perf ection</w>
fer més</w>
ra té</w>
12 -
po ème</w>
proc esseur</w>
cuill ère</w>
au cu
B S</w>
hydr au
vous- même</w>
étr oit</w>
Camer oun</w>
har c
la me</w>
un t</w>
Com bien</w>
pens ons</w>
continu era</w>
ass istant</w>
distribu er</w>
A perçu</w>
Actu alités</w>
is to
d as</w>
sté ré
au be</w>
19 20</w>
accus és</w>
bi blio
posi tives</w>
engag ées</w>
pil otage</w>
inter dite</w>
direc tions</w>
W all</w>
susci ter</w>
Baptis te</w>
affir ment</w>
C T</w>
d t</w>
p ti
urb aines</w>
Chil i</w>
danger euses</w>
Ph oto</w>
ol d</w>
astu ces</w>
ATI ON
mar ty
b et</w>
Al ger</w>
Am our</w>
k er
bienf ai
Chi rac</w>
vulnér ables</w>
h ach
Bi en
ON T</w>
gl ac
si ers</w>
dé tenu</w>
alg orith
dé charge</w>
appar u</w>
PAG ES</w>
éventu el</w>
œu vr
hor mon
C ur
anim ale</w>
municipa lités</w>
C le
F -
pi x
con tenter</w>
concentr é</w>
tap er</w>
ann eau</w>
man ager</w>
aill i</w>
déf endu</w>
Bl ack
fer mes</w>
Le e</w>
protég és</w>
assu ran
grand- mère</w>
réchauff ement</w>
St and
pr oie</w>
ap péti
champi onnats</w>
lég ers</w>
In vité
psych ologie</w>
Mondi al</w>
cor ré
plan cher</w>
N i</w>
mand ats</w>
ch ari
passi onné</w>
trag ique</w>
o pa
sing le</w>
déc entr
pl uies</w>
anti ne</w>
C elle</w>
sent ent</w>
impli qués</w>
destin ations</w>
cherch ant</w>
dé tour</w>
Res pon
dépos ée</w>
cl ari
vis uels</w>
BI LI
impos ent</w>
h omm
ajou t</w>
appar ente</w>
qu ai</w>
Coll ège</w>
é trique</w>
w ill</w>
li enne</w>
im it
vari ées</w>
tu aire</w>
V idé
A po
commun istes</w>
sent i</w>
IN G</w>
sub vention</w>
ci t
maï s</w>
foul ée</w>
re viennent</w>
p ins</w>
vali dation</w>
po ing</w>
iss aient</w>
pa cte</w>
p is</w>
ren force</w>
in forme</w>
gén ère</w>
K at
b ér
Con serv
Dem andez</w>
Re g
Si x</w>
démocr atiques</w>
cha os</w>
employ er</w>
inter actions</w>
lieu tenant</w>
pré vision</w>
C H</w>
Afri c
consolid ation</w>
champi gnons</w>
Gu inée</w>
pu ri
réserv ations</w>
ran données</w>
po table</w>
post al</w>
T EUR</w>
cré ent</w>
dipl ôm
démocr ates</w>
vi ves</w>
sen al</w>
tranqu illité</w>
Jam ais</w>
t au
sur prenant</w>
mo is
se z-vous</w>
écou lement</w>
département al</w>
dési rs</w>
dimin ue</w>
v e-
M and
M ont</w>
mari ée</w>
édi té</w>
w n
s log
wi ck</w>
h el
rembour ser</w>
regar dé</w>
enc aiss
LO GI
profi ts</w>
pan ique</w>
souhai tons</w>
cock t
arti ll
V AL
atte intes</w>
ch lor
A th
au tri
re porter</w>
S cott</w>
crimin els</w>
Li ège</w>
pe dia</w>
sal ade</w>
Vi erge</w>
K enn
m ens</w>
r ale</w>
march and</w>
at h</w>
gr ains</w>
Parall èlement</w>
In don
agré ment</w>
travers é</w>
médi oc
él as
si ez</w>
an alo
rés ine</w>
menac é</w>
renomm ée</w>
pos ant</w>
diplom atie</w>
ciné aste</w>
anti sémi
pavill on</w>
réglement aires</w>
human itaires</w>
rég iment</w>
fonc é</w>
histori ens</w>
moderni té</w>
favor i</w>
environnement aux</w>
impressionn ant</w>
commenc ement</w>
satis fais
mer de</w>
lo calité</w>
Ty pe</w>
mass age</w>
métalli ques</w>
ti rés</w>
fi rent</w>
entou re</w>
impos ée</w>
oppos ant</w>
Quanti té</w>
aux ili
maqu illage</w>
combus tion</w>
U. S.</w>
se .
bi om
ang oisse</w>
Sim ple</w>
mondi ales</w>
16 ,
per cent</w>
fonctionn elle</w>
Con ditions</w>
no tation</w>
p t</w>
Cou rs</w>
thérapeu tique</w>
bass es</w>
V ladi
ch en</w>
ch y</w>
dom ine</w>
signal é</w>
sé journ
C ru
ci um</w>
Sam sung</w>
19 ,
québéco ise</w>
ch ir</w>
détaill é</w>
vi ers</w>
M S
multi -
P ad</w>
M ak
ra ts</w>
ag an</w>
bl eu
out chou
an onyme</w>
tomb ent</w>
M un
H ô
Pl ay
pro spec
po èmes</w>
hypo thèses</w>
c ave</w>
éc ologie</w>
spéci alité</w>
déli v
munici paux</w>
le z-vous</w>
autom obil
améli ore</w>
dét endre</w>
anim ateur</w>
soix ante-
réglement aire</w>
pâ tes</w>
W oo
as s</w>
TR ES</w>
fé dé
trai tant</w>
cro ît</w>
soix ante</w>
genti ll
Francis co</w>
exac t</w>
cy ber
d euil</w>
N ad
polici ère</w>
figu rer</w>
lu cr
déploy és</w>
my the</w>
tri ple</w>
B onn
Ass ad</w>
ré habili
quotidi ennement</w>
t ance</w>
h él
dis si
Sou dan</w>
Me di
a par
spiritu el</w>
si ff
facili te</w>
m ènent</w>
ni ens</w>
passi onn
dé missi
exi ger</w>
éduc atif</w>
c age</w>
is ement</w>
affi ché</w>
cro isi
û ment</w>
enreg istre</w>
fac ult
envis age
rencontr ent</w>
Garanti e</w>
inti mité</w>
OR I
banc s</w>
gu és</w>
com modi
vali dité</w>
ent eur</w>
sorti s</w>
F I</w>
EM ENTS</w>
expli que-
196 5</w>
br ac
Bul gar
tabl ettes</w>
plas tiques</w>
Is lam</w>
Steph en</w>
bal ade</w>
Cé sar</w>
gr et</w>
rel ég
r app
per cep
illustr ation</w>
législ atif</w>
pi vo
le- t-il</w>
r assurer</w>
gu ée</w>
dev ais</w>
sépa re</w>
plac ées</w>
ch risti
K ong</w>
visi té</w>
è mement</w>
at out</w>
bru t
trib une</w>
souff rances</w>
géo graphie</w>
ly cé
Col ombie</w>
col onie</w>
tab il
devi enne</w>
Ke vin</w>
Ac cès</w>
s an</w>
baiss é</w>
O '</w>
OU V
viol ations</w>
Haï ti</w>
télé communications</w>
étudi ante</w>
TI C</w>
pour riez</w>
impos ant</w>
m ers</w>
ress enti</w>
plai sirs</w>
gend armes</w>
mac ro
neu vième</w>
S ports</w>
elles- mêmes</w>
piè ge</w>
israéli enne</w>
er b
CO R
cré atures</w>
anc ée</w>
ru ines</w>
red res
néer landais</w>
de venant</w>
Re gar
révél ation</w>
confron tation</w>
M ER
in connue</w>
es pe
tin ation
reç ue</w>
Th aï
ép in
Lé on</w>
Jean- Marie</w>
r avi
dur ables</w>
dou ter</w>
Gen er
N ob
libér ale</w>
parad ox
handicap és</w>
vo cab
rép ète</w>
sec tori
r ou</w>
ar que</w>
co pe</w>
Val érie</w>
mém oires</w>
dévoi lé</w>
ç age</w>
interval le</w>
souff rent</w>
h oll
autoris er</w>
me e
der ont</w>
enti ers</w>
ence intes</w>
ch o</w>
viol ents</w>
vél os</w>
enrich ir</w>
altern atives</w>
hydro gène</w>
bu re
o th
f ossi
trav ailleur</w>
gr aci
A D</w>
ass é</w>
ap portées</w>
potenti ellement</w>
im i
C ant
H ill
vi gnes</w>
par don</w>
Génér ale</w>
ép ais</w>
ten aient</w>
c rev
prouv é</w>
Communi cation</w>
Col ombi
exclusi ve</w>
réserv és</w>
somm es-nous</w>
4 50</w>
appli quées</w>
P il
Tan dis</w>
majeu res</w>
t- elles</w>
Ch y
sec s</w>
b êtes</w>
achet eurs</w>
vigil ance</w>
respecti fs</w>
cau ser</w>
con vain
éch ecs</w>
T G
In formation</w>
dési re</w>
respec té</w>
at or</w>
cl ef</w>
senti er</w>
met tez</w>
gui des</w>
no blesse</w>
Fi che</w>
mécan iques</w>
Rou en</w>
représent ée</w>
rou lant</w>
Ju an</w>
de .
impa cts</w>
Tab leau</w>
quali fiée</w>
co effici
y n</w>
a cité</w>
rencontr és</w>
avi ation</w>
indépend amment</w>
C RE
or bite</w>
post er</w>
lég ères</w>
super bes</w>
combus tible</w>
ex .</w>
esti mée</w>
bo isson</w>
L AN
virtu elle</w>
réconci liation</w>
baptis é</w>
D ec
H a
au stéri
délivr ance</w>
B un
complè tes</w>
im er</w>
vrai es</w>
sen su
arri ver
développ eurs</w>
s ph
constitu tionnelle</w>
È RE</w>
stand ards</w>
lou p</w>
fabri qués</w>
èn ement</w>
f ères</w>
É cosse</w>
f us</w>
n ev
spiritu elle</w>
é tin
rou tier</w>
por ting</w>
é s.
Man chester</w>
d ol
co ordonn
répercu ssions</w>
appro cher</w>
J eu</w>
géni al</w>
dis ais</w>
en nité</w>
isol ation</w>
g èrent</w>
indemn isation</w>
Consul tez</w>
in visible</w>
amus ant</w>
QU I</w>
inscri te</w>
exi ge
expli quent</w>
hy l
ar di
physi quement</w>
genti l</w>
I MP
sauv é</w>
j o</w>
atta chement</w>
confron tés</w>
min uit</w>
pl aire</w>
C P
molécu les</w>
musul mane</w>
H aut
préal ablement</w>
TE CH
ran gement</w>
lac s</w>
men ant</w>
MIN IS
sug gestions</w>
accueilli s</w>
kil os</w>
S tation</w>
U L
ag ons</w>
attribu er</w>
seg ment</w>
pr es</w>
ver nis</w>
magistr ats</w>
ét endu</w>
annul er</w>
Rappel ons</w>
C M</w>
compli cité</w>
isol é</w>
bi le</w>
trom per</w>
EURO PAGES</w>
ver res</w>
préf èrent</w>
sensibil iser</w>
196 4</w>
bio graphie</w>
S EC
Empl oi</w>
exhau s
en terr
t antes</w>
iss ants</w>
anc êtres</w>
chass eurs</w>
ass ainissement</w>
rés istant</w>
blo qué</w>
e Bay
ony mes</w>
affi ches</w>
gén érique</w>
eur s-
Améric ain</w>
1- 1</w>
Â ge</w>
ri ens</w>
rév èlent</w>
R ock
Mis s</w>
di ct</w>
J un
sub jecti
Ama zon</w>
p s
mas ter</w>
Grou p</w>
habitu elle</w>
amélior é</w>
J ET</w>
si ro
bi er</w>
Qu e
am ant</w>
vie w</w>
S tor
dé cour
mul tination
Gr at
copi es</w>
17 ,
trist esse</w>
ser ré</w>
fil er</w>
élég ant</w>
lit toral</w>
pré lèvement</w>
S AR
Man agement</w>
is ez</w>
ér i</w>
ym n
H aw
différ emment</w>
meu ble</w>
vas tes</w>
cens é</w>
consac rés</w>
rapi dité</w>
énergé tiques</w>
scén arios</w>
g esti
In form
1, 2</w>
s èches</w>
an xi
vraisembl ablement</w>
soi e</w>
min eur</w>
u tions</w>
col ore</w>
ci es</w>
ai dent</w>
res sortir</w>
lég ales</w>
CO M
br un</w>
â ges</w>
cor ds</w>
k es</w>
d un</w>
sur pren
cons tru
s ante</w>
uni or</w>
souff ert</w>
196 6</w>
K on
val s</w>
renforc ée</w>
dynam isme</w>
trai tée</w>
bénéfici aire</w>
crédi bilité</w>
M aire</w>
conf is
arriv ant</w>
déb ord
car to
gran dir</w>
L ang
esclav age</w>
achet eur</w>
fes ses</w>
dist ances</w>
sé duit</w>
H P</w>
organ iques</w>
dipl ô
mati ques</w>
F N
trai tées</w>
C ot
désign ation</w>
écri tes</w>
illu min
ac le</w>
eur .
D on</w>
Ver ts</w>
aux -
Str atég
o ke</w>
crimin alité</w>
H il
Lis bonne</w>
po te</w>
y wood</w>
comp tant</w>
Ch inois</w>
chauff eur</w>
arti er</w>
mensu el</w>
prof essions</w>
compos ante</w>
vol ati
shir t</w>
remp lie</w>
Rol and</w>
in fini</w>
somm ets</w>
man teau</w>
es h</w>
plate formes</w>
Tu be</w>
vocab ulaire</w>
pl ait</w>
S c
divis é</w>
Willi ams</w>
th is</w>
Deux ième</w>
D RE</w>
avanc és</w>
ra p</w>
car net</w>
ré gr
retrouv és</w>
extr ém
ira ki
eth nique</w>
compét ents</w>
ir o</w>
iss antes</w>
cour eurs</w>
gi o</w>
terr eur</w>
Car los</w>
E ri
om ètre</w>
lo re</w>
l ette</w>
inspi rer</w>
dés armement</w>
Pos té</w>
U E
multipli cation</w>
entr e-
vi des</w>
ambass ade</w>
san ne</w>
s pr
multi latér
trou bl
nég atifs</w>
h aï
sag a</w>
ath an</w>
stabil isation</w>
com be</w>
bel ges</w>
pol i</w>
dé parts</w>
poi ls</w>
All ah</w>
lo w
diplôm és</w>
affai bli
pi zz
eu ri
administr ateurs</w>
per dus</w>
trei ze</w>
gn an</w>
distribu teur</w>
excell ents</w>
C ES
d et
dr ait</w>
M É
dess iner</w>
enregistr ées</w>
Cré ation</w>
z e
bar bar
not ori
instr ument
polon ais</w>
s ombres</w>
réclam er</w>
B ass
b ans</w>
p esti
sé ré
s cel
form ats</w>
r .
sk y</w>
ais ée</w>
fr au
T '</w>
cl an</w>
mor ph
cau chem
sacri fice</w>
v este</w>
Des cription</w>
car rément</w>
ec t</w>
Lit t
fonctionn ent</w>
comm enté</w>
ch anc
croy ances</w>
l an</w>
spé cul
détermin ant</w>
t els</w>
sui vis</w>
fl amme</w>
ll ement</w>
pro pul
Mad el
h ét
qu erait</w>
mor ales</w>
n ale</w>
constitu ant</w>
affec tés</w>
pou ce</w>
cam ions</w>
is ants</w>
VI I</w>
syri enne</w>
contr as
I P
vol ets</w>
catastr ophes</w>
austéri té</w>
tend ant</w>
V ati
Ru sses</w>
P et
mâ le</w>
ressorti ssants</w>
tr ame</w>
ge ot</w>
vi endront</w>
ajou tez</w>
o ffi
conqu érir</w>
W es
sur monter</w>
Notre- Dame</w>
ré -
qui conque</w>
ci tes</w>
menti onnées</w>
propi ce</w>
héroï ne</w>
CONSE IL</w>
W o
té .
tur c</w>
g ez</w>
Jus tin</w>
oph one</w>
at terr
F .
édi ction</w>
fix es</w>
coll ine</w>
fi èvre</w>
radi cal</w>
Ca p</w>
pal ette</w>
compét entes</w>
ca outchou
allem andes</w>
AP P
associ e</w>
impli qué</w>
mili tant</w>
chang ent</w>
sépar é</w>
requ ises</w>
im passe</w>
b en
app ui
196 3</w>
ck er</w>
compl ets</w>
g eur</w>
prisonni er</w>
inqui études</w>
ca des</w>
Ko so
t ain
ti ennes</w>
ul l</w>
techni ciens</w>
ac tionnaire</w>
compl été</w>
adap te</w>
soulign ant</w>
par aissent</w>
st and</w>
ing -
A bi
Caraï bes</w>
ti cs</w>
Car te</w>
fon taine</w>
ju gée</w>
lo yer</w>
enti els</w>
É ducation</w>
Tou rs</w>
interprét er</w>
Mon t-
af ter</w>
ad r
t euses</w>
T es
D D</w>
esti mer</w>
Au to
es .</w>
Pl ac
épi cer
Antoni o</w>
B ay</w>
pes er</w>
dev rez</w>
ab ore</w>
d ine</w>
trouv a</w>
E Z</w>
m el
cellu laire</w>
E i
vi ol</w>
D al
An na</w>
én ager</w>
retrouv ée</w>
L S</w>
médi ation</w>
in e
ran ger</w>
SS I</w>
as cens
chor é
subli me</w>
ing er</w>
hom olo
ress entir</w>
coll égi
chron iques</w>
occident al</w>
transpar ent</w>
j adis</w>
collecti ves</w>
constr uits</w>
brev ets</w>
suff rages</w>
caractéris ée</w>
Ali ce</w>
Am ster
liné aire</w>
ga me</w>
paci fique</w>
illustr ations</w>
Marti ne</w>
adop te</w>
mari er</w>
H T</w>
er gon
G O
Sou s-
mari é</w>
lég end
artill erie</w>
E v
re partir</w>
D j
sou tiennent</w>
TR AN
jour -là</w>
Sy m
spec tre</w>
n euro
fin esse</w>
décal age</w>
C en
hél as</w>
extrémi tés</w>
itinér aire</w>
enseign er</w>
oblig és</w>
ra fraî
notori été</w>
Bo b</w>
requ ér
hab il
class ée</w>
3 000</w>
préserv ation</w>
le vier</w>
clau se</w>
commen ça</w>
tend resse</w>
casser ole</w>
dé lit</w>
p ét
empê ché</w>
vo le</w>
respec tant</w>
en cieux</w>
Jui n</w>
mess agerie</w>
G rec
remédi er</w>
end ur
for ums</w>
ER E</w>
protég ée</w>
dis ons</w>
ss é</w>
appel ant</w>
K ou
fé minis
ter ne</w>
pai sible</w>
trouver ont</w>
vois inage</w>
Trai tement</w>
k ar
direc trices</w>
em s</w>
Si ège</w>
7 0
dan ser</w>
opér er</w>
circonst ance</w>
bi t</w>
D ol
G ard
gno l</w>
Re ine</w>
sav eur</w>
bou ff
rou tière</w>
du rs</w>
tin t</w>
- L
c f.</w>
b in
P acte</w>
flo t
fu ri
grand i</w>
pass a</w>
ges tionnaires</w>
ner veux</w>
péri té</w>
dispos ant</w>
vali der</w>
hos ti
pi tié</w>
Bo ston</w>
incar ne</w>
fr action</w>
endet tement</w>
pr é</w>
I T
SS E</w>
EN S</w>
TRA V
dé place</w>
H ad
lu dique</w>
exclusi f</w>
harc èlement</w>
réalis me</w>
Her vé</w>
T w
PL US</w>
port a</w>
EN TI
capi tu
m exic
accessi bilité</w>
ai res
immobi liers</w>
Vi etn
virtu el</w>
ab ro
aill é</w>
dou zaine</w>
hom ogène</w>
bour ses</w>
aî né</w>
dj an</w>
a '</w>
sav oirs</w>
dés espoir</w>
C av
commun al</w>
lec tures</w>
expos ées</w>
Vladi mir</w>
compét ente</w>
Po pul
illustr é</w>
im patience</w>
éc ologiques</w>
Ro ch
é ens</w>
nutri tion</w>
oo m</w>
éch el
C ass
di vi
G ag
poli s</w>
emprun t</w>
b ail</w>
conver tir</w>
Wiki pedia</w>
républic ains</w>
indé sir
P ossi
refus ent</w>
scol arité</w>
dioc èse</w>
pleur er</w>
p pé</w>
éc lip
Profi tez</w>
pertin ents</w>
P re
accueill ant</w>
Co sta</w>
T emps</w>
rap proche</w>
prolifér ation</w>
dé ception</w>
z z</w>
ad oré</w>
s è
fr ance</w>
I B
vis a</w>
ri te</w>
iss er</w>
décl in
lu s
ten ons</w>
op es</w>
Jack son</w>
pa quets</w>
iss é</w>
at o</w>
grav ement</w>
rédui ts</w>
Sar ah</w>
affir mation</w>
vin ai
connec tés</w>
ench ères</w>
9 e</w>
don ateurs</w>
J eux
charman te</w>
mi- temps</w>
aimer ait</w>
par venu</w>
ologi quement</w>
Nouvelle- Zélande</w>
pa trou
stimul er</w>
P it
ath l
idé alement</w>
ch ure</w>
Télécharg er</w>
réu ss
s ache</w>
prestigi eux</w>
influ ences</w>
triom phe</w>
bâ ti</w>
ET TE</w>
lic ences</w>
admi ration</w>
im pec
fr u
em a</w>
myth ique</w>
h ard</w>
ques tionnaire</w>
mass es</w>
si ère</w>
fon der</w>
Laiss er</w>
nou s-
résid ent</w>
f abul
dou bles</w>
compar é</w>
o die</w>
ann i</w>
recher ché</w>
ur al</w>
clar té</w>
lead ership</w>
N an
bo ard</w>
C RI
Trouv ez</w>
remar ques</w>
om iques</w>
brig ade</w>
ag ram</w>
R ock</w>
confor tables</w>
servi ra</w>
me .
qu is</w>
Fran ck</w>
massac re</w>
man quait</w>
Résul tats</w>
cr ou
concern ée</w>
par ois</w>
techni cien</w>
icô nes</w>
tr ê
cou sin</w>
tou t-
tou chent</w>
péti tion</w>
ti ment</w>
indi en</w>
rétab lissement</w>
aw i
y ou
adoles cent</w>
as cen
X XI
chem ise</w>
dent aire</w>
télé spectateurs</w>
gen er
lis abeth</w>
bl ou
pâ tiss
du ré</w>
v am
successi vement</w>
PD F</w>
lut tes</w>
bat teries</w>
rac ine</w>
interro gé</w>
m essieurs</w>
mar bre</w>
f le</w>
dé vi
reti re</w>
val u</w>
int érieurs</w>
fér er</w>
riv al</w>
P ot
dé pendant</w>
ét off
d aient</w>
oppos és</w>
glis se</w>
insuffis ance</w>
Bus iness</w>
Jean- Louis</w>
e o</w>
t s.
af i</w>
costu mes</w>
transfér er</w>
ca sin
inven té</w>
man d</w>
él év
tar iste</w>
bou cli
coff re</w>
qu aient</w>
dis coun
et és</w>
évo quant</w>
si ves</w>
pri oritaires</w>
mai tr
K az
rivi ères</w>
pay e</w>
bact éries</w>
at y
épi démie</w>
pa re</w>
lors qu</w>
Mer kel</w>
ong les</w>
des quels</w>
ém eu
mons tres</w>
Fe der
N as
indem nités</w>
ter ais</w>
v ec
B OU
crimin el</w>
s tri
eur ent</w>
Der rière</w>
d ance</w>
F ER
l -
rep érer</w>
discré tion</w>
H os
considér ations</w>
J E</w>
M ATI
ti mes</w>
For ces</w>
isol ement</w>
ini er</w>
sup porte</w>
pro f</w>
pé ché</w>
S on
C is
Somm et</w>
co c
ur ent</w>
rajou ter</w>
ent- elles</w>
ill és</w>
rou lement</w>
optim isation</w>
harmon isation</w>
ge a</w>
do ise</w>
équi té</w>
Fre e</w>
Al p
héber gements</w>
1. 3.
Bl eus</w>
ab att
redres sement</w>
aff ecti
m age</w>
vul g
ass er
éb ran
préli minaire</w>
fais ais</w>
fran c
Poli ce</w>
évê ques</w>
D J</w>
d .</w>
ven ons</w>
dictat ure</w>
confron té</w>
fréqu ences</w>
o ver</w>
pu le</w>
Tex as</w>
e ws</w>
impli quant</w>
dispu te</w>
li aisons</w>
M ais
CF A</w>
hau t-
dé coll
amélior ée</w>
r amen
gentill esse</w>
gen ou</w>
hy sique</w>
valoris er</w>
P ôle</w>
nomb res</w>
FA Q</w>
gi r</w>
inspi rée</w>
Au ver
Chang ez</w>
per les</w>
secrè te</w>
acc al
mar ges</w>
assuran ce-
anim ée</w>
In formations</w>
H ouse</w>
ab str
lev ées</w>
A R</w>
re prit</w>
im s</w>
ul ation</w>
man ne
I V
isi r</w>
cen sure</w>
circul er</w>
parfum s</w>
spéci alités</w>
menson ge</w>
Pho to
so y
impos ées</w>
F ro
soli taire</w>
arriv ait</w>
dom iné</w>
gou ttes</w>
com prom
co inc
bu n
identi fiés</w>
Econom ie</w>
su s-
mén ager</w>
N atur
in dex</w>
in utiles</w>
com pression</w>
b ack
avanc ement</w>
reli é</w>
ma trice</w>
c m
san s-
18 ,
cr ue</w>
rom pre</w>
soph isti
architec tur
vol .</w>
opti mis
ralentiss ement</w>
con centre</w>
L ong
n app
di lu
196 1</w>
Met z</w>
contrô lée</w>
S élec
sal ué</w>
proté ine</w>
a g</w>
ss a</w>
assu jet
n age</w>
rur ale</w>
ch aine</w>
f assent</w>
sou mission</w>
cop ains</w>
pros périté</w>
m uti
sembl ant</w>
préfé rés</w>
inspec teur</w>
OR T</w>
re tomb
excu se</w>
quotidi ens</w>
pouss ent</w>
fin issent</w>
port aient</w>
ins ol
Ad resse</w>
As su
car s</w>
fer mement</w>
polo gie</w>
Ch rom
bou dd
com parti
stre aming</w>
ad hési
Mi eux</w>
juris prudence</w>
Car act
Prom o
or k
per mé
jou ait</w>
S OU
développ ements</w>
SA IN
UTI LIS
g g
vaiss eaux</w>
p és</w>
longu ement</w>
V é
Vati can</w>
Amster dam</w>
impres sions</w>
pr ai
sé jours</w>
N é</w>
multi média</w>
son t-ils</w>
imag iné</w>
R w
icô ne</w>
D RO
ve illes</w>
fum er</w>
w are</w>
Indon ésie</w>
int érieures</w>
Inter ro
missi les</w>
recycl age</w>
ag enda</w>
végét ation</w>
ouv er</w>
sur prendre</w>
onni ers</w>
v et
ob tenues</w>
stu dios</w>
gar anti</w>
F aci
ma x</w>
hor s-
comp tabil
H un
sembl erait</w>
choc s</w>
évi dente</w>
bas k
t asse</w>
effondr ement</w>
élec tr
re port</w>
Ap pu
Flori de</w>
proc ède</w>
Prof essionn
o ter</w>
19 14</w>
B ah
access oire</w>
4 5
sei ze</w>
affron tements</w>
ra k
élector ales</w>
ob a</w>
esti mant</w>
sé du
bu ff
éloign er</w>
en levé</w>
Objecti f</w>
cli n</w>
séré nité</w>
photo graphi
O m
group ement</w>
S lo
comp tables</w>
vi ti
répu té</w>
ven geance</w>
17 0</w>
as k
pens ant</w>
Idé al</w>
gh ts</w>
dég age</w>
doc torat</w>
préco ce</w>
pi ég
con vic
fri go</w>
pertin ent</w>
immi grés</w>
tat ou
ingéni erie</w>
em mener</w>
ar ou
cri te</w>
tar de</w>
se a</w>
ap or
con cession</w>
î mes</w>
spl endi
méthod ologie</w>
chu tes</w>
L en
fê ter</w>
dev riez</w>
co ts</w>
ais -je</w>
vol ée</w>
L une</w>
Bulgar ie</w>
ren tes</w>
ment aire</w>
AB C</w>
ell y</w>
évi té</w>
charg ées</w>
mélan co
bi ologie</w>
es tes</w>
in nombr
ign orer</w>
B AN
sépa rément</w>
abond ance</w>
amen des</w>
Doc teur</w>
cotis ation</w>
engag ent</w>
Mon te
d ad</w>
musi cales</w>
Thaï lande</w>
réus sie</w>
re proch
son ores</w>
flexi bilité</w>
am ies</w>
dépend ent</w>
in filtr
éti ez</w>
n ue</w>
dép ann
répli que</w>
ang lo-
ag e.
monas tère</w>
ach ar
renvoy er</w>
194 8</w>
Mati n</w>
éclai rer</w>
multipli er</w>
Chy pre</w>
cré ées</w>
Y o
h il
soci o
h all</w>
audi tion</w>
céré br
bal ay
d ense</w>
per dent</w>
X VI</w>
CH A
ver ses</w>
pe indre</w>
P ari
terr oir</w>
Peu geot</w>
i Pad</w>
Pres s</w>
menti onne</w>
vi gour
pare ille</w>
EL LES</w>
O K</w>
Ap partement</w>
démo graphique</w>
OI RE</w>
détaill ées</w>
pen ses</w>
Cam ille</w>
all és</w>
OI S</w>
achev er</w>
demand eur</w>
in er
manifes tement</w>
chau des</w>
in sule</w>
f res
éc arts</w>
envoy ée</w>
Bro wn</w>
coutu me</w>
témoign er</w>
Li bre</w>
IS O</w>
rév eil</w>
acou stique</w>
con tes</w>
vo û
s- là</w>
Mo di
pi an
cab ine</w>
se aux</w>
repos ant</w>
B la
couver cle</w>
mé chant</w>
esti v
com ble</w>
ét h
confir mée</w>
coul oir</w>
Mad agas
télév is
p air</w>
M ali
allu sion</w>
H ors</w>
jus tes</w>
m il
Puis que</w>
ord onne</w>
propor tions</w>
re donner</w>
par viennent</w>
EC TI
XVI IIe</w>
précau tion</w>
trom pe</w>
ré it
toi les</w>
si ég
itali ens</w>
ard o</w>
chev el
quator ze</w>
embau che</w>
a f</w>
offer tes</w>
w ards</w>
oeu f</w>
enregistr ements</w>
hi m</w>
Observ atoire</w>
compét ent</w>
John ny</w>
no bles</w>
n -
instaur er</w>
T EM
A gn
lati tude</w>
si di
Mar guer
É ric</w>
citoy enneté</w>
génér osité</w>
lumin osité</w>
V os
sal ons</w>
g era</w>
CI A</w>
arbi trage</w>
Victori a</w>
Toul on</w>
préfér ences</w>
remarqu ables</w>
Cro atie</w>
tox iques</w>
emprun ter</w>
ess er</w>
B lue</w>
ann ing</w>
M id
interro gation</w>
n ôtre</w>
Koso vo</w>
prolong ez</w>
G ES
ver t
V anc
cu e</w>
prob abilité</w>
color is</w>
expéri mentation</w>
ex pulsion</w>
souhai tait</w>
évalu é</w>
tac tique</w>
tro tt
cer titudes</w>
3 2
ag euse</w>
ENTRE PR
cr aintes</w>
pu ce</w>
flo re</w>
rez- de-
co di
accumul ation</w>
Fem me</w>
favoris ant</w>
c aca
r eu
médi tation</w>
J an</w>
é lue</w>
eur s.
M oo
b ord
af f</w>
emb rass
év ang
Ser bie</w>
z en</w>
ori al</w>
super -
ju re</w>
bri col
k h</w>
contradi ction</w>
alis ent</w>
vers ements</w>
inter ruption</w>
ch ettes</w>
bar be</w>
ap titude</w>
ac t</w>
M axi
ru is
L É
Sam uel</w>
TÉ S</w>
mo indres</w>
ul er</w>
c ine</w>
bat tent</w>
2- 1</w>
D R</w>
pri oritaire</w>
S pr
br uits</w>
M gr</w>
mariti mes</w>
fréqu ente</w>
tu m</w>
s cor
Er n
Q atar</w>
bris er</w>
p h</w>
tis tes</w>
maj oritaire</w>
qu ais</w>
souhai tant</w>
En seign
demi- finale</w>
bag ages</w>
A O
développ ent</w>
in ette</w>
P É
viv ait</w>
C enter</w>
Ré public
bou les</w>
lâ che</w>
Po ki</w>
consul tant</w>
et ait</w>
can ons</w>
onn ette</w>
baign oire</w>
ou sie</w>
confi ée</w>
F F</w>
vic tori
fon dées</w>
L ind
cap teurs</w>
activ ation</w>
dépl oyer</w>
pri er</w>
ar es</w>
ab is</w>
com portent</w>
Al fre
Madagas car</w>
k ur
John son</w>
isi t</w>
jou ir</w>
P P</w>
restaur er</w>
réguli ères</w>
allo cations</w>
auton omes</w>
dis su
veu ve</w>
tax i</w>
aperç oit</w>
jus que-là</w>
pai rs</w>
Sto ck
Char lotte</w>
Jon athan</w>
ais é</w>
do -
fi ère</w>
pari s</w>
inf érieurs</w>
vainc re</w>
Gil bert</w>
Rom ain</w>
at oirement</w>
em pi
z ac</w>
b s
AR D</w>
5 000</w>
sexu alité</w>
Archi ves</w>
flam mes</w>
s h</w>
ç onn
qu ins</w>
Somm aire</w>
divi den
re tenus</w>
délivr er</w>
pres criptions</w>
éman ci
Coll ecti
contribu ables</w>
g ent
lo ger</w>
cal c
accompagn ent</w>
hy per</w>
pi g
J ardin</w>
h r
con e</w>
crimin elle</w>
ré bel
christi anisme</w>
no is
ar isation</w>
génér é</w>
ou bli</w>
abs ent</w>
15 00</w>
ouver tement</w>
S TI
prolong ation</w>
gé ants</w>
c tique</w>
main -d'</w>
met tons</w>
S us
th y
recru ter</w>
to t</w>
dispos és</w>
do ses</w>
intend o</w>
sé cher
formul er</w>
pré té</w>
Mu sique</w>
diab ète</w>
smart phones</w>
AI N</w>
Po k
convic tions</w>
rend ra</w>
co tte</w>
cou ture</w>
spa cieux</w>
excu ses</w>
sén ateurs</w>
in hibi
em oiselle</w>
ai t-on</w>
nu llement</w>
quin qu
tré sors</w>
domin ant</w>
lo se</w>
Agri culture</w>
expli quant</w>
AI L</w>
ak h
loisi r</w>
cal yp
F is
tex tu
Chois issez</w>
exploi tations</w>
ren ou
p ez</w>
bap t
ci ers</w>
er i</w>
trajec toire</w>
I ll
caoutchou c</w>
camp us</w>
en ca
Mit terran
di esel</w>
gi r
politi quement</w>
é lu
Holl ywood</w>
20 ,
R oc
Pâ ques</w>
T it
ro bes</w>
H ong</w>
approfon die</w>
ren for
sou tiens</w>
G rég
magaz ines</w>
LE D</w>
librai rie</w>
couv rant</w>
entou rée</w>
on ym
modes tes</w>
we ek</w>
appuy é</w>
ressembl ent</w>
portug ais</w>
nu ances</w>
ann y</w>
centi mètres</w>
souv en
asi atique</w>
N ap
eu m</w>
privilè ge</w>
décisi f</w>
UR SS</w>
or gie</w>
po ol</w>
6 9
entend ent</w>
R est
dou ane</w>
ép aisse</w>
éc or
s -</w>
cap ture</w>
PO LI
T hér
di al
St atis
minér aux</w>
Madel eine</w>
g ar</w>
FRAN CE</w>
sculp ture</w>
refroi dir</w>
entr em
Ju illet</w>
qua tre-
gar de-
t t</w>
hon orable</w>
résol u</w>
le d</w>
u ela</w>
fusi l</w>
ex clu</w>
par a
Fo ot
O MS</w>
distribu teurs</w>
locat aire</w>
T V
am as</w>
transi t</w>
impér atif</w>
re traités</w>
factu res</w>
bor ne</w>
fonctionn alité</w>
bu lle</w>
décor é</w>
S en
L oin</w>
Be y
inoubli able</w>
ress enti
sué dois</w>
rais onnement</w>
sent ait</w>
pourr ons</w>
étrang es</w>
lis er</w>
gu éri
excep tions</w>
Jac ob</w>
délivr é</w>
fix ant</w>
formul ation</w>
Gran ds</w>
aper cevoir</w>
w in
pér ennité</w>
nav al</w>
aud aci
aff ran
a pa
laiss ait</w>
ar chevê
Lou is-
B -
M oul
e- t-elle</w>
dou ces</w>
descen d</w>
mom ent-
vi agra</w>
correc te</w>
ci euses</w>
alis es</w>
vi eil</w>
département ale</w>
lev ant</w>
entr ant</w>
fais ceau</w>
signi fi
coll ines</w>
sy l
ass ises</w>
signific atif</w>
x it</w>
emb ou
S ection</w>
hab iller</w>
concur rent</w>
pl ay
pass ez</w>
poursui vent</w>
vi ons</w>
empl ac
en chan
distribu é</w>
végét aux</w>
par asi
pu ni
L M</w>
r in
J im
abou ti</w>
reconnaiss ant</w>
Mitterran d</w>
ai re.
dés espé
af gh
ép il
min uti
soi f</w>
lâ cher</w>
in ets</w>
laiss ée</w>
gou tte</w>
7 50</w>
lieu es</w>
échou é</w>
chass er</w>
K al
dé rive</w>
contr act
fem elle</w>
195 9</w>
Har per</w>
attend ais</w>
Trans ports</w>
W el
K or
G all
néglige able</w>
mos quée</w>
y a
Cou n
aw a</w>
Dam as</w>
mo ines</w>
présent ait</w>
terres tres</w>
regroup ement</w>
en des</w>
philosophi que</w>
an -
ssi n</w>
géno cide</w>
thérapeu te</w>
collo que</w>
N ATION
2. 1</w>
Envir on</w>
ex press
bâ ton</w>
ver tes</w>
lis ant</w>
Di pl
g ente</w>
appropri és</w>
dis per
agu en
m èn
Jour née</w>
ff es</w>
T err
S M</w>
én avant</w>
eth niques</w>
ent .
dé faites</w>
n is
mê le</w>
conf ère</w>
T ari
plon ge</w>
em porté</w>
demand ez</w>
bar res</w>
Di jon</w>
MM E</w>
f el
acu te</w>
accomp lis</w>
V ou
cli que</w>
Ger main</w>
og o</w>
gouvernement aux</w>
g ants</w>
19 39</w>
compa tibilité</w>
ascen sion</w>
val ence</w>
nour rit</w>
g alement</w>
Mar y</w>
aménag ements</w>
muni tions</w>
confidenti alité</w>
VO TRE</w>
mi en</w>
syndi cale</w>
er ra</w>
A sh
ai ent-ils</w>
né o
bat tus</w>
ch allenge</w>
no w
intégr ale</w>
pén u
ress ent</w>
dévoi ler</w>
dis till
Vanc ouver</w>
horiz on
m ations</w>
Lin ux</w>
m œurs</w>
Muni ch</w>
s hor
f lot</w>
H z</w>
dispos ez</w>
É tant</w>
w ho</w>
bomb es</w>
dispar aît</w>
tri cité</w>
T on</w>
él éph
l la</w>
ui n</w>
eu f</w>
vitam ine</w>
l as</w>
et on</w>
aca démie</w>
appl au
dimen sionn
pri ères</w>
N intendo</w>
B ad
câ bles</w>
sû rs</w>
Tro p</w>
inter prété</w>
ouv rit</w>
J i
Parisi en</w>
an y</w>
souff rant</w>
tr action</w>
Ex per
195 6</w>
réuni es</w>
sain ts</w>
14 -
trib u</w>
pharmaceu tiques</w>
d a
fusi ll
sol enn
LI RE</w>
par ation</w>
F L
en comb
V il
reg istres</w>
bat tue</w>
dé penser</w>
H ay
ignor ance</w>
dix- huit</w>
sécuri taire</w>
calcul é</w>
at ed</w>
Cl ément</w>
moy enn
al th</w>
ES CO</w>
br ise</w>
AS SU
U D</w>
g age</w>
vi ces</w>
sh opp
ex piration</w>
révél ations</w>
Grec s</w>
ko v</w>
4, 5</w>
cri er</w>
at omique</w>
che f
el li
C aire</w>
sign ale</w>
fl at
déb or
P le
bulle tins</w>
absur de</w>
théâ tr
whi ch</w>
tu me</w>
conn exes</w>
so cle</w>
us é</w>
dis pari
consci ents</w>
chaleur euse</w>
pe -
prot agonistes</w>
barri ères</w>
dis soci
chi t</w>
inti mi
-F i</w>
aband onne</w>
fi lets</w>
ti ses</w>
licenci ement</w>
co s</w>
procu re</w>
cigar ette</w>
Rom ains</w>
éloign é</w>
W W
ai -je</w>
n euve</w>
mat ernité</w>
1. 2</w>
ir ont</w>
panor amique</w>
O M
gar diens</w>
dép ist
ev er</w>
gâ teaux</w>
ann exes</w>
habit ations</w>
régl é</w>
par rain
restre int</w>
ag en</w>
dipl ômes</w>
ré cession</w>
op er</w>
re gret</w>
Maxi me</w>
im pul
personn alisé</w>
envis agé</w>
dem ie</w>
ex hor
op té</w>
w ski</w>
tex tile</w>
en aire</w>
n aît</w>
p ines</w>
gri ppe</w>
r ain</w>
ch ets</w>
E P
promo tions</w>
ater nité</w>
chang e
oph ones</w>
Le on
no tice</w>
Li onel</w>
innombr ables</w>
g li
cel ui
festi vals</w>
Syn di
y é</w>
bou quet</w>
ann uelles</w>
car ro
et a</w>
trans met</w>
sur ement</w>
Pai ement</w>
empris onnement</w>
Com pl
palestini ens</w>
G alli
sac rée</w>
jo b</w>
livr et</w>
AS S
sui ci
bienfai ts</w>
pu e</w>
osci ll
t ch
entam é</w>
N .</w>
moment- là</w>
f ailli</w>
récipi ent</w>
az i
car am
Au tom
re grou
che té</w>
passi onnant</w>
mun i</w>
radi cale</w>
G îtes</w>
tis h</w>
lign ée</w>
pay ant</w>
Mo ins</w>
appréh ender</w>
J E
éli tes</w>
è reté</w>
ter i
transfér é</w>
I '</w>
pr ag
agres sions</w>
DI RE
bot tes</w>
menti onnée</w>
Av ez-vous</w>
académi que</w>
cré ature</w>
tourn ent</w>
o dor
G h
Por te</w>
mar ès</w>
ac com
cu ré</w>
flexi ble</w>
atten tif</w>
échapp é</w>
lav age</w>
explos er</w>
I er</w>
X -
fili ères</w>
sorti ra</w>
indi quée</w>
tur que</w>
intégr alement</w>
fin ement</w>
cass ation</w>
clu sion</w>
di xième</w>
s ali
voy ance</w>
Châ te
te z-vous</w>
Whi te</w>
O .</w>
Rap porteur</w>
com porter</w>
Alex is</w>
ta ches</w>
è ves</w>
Nouv eau-
mal aise</w>
oc y
fil tres</w>
mar ie</w>
ouver tures</w>
gal eries</w>
silhou ette</w>
accor dés</w>
9 0
d resse</w>
man gé</w>
Cuis ine</w>
co co</w>
b ai
C af
l r</w>
e acute</w>
rou le</w>
. A</w>
Cho isir</w>
É tienne</w>
Dr oits</w>
XI V</w>
cir que</w>
coû té</w>
sor erie</w>
économ istes</w>
il de</w>
préci euse</w>
exam ine</w>
ant érieure</w>
Cl oud</w>
dyn as
vali de</w>
vesti ges</w>
Vietn am</w>
h r</w>
authenti cité</w>
in ité</w>
croy ance</w>
pro stitu
di vin</w>
manifes té</w>
chau di
P av
indi qués</w>
194 2</w>
pel ouse</w>
AU SSI</w>
concr ète</w>
You Tube</w>
g ymn
aî tr
Publi é</w>
embl ématique</w>
soi rs</w>
longi tu
Y u
RE R</w>
tin a</w>
c és</w>
méd ailles</w>
expl oit</w>
bor nes</w>
s ay</w>
é curi
gar dant</w>
ari a</w>
al s
R h
mascul ine</w>
passe port</w>
refl et</w>
su cr
Ren aissance</w>
contrô leur</w>
instaur ation</w>
remp lit</w>
prati cien</w>
diver tissement</w>
bou scul
inf anterie</w>
gu éris
Ange la</w>
ét at-
Alber ta</w>
contr er</w>
attr action</w>
gos lav
assembl ées</w>
présid entiel</w>
requ ise</w>
institu tionnel</w>
spa cieuse</w>
an s
flu or
éli que</w>
défav oris
is- je</w>
in ez</w>
cou le</w>
transpar ente</w>
politi ciens</w>
Austr ali
h en</w>
A quit
y ers</w>
Cél ine</w>
im possibilité</w>
chron i
Fau t-il</w>
In v
trans mises</w>
pi liers</w>
Ê tre</w>
visi teur</w>
pru dent</w>
quotidi ennes</w>
S ont</w>
S anta</w>
A j
rez-de- chaussée</w>
évol uti
M ode</w>
exi gent</w>
Cl ar
es su
laï cité</w>
D éb
cré anciers</w>
précau tions</w>
el ec
héri tier</w>
pâ le</w>
de venues</w>
c œurs</w>
su isses</w>
Qu in
é pouv
gol ais</w>
céléb ration</w>
prononc ée</w>
soci ologie</w>
vari ent</w>
Re ims</w>
fonc er</w>
3 4
dis sou
partici pa
F O</w>
inf ections</w>
oign ons</w>
joy eux</w>
bl onde</w>
privilégi er</w>
inform és</w>
1, 3</w>
profi tent</w>
9, 00</w>
u les</w>
criti qué</w>
pré lèvements</w>
H av
écri s</w>
impres si
man œuvre</w>
van ille</w>
or t</w>
ill égale</w>
aigu ille</w>
Pa trice</w>
R OU
adep tes</w>
for ter
mou lin</w>
ser ait-ce</w>
Ar mé
candid atures</w>
w all
pédago gie</w>
ru gu
ac quitter</w>
parall èlement</w>
immobi lière</w>
M ar</w>
cu b
recommand ons</w>
inond ations</w>
m ez</w>
impré gn
as pi
indirec tement</w>
adéqu ate</w>
appr ête</w>
ari enne</w>
prépa rés</w>
G O</w>
consécu tive</w>
re d</w>
assu me</w>
stabil iser</w>
indé ni
suspec ts</w>
J im</w>
G A</w>
M P</w>
arri vera</w>
redou table</w>
cér amique</w>
onn a</w>
immen ses</w>
clé si
enn al</w>
194 6</w>
é tri
l eur
Nob el</w>
tradi tionnellement</w>
exploi tant</w>
rébel lion</w>
D P</w>
op ter</w>
absor ption</w>
compar ateur</w>
brill ante</w>
gigantes que</w>
abat tu</w>
ann é
de d</w>
et y</w>
Anth ony</w>
déci deurs</w>
comm ettre</w>
connaiss ons</w>
Indus trie</w>
in justice</w>
pl u</w>
rep ères</w>
Bu ff
l ations</w>
la h</w>
périph érique</w>
Au teur</w>
gl as</w>
au rions</w>
T ak
produ isant</w>
adoles cence</w>
psy chan
cin es</w>
lar isation</w>
attr actions</w>
H éb
ver bal</w>
e ils</w>
24 h</w>
bru te</w>
Ch ron
éch elon</w>
S MS</w>
exer cé</w>
part age
er s-
entraîn ant</w>
rem ises</w>
en lèvement</w>
k ina</w>
iné dit</w>
débu ter</w>
tou chées</w>
employ ée</w>
cinémato graphique</w>
méri tent</w>
al erie</w>
UN ESCO</w>
ém ettre</w>
châ ssis</w>
er es</w>
R -
fréqu entation</w>
m as</w>
ani er</w>
conjo inte</w>
troph ée</w>
amo vi
rappel lent</w>
ren voi</w>
ins érer</w>
A o
aménag é</w>
Air bus</w>
exi geant</w>
Ter rit
S É
mél odi
ré gie</w>
cann abis</w>
D av
Stand ard</w>
Acti vités</w>
ex tin
comp teur</w>
n œu
étern elle</w>
exprim és</w>
c aill
bri èvement</w>
extr aire</w>
fre inage</w>
coéqui piers</w>
CE F</w>
Hit ler</w>
L ettre</w>
we re</w>
syn drome</w>
Ré s
honn ê
déli ts</w>
nécessi tent</w>
semb le-t-il</w>
Pa trim
révoluti onnaires</w>
arrê tée</w>
me dic
te inte</w>
M embre</w>
prê té</w>
sup poser</w>
indépend antes</w>
limi tés</w>
N ou
augment ent</w>
effac er</w>
deman dée</w>
représent ait</w>
climati sation</w>
vir age</w>
aéri ens</w>
établis sant</w>
cer ner</w>
p ent
es qu
Musi c</w>
m étab
aqu ie</w>
ra patri
194 7</w>
préc ède</w>
doulour eux</w>
simul ation</w>
viv ons</w>
conver gence</w>
Ven ez
AC TI
ac cru</w>
recouv rement</w>
coû teux</w>
15 -
cr oi
t ag
entam er</w>
ni ères</w>
franch i</w>
S lov
tradu c
excessi ve</w>
mar échal</w>
dev ise</w>
li p</w>
coupa bles</w>
p ant</w>
Gol fe</w>
T ol
in sécurité</w>
J OU
chal et</w>
p aill
rend ait</w>
pharmaceu tique</w>
singu lier</w>
magistr at</w>
atta chés</w>
aut eure</w>
Gran d-
uti li
tu eur</w>
cong él
ch ou</w>
cat al
chat te</w>
è ques</w>
empo is
tern el</w>
fon du</w>
aéro ports</w>
exist ante</w>
b ec</w>
crédi ble</w>
pres cription</w>
19 18</w>
élég ante</w>
G our
rédu isant</w>
déb rou
ambi gu
ss ais</w>
achev ée</w>
V el
can e</w>
brè ve</w>
Dé sol
Personn ellement</w>
v aches</w>
Con fédération</w>
Lo ve</w>
lav e-
cro ise</w>
perman ents</w>
économ iste</w>
Ham as</w>
travaill ait</w>
intégr ant</w>
sépa rée</w>
D ER
inédi te</w>
diffu se</w>
ess é</w>
Ann e-
t ois</w>
abat tre</w>
républic aine</w>
n uire</w>
cons ist
por c</w>
cinqu ante-
W est
utilis ations</w>
détr esse</w>
quar ante-
el ine</w>
Colombi e-
excep tionnelles</w>
consul tez</w>
194 3</w>
vi erge</w>
ot ages</w>
justi fié</w>
H abi
1, 6</w>
ru de</w>
provinci al</w>
pir at
I le-de-France</w>
horiz ont
bo ok
dom ini
œu x</w>
hospitali er</w>
vend ue</w>
sin istre</w>
sti g
re e</w>
ge ons</w>
pers ist
ho re</w>
bo x
Res sources</w>
éch au
contam ination</w>
syn onyme</w>
CO L
hét éro
Marguer ite</w>
ENT ATION</w>
montag n
e es</w>
i v
ar ômes</w>
Li ve</w>
long -
lib re-
orch estr
robo ts</w>
pir ates</w>
Ar ch
M an</w>
ur gent</w>
I X</w>
châ teaux</w>
ré gation</w>
P eut</w>
LO I</w>
bor dure</w>
con voi
ri gol
man uelle</w>
Temp le</w>
préfé rée</w>
correspond ants</w>
in connus</w>
b agu
COU RS</w>
noctur ne</w>
P EN
hydro carbu
3 6
Re présentant</w>
trouv és</w>
locat aires</w>
fédér aux</w>
dépl ore</w>
stock er</w>
intéress ées</w>
sous- sol</w>
or n
architec tes</w>
d ain</w>
se ts</w>
Al ban
s ages</w>
Direc tive</w>
affec ter</w>
gê ne</w>
Inst agram</w>
indi ens</w>
d al
Augus te</w>
escal ade</w>
pecti ve</w>
W it
Des ign</w>
lo ca
b aise</w>
inévi table</w>
détermin és</w>
émer gents</w>
équilib rée</w>
intégr ante</w>
2 20</w>
Sep t</w>
r era</w>
ex press</w>
discr ète</w>
L as</w>
éph ém
arran gements</w>
fou et</w>
présid é</w>
H ass
re quiert</w>
gn ac</w>
D eu
lac unes</w>
195 7</w>
onni ère</w>
Exemp le</w>
archi pel</w>
S ON</w>
R is
contes ter</w>
dé nu
sho p</w>
Cor ps</w>
u che</w>
ré veiller</w>
B OUR
e le</w>
Ro bin</w>
vac cin</w>
4 8
ti fi
Prof esseur</w>
recommand er</w>
chi enne</w>
compa re</w>
muni s</w>
év asion</w>
aver tissement</w>
recomman dée</w>
combin aisons</w>
ath on</w>
Possi bilité</w>
ar isto
N oire</w>
réd acteur</w>
développ ées</w>
cour ent</w>
terrass es</w>
sén égal
Pi c
aver ti</w>
illustr er</w>
dé man
un i</w>
commun ale</w>
A LES</w>
D UI
mari ages</w>
In g
s ables</w>
D N
ot y
dép ens</w>
génér ateur</w>
exécu té</w>
av er</w>
adi er</w>
mag n
sal uer</w>
P el
ck y</w>
nat ale</w>
disci ples</w>
chê ne</w>
pos té</w>
rés is
G T
Rw anda</w>
B ot
k en</w>
p ôt</w>
cr âne</w>
Bien venue</w>
Wi -Fi</w>
Ni ger
hybri de</w>
Pro position</w>
individu ellement</w>
ser ment</w>
w at
Colombie- Britannique</w>
pos ture</w>
défin itions</w>
B BC</w>
parall èles</w>
ré solument</w>
X box</w>
nu age</w>
and o</w>
D ommage</w>
en ce-
é o
mar ée</w>
croy ez</w>
saou dite</w>
rem u
prom p
ment i</w>
athl ète</w>
GEN ER
Hom e
rap porter</w>
certifi cats</w>
chant eurs</w>
do tés</w>
Pap e</w>
dis solution</w>
bi ts</w>
ch œur</w>
K a
ég oï
intéri m</w>
synthé tique</w>
étan ché
car tons</w>
accal au
Sh ang
perform ant</w>
o tique</w>
étern el</w>
collectionn ent</w>
verti cale</w>
neu fs</w>
t ech</w>
Ry an</w>
ant .
trans formations</w>
ez- le</w>
Sher bro
législ ative</w>
Fr ères</w>
pesti cides</w>
imag erie</w>
J U
di alogues</w>
IS T
BM W</w>
dégu station</w>
un il
st an
ro y</w>
Venez uela</w>
ss ée</w>
Dé mo
awi ki</w>
gouvernement al</w>
s aut
ori enté</w>
Pr in
compl ot</w>
pr or
R av
m ais
décri te</w>
Jé sus-
Gol d
projec tions</w>
son de</w>
fl èche</w>
Vill e
entend us</w>
os é</w>
v œux</w>
An née</w>
rigi de</w>
cour bes</w>
ri ver
tor tu
min us
rédi ger</w>
re pli</w>
Ch e
di enne</w>
li c</w>
dat ée</w>
Stu dio</w>
Bo w
palestini enne</w>
quo t</w>
M '</w>
habitu és</w>
B ois
M ère</w>
Publi c</w>
Par ten
Dak ar</w>
N ES</w>
pén insule</w>
pal marès</w>
Cat awiki</w>
environnement al</w>
comment er</w>
syndi c
w ould</w>
et o
Plu tôt</w>
tionn ées</w>
demeur er</w>
S TR
ap portant</w>
tar te</w>
humi des</w>
promen er</w>
indi enne</w>
désign és</w>
souhai ter</w>
l ass
mar qués</w>
résid ences</w>
par aissait</w>
m ale</w>
fici tés</w>
p ôles</w>
décro cher</w>
men us</w>
interro gations</w>
R A</w>
simpli fier</w>
medic aux</w>
hi ers</w>
quali fie</w>
connaiss ais</w>
Ar m
S H
Gal ax
exag one</w>
P ent
cl efs</w>
EL S</w>
pris ons</w>
Bar bar
fai bl
ryth mes</w>
réclam ent</w>
re lier</w>
pl aindre</w>
convers ations</w>
parisi ens</w>
g as</w>
coor donner</w>
ministéri el</w>
plat eaux</w>
contrô lé</w>
3 00
conju g
commen çait</w>
con tenues</w>
détec teur</w>
cruci al</w>
sh eim</w>
É RA
gl et</w>
CU L
par- dessus</w>
am bul
désor dre</w>
F ant
supprim é</w>
Man che</w>
entre tient</w>
tri ction</w>
re cords</w>
hon gr
Ang ers</w>
V ing
champi onne</w>
Mul ti
visi onn
oign on</w>
Nap les</w>
agi ra</w>
conc rets</w>
AN TS</w>
mono pole</w>
cher ie</w>
Répon dre
L ati
Cré er</w>
tend ent</w>
mu tations</w>
Con s
collabor er</w>
serv ait</w>
per cevoir</w>
ér adi
c isme</w>
Lu cas</w>
Pér ou</w>
Aquit aine</w>
ne ws</w>
Ham on</w>
den rées</w>
S ti
ec clési
our t</w>
id a</w>
in sup
recueill i</w>
A A</w>
195 4</w>
just esse</w>
alco ol
fav ori
expos ée</w>
Rend ez-vous</w>
RDV medicaux</w>
th on</w>
pré jugés</w>
ent ame</w>
Ju ppé</w>
pu res</w>
mar ais</w>
align ement</w>
tis ation</w>
Indi ens</w>
enc y</w>
logi ques</w>
ex cen
R éc
Opér a</w>
g ad
cohér ent</w>
cuis iner</w>
demeur ant</w>
patrim oni
enti ne</w>
W .</w>
Re d
pê ches</w>
You goslav
ta ï
li tige</w>
y ens</w>
en h
A ge</w>
con gés</w>
Utilis ez</w>
soci ét
sinc ère</w>
Em pereur</w>
sil encieux</w>
prot ecteur</w>
Avi gnon</w>
Tay lor</w>
t atifs</w>
gr ise</w>
exclu re</w>
im mu
tal en
P G</w>
discu té</w>
fant aisie</w>
prédéc esseur</w>
hy p
g ang
Cé cile</w>
caf és</w>
tré sorerie</w>
progr esse</w>
s per
abor ds</w>
re connaissent</w>
féli cité</w>
di tés</w>
impressionn ante</w>
bi bli
Syl vie</w>
p ois</w>
publi cités</w>
all ai
fragi les</w>
fi quement</w>
musi caux</w>
oppos ée</w>
ment er</w>
demand ons</w>
li ce</w>
ser rer</w>
trans mise</w>
V allée</w>
Gé orgie</w>
A ide</w>
tri bus</w>
comb iné</w>
R as
ac on</w>
Cel les-ci</w>
fl éch
Mat thi
navi guer</w>
diplom atiques</w>
è gr
oblig atoirement</w>
fér ences</w>
T TE</w>
po ètes</w>
è ce</w>
194 9</w>
qu o</w>
trimes tri
syn er
ex cur
cor t
dépu tée</w>
écar ter</w>
Le w
financi èrement</w>
caractér isé</w>
sur croît</w>
menti onner</w>
él astique</w>
Sci ence</w>
A x
CN RS</w>
croy ais</w>
dispu té</w>
voyag eur</w>
horri ble</w>
onn aise</w>
hélicop tère</w>
bal ades</w>
fl ash</w>
dépist age</w>
O F
évi tant</w>
sau mon</w>
prolong ée</w>
marqu is</w>
P ét
ach ève</w>
fer ons</w>
pren aient</w>
Gar de</w>
V illa</w>
ém ouv
des quelles</w>
Av ril</w>
Jap onais</w>
3 7
B oy
in cur
rempla çant</w>
reli e</w>
ge on</w>
pen cher</w>
M ori
délicat ement</w>
C LI
annul é</w>
J en
s lov
loca lités</w>
ad met</w>
ci ls</w>
le x</w>
Chrom e</w>
rati o</w>
culpa bilité</w>
Cham pagne</w>
lucr atif</w>
multipli ent</w>
cou ler</w>
chaus sure</w>
cop ine</w>
intéress ée</w>
ali én
TOU T</w>
jo lis</w>
émet teur</w>
suiv ez</w>
ajust er</w>
bénéfici ant</w>
estom ac</w>
laiss és</w>
op tiques</w>
o que</w>
Cham bres</w>
respecti ves</w>
al er</w>
al .</w>
z y
reç ut</w>
Sal v
cas ting</w>
ENT RE</w>
inqui éter</w>
4 ème</w>
ém on</w>
exer cent</w>
compréh ensible</w>
T au
bou cl
sy mé
islam iste</w>
bas és</w>
I QUE</w>
cor rom
vi gne</w>
Y a
maxim al</w>
Di x</w>
comm u
Stratég ie</w>
Mor gan</w>
str at
F ed</w>
Nouv elles</w>
appéti t</w>
pe ople</w>
Ch in
arri va</w>
Su b
É conom
sympath ie</w>
isol és</w>
Gre en</w>
sal ope</w>
sur vivants</w>
mon ie</w>
B lanc
195 5</w>
conqu is</w>
épi démi
sur sis</w>
10 5</w>
ai dant</w>
Os car</w>
s ob
prin ces</w>
d ais</w>
int emp
Mer ce
hé sité</w>
er y</w>
ak s</w>
dg et</w>
B ac</w>
concentr ations</w>
S ky
H ui
Ré su
sur plus</w>
matéri elle</w>
er g</w>
respec tueux</w>
Jésus- Christ</w>
Br est</w>
successi ves</w>
remplac ée</w>
com ique</w>
pré cur
Gu st
entr aide</w>
peu t-il</w>
Sing a
posi tionner</w>
Vir gin
as y
fr ui
ei ge</w>
h auteurs</w>
V ES</w>
dé bris</w>
be en</w>
couv ent</w>
cr ues</w>
hydrau lique</w>
ag és</w>
sub issent</w>
ant érieures</w>
ma d</w>
ci t</w>
ca pri
dérou lée</w>
Inst all
194 1</w>
we en</w>
document aires</w>
nég atives</w>
Yougoslav ie</w>
3 8
suppl é
épicer ie</w>
reli és</w>
mi enne</w>
intég rées</w>
anti sme</w>
Régi me</w>
Su péri
s ér
Tour isme</w>
S ant
condui tes</w>
antici per</w>
I LL
dérou lent</w>
Sup prim
cu tan
O MI
E TA
prati qué</w>
mol é
cl airs</w>
exprim ent</w>
M eu
int es
comédi ens</w>
O ise</w>
afric aines</w>
cycl iste</w>
descend ants</w>
li tre</w>
gn e-
en euve</w>
référ encement</w>
sculp tures</w>
é si
interdi ts</w>
accalau réat</w>
ist a</w>
Ca en</w>
em mène</w>
Patrim oine</w>
né fas
ascens eur</w>
ci ca
bou e</w>
pli er</w>
th an</w>
eu l</w>
fourn issant</w>
C arr
ch aient</w>
con cessions</w>
G RAN
pi les</w>
interlocu teur</w>
Is lande</w>
cal mer</w>
pertin ente</w>
équilib ré</w>
st atique</w>
bou illon</w>
go t</w>
condu isent</w>
ro che</w>
cass é</w>
star t-
a a</w>
ui r</w>
bi a</w>
Te am</w>
not able</w>
. C'</w>
k -
cro ître</w>
plan ter</w>
L ac</w>
parti t</w>
l ines</w>
is h
mo ell
commiss aires</w>
R ad
rent able</w>
lingu istiques</w>
a tro
FIN AN
rum eur</w>
s am
19 36</w>
épou ser</w>
im mobil
chin oises</w>
s ant
Cr oi
t èrent</w>
Com té</w>
DU CTION</w>
S um
ri ques</w>
1- 0</w>
do re</w>
venti lation</w>
dé libér
imprim és</w>
transform ée</w>
guéris on</w>
cohér ente</w>
B P</w>
t elle</w>
p ie</w>
ti rent</w>
Bur kina</w>
gr otte</w>
servi ettes</w>
p ôts</w>
én u
en heim</w>
accor dent</w>
Ni veau</w>
croisi ère</w>
anc ement</w>
s éc
1, 4</w>
abst en
état- major</w>
collè ges</w>
o ce</w>
abor dé</w>
comédi en</w>
demi- heure</w>
cigar ettes</w>
théori ques</w>
revi endra</w>
di rai</w>
ex il
bapt ême</w>
y ne</w>
Brun s
c u</w>
dé lib
habit ent</w>
ris to
domi ci
accep tent</w>
ma de</w>
in soli
Z e
clô tu
k ers</w>
dou bler</w>
gé rez</w>
Ti m</w>
G MT</w>
e lin</w>
RD C</w>
sou terr
P V
communi c
ez- les</w>
In vesti
rel ay
con citoyens</w>
idé ologique</w>
Bri an</w>
N am
re pousser</w>
em por
jou era</w>
mor tes</w>
chau ds</w>
fili ales</w>
ess ant</w>
désol é</w>
mâ les</w>
f act
attend aient</w>
h ai</w>
sub ven
démar re</w>
A ï
pré car
observ ée</w>
affron tement</w>
Britanni ques</w>
rac es</w>
im min
par d</w>
siro p</w>
oni c</w>
N az
Ira q</w>
mi grat
P har
Sherbro oke</w>
sécher esse</w>
pr ô
tou chée</w>
Niger ia</w>
N ation</w>
sug géré</w>
ad jac
électro de</w>
hiér arch
es cor
Ch em
flo tt
nous- mêmes</w>
or gue</w>
an onym
Wal ter</w>
assu rément</w>
re fait</w>
distinc tes</w>
shi p</w>
Gar onne</w>
in hér
Ac cess
dial ec
con cret</w>
profi tez</w>
ind ex
r ine</w>
Tro is-
moyenn ant</w>
é triques</w>
e ch
LI V
re b</w>
inno cence</w>
esti n</w>
in o
cor éen</w>
trans porteur</w>
pro posera</w>
occup ait</w>
vois ines</w>
fer ais</w>
PRO FES
ni ers</w>
prestat aires</w>
vol ution</w>
p illage</w>
bure au
frag ments</w>
M essieurs</w>
ress ent
Por t
at lantique</w>
inscri vant</w>
ritu el</w>
É di
Nouv el</w>
- sur-
oris er</w>
p ons</w>
mer veilles</w>
tuy au</w>
susp endre</w>
P T</w>
endr aient</w>
coloni ale</w>
op port
lég èreté</w>
pa ck</w>
catastr ophi
né sie</w>
di rent</w>
S at
atta cher</w>
am p</w>
quo tas</w>
bass ins</w>
e- et-
mystéri euse</w>
im migrants</w>
fré quent</w>
tourn ois</w>
rattrap er</w>
ac crédi
ni d</w>
mee ting</w>
compar ables</w>
appr ê
s let
ré acteur</w>
M is</w>
cyl indre</w>
Conse ils</w>
dess ine</w>
Rhô ne-
p aille</w>
int age</w>
indésir ables</w>
Ré férence</w>
approfon dir</w>
d auph
cor ro
G NE</w>
Ni cole</w>
CH AN
rembour sements</w>
dé passent</w>
Pho tos</w>
ot on</w>
g n</w>
mon tres</w>
ch ères</w>
in c</w>
2 40</w>
Log ement</w>
déclar ée</w>
am bo
pers o</w>
f osse</w>
eur s
ple ines</w>
réhabili tation</w>
E TE</w>
pré voient</w>
de venait</w>
Rac ing</w>
É douard</w>
IS ON</w>
dispu ter</w>
gar es</w>
Ed ward</w>
B omb
té -
AG ES</w>
Sep tembre</w>
e- là</w>
Ch ant
poi vr
cit ad
pel li
Virgin ie</w>
pi des</w>
four chette</w>
s ales</w>
suc cé
u sure</w>
propa gation</w>
ad i</w>
D EC
arra cher</w>
es cro
tan e</w>
mar quant</w>
gan g</w>
dérou lera</w>
sor ts</w>
organis ent</w>
ill égal</w>
Hu bert</w>
ouv rière</w>
analy ste</w>
fl ou
sépa rées</w>
gr aisse</w>
tr il
s k</w>
ult érieurement</w>
p '</w>
consac rées</w>
Singa pour</w>
tex tiles</w>
I R</w>
logi quement</w>
légend aire</w>
BN P</w>
ori a</w>
initi ation</w>
roul eau</w>
mé tr
encour age
étanché ité</w>
ap ports</w>
iss able</w>
us se</w>
O MC</w>
criti quer</w>
hyp no
excé dent</w>
spati al</w>
bou cles</w>
ro buste</w>
thérapeu tiques</w>
Dom aine</w>
consoli der</w>
Let tres</w>
ver y</w>
LN H</w>
v ait</w>
per mission</w>
loc k</w>
proto coles</w>
déc ouvrent</w>
loc alement</w>
Caract éris
in capables</w>
int o</w>
brû ler</w>
IS SION</w>
pare -
prestat aire</w>
Ch u
st ades</w>
pro stitution</w>
V ert</w>
respec tent</w>
st aff</w>
res ta</w>
ham eau</w>
micro- ondes</w>
habi ts</w>
fond ations</w>
for fai
déci dée</w>
plu mes</w>
hom e</w>
Li fe</w>
am ir
. 1</w>
agran dir</w>
pe pti
lev ure</w>
oc cul
aill ant</w>
cur sus</w>
cer cles</w>
espér é</w>
pro po
M ES
regroup ant</w>
pers év
ab out</w>
prépar ations</w>
dent aires</w>
v ette</w>
restitu tion</w>
ol ène</w>
A way</w>
pro ché</w>
interro g
abst ention</w>
meur tres</w>
chauff e</w>
éni n</w>
Mo t</w>
dé passant</w>
i voi
0, 1</w>
syndi cales</w>
ré f
Ab del
Ken ya</w>
vinai gre</w>
qua re</w>
coopér ative</w>
PAG E
vi andes</w>
inst abilité</w>
dat a</w>
entreten u</w>
ren fer
ég ar
g ins</w>
extra ordinaires</w>
comm ente</w>
parcour u</w>
Az ur</w>
hor loge</w>
convivi alité</w>
Fl am
périph érie</w>
atten tivement</w>
protég ées</w>
allég ations</w>
w ar
ve y</w>
consul té</w>
s quel
Saint- Jean</w>
ch arité</w>
excell entes</w>
n ait</w>
emb ry
rej eter</w>
Si tuée</w>
longu eurs</w>
L oi
Jean- Michel</w>
cro iser</w>
R ai
the ir</w>
en fon
séri euses</w>
gh t
c eur</w>
pléni ère</w>
discoun t</w>
Me illeur</w>
K O
P M</w>
eng ins</w>
impec cable</w>
R oll
ex al
inten ses</w>
orgu eil</w>
van gile</w>
seign eurs</w>
ém as</w>
dé battre</w>
mon tés</w>
ph ine</w>
ge ois</w>
manus crit</w>
S AL
Cor por
col ons</w>
fi ers</w>
T oy
1 e</w>
Méd ec
k u</w>
PER S
h étér
195 3</w>
tourn ées</w>
fond ant</w>
Ver sion</w>
frag il
Mat éri
citoy enne</w>
loy ers</w>
épo ques</w>
rou tine</w>
bar on</w>
li èrement</w>
res triction</w>
aut obus</w>
satis faits</w>
occup ants</w>
Sh ak
at titudes</w>
av érer</w>
di gnes</w>
pres tige</w>
ner v
horiz ons</w>
Neu f</w>
r accor
pré dic
som p
en cad
tal ons</w>
[...]
