{
  "": 50767,
  "!": 55569,
  "!</w>": 82,
  "\"": 56108,
  "\"</w>": 29,
  "#": 51201,
  "#</w>": 1272,
  "$": 56429,
  "$</w>": 882,
  "%": 52702,
  "%</w>": 108,
  "&": 51220,
  "&</w>": 322,
  "'": 16885,
  "'</w>": 68,
  "(": 57821,
  "(</w>": 40,
  ")": 59316,
  ")</w>": 39,
  "*": 51859,
  "*</w>": 641,
  "+</w>": 470,
  ",": 33229,
  ",</w>": 14,
  "-": 168,
  "--": 1996,
  "---</w>": 38131,
  "--</w>": 3062,
  "--C'</w>": 33699,
  "--Et</w>": 36793,
  "--Il</w>": 36455,
  "--Je</w>": 21043,
  "--Le</w>": 33860,
  "--Mais</w>": 39359,
  "--Oui</w>": 42299,
  "--Vous</w>": 35448,
  "-0,": 29624,
  "-10</w>": 33888,
  "-15</w>": 39876,
  "-1</w>": 8466,
  "-20</w>": 40170,
  "-2</w>": 19133,
  "-3</w>": 31689,
  "-4</w>": 34549,
  "-50</w>": 44001,
  "-5</w>": 26028,
  "-6</w>": 30892,
  "-8": 42983,
  "-</w>": 70,
  "-B": 20349,
  "-C</w>": 38586,
  "-D": 31980,
  "-F": 10534,
  "-Fi</w>": 48821,
  "-K": 24487,
  "-L": 10908,
  "-Le</w>": 46478,
  "-M": 8194,
  "-Man</w>": 49155,
  "-N": 44908,
  "-Québec</w>": 49148,
  "-S": 14538,
  "-T": 35608,
  "-ce</w>": 44760,
  "-ci</w>": 17796,
  "-d'</w>": 27012,
  "-de-": 7714,
  "-elle</w>": 32750,
  "-elles</w>": 43239,
  "-en-": 45688,
  "-et-": 32917,
  "-et</w>": 33479,
  "-fi</w>": 40825,
  "-il</w>": 17456,
  "-ils</w>": 31211,
  "-je</w>": 15449,
  "-la</w>": 44793,
  "-le-": 18569,
  "-le</w>": 36944,
  "-là</w>": 6780,
  "-mo": 48481,
  "-moi</w>": 24303,
  "-moon</w>": 51285,
  "-même</w>": 14791,
  "-on</w>": 29855,
  "-sur-": 13548,
  "-t-il</w>": 21444,
  "-tu</w>": 15209,
  "-up</w>": 24602,
  "-vous</w>": 30094,
  "-à-": 34001,
  ".": 324,
  ".-": 6272,
  ".--": 8867,
  ".-</w>": 4358,
  ".-O.</w>": 45409,
  "..": 32339,
  "......</w>": 41220,
  ".....</w>": 8040,
  "....</w>": 1450,
  "...</w>": 75,
  "..</w>": 1322,
  ".000</w>": 5650,
  ".1</w>": 13710,
  ".2</w>": 21938,
  ".3</w>": 29995,
  ".</w>": 16,
  ".A</w>": 12254,
  ".Alors</w>": 43787,
  ".Après</w>": 34999,
  ".Au</w>": 24985,
  ".Avec</w>": 43042,
  ".C'</w>": 13397,
  ".COM</w>": 42643,
  ".Ce</w>": 14667,
  ".Ces</w>": 42958,
  ".Cette</w>": 18393,
  ".D'</w>": 41211,
  ".Dans</w>": 15362,
  ".De</w>": 28674,
  ".Des</w>": 33978,
  ".Elle</w>": 34680,
  ".En</w>": 6224,
  ".Et</w>": 13947,
  ".FR</w>": 45900,
  ".Il</w>": 5726,
  ".J'</w>": 14666,
  ".Je</w>": 6753,
  ".L'</w>": 5517,
  ".La</w>": 3321,
  ".Le</w>": 2260,
  ".Les</w>": 3707,
  ".Mais</w>": 15673,
  ".Merci</w>": 42219,
  ".Nous</w>": 16188,
  ".On</w>": 18952,
  ".Par</w>": 26528,
  ".Pour</w>": 6071,
  ".Si</w>": 17479,
  ".Sur</w>": 41178,
  ".Un</w>": 14620,
  ".Une</w>": 15854,
  ".VOIR</w>": 32884,
  ".Vous</w>": 5616,
  ".ch</w>": 33641,
  ".com": 44777,
  ".com</w>": 3465,
  ".fr</w>": 4653,
  ".net</w>": 46232,
  ".org</w>": 33687,
  "/": 50781,
  "/</w>": 89,
  "0": 1689,
  "0,": 1890,
  "0,0": 31989,
  "0,000</w>": 14905,
  "0,00</w>": 8675,
  "0,01</w>": 45090,
  "0,05</w>": 42134,
  "0,1</w>": 13731,
  "0,25</w>": 39868,
  "0,2</w>": 15058,
  "0,3</w>": 15910,
  "0,4</w>": 18092,
  "0,5</w>": 9890,
  "0,6</w>": 18771,
  "0,7</w>": 19034,
  "0,8</w>": 19603,
  "0,9</w>": 23355,
  "0-": 6548,
  "0-0</w>": 23397,
  "0-1</w>": 26700,
  "0-2</w>": 37628,
  "0.": 4523,
  "0.000</w>": 9940,
  "0.00</w>": 43395,
  "0.1</w>": 45496,
  "0.5</w>": 45317,
  "00": 4597,
  "00-": 21812,
  "00.Pour</w>": 25608,
  "000": 31022,
  "000</w>": 383,
  "001</w>": 20579,
  "002</w>": 45811,
  "007</w>": 43990,
  "00</w>": 1862,
  "00m</w>": 40278,
  "01": 46011,
  "01-": 19862,
  "01.": 17790,
  "01</w>": 2447,
  "02": 29464,
  "02-": 24983,
  "02.": 19815,
  "02</w>": 3232,
  "03": 25799,
  "03-": 24005,
  "03.": 17324,
  "03</w>": 2891,
  "04": 20705,
  "04-": 23686,
  "04.": 17976,
  "04</w>": 2927,
  "05": 27387,
  "05-": 31626,
  "05.": 21895,
  "05</w>": 3293,
  "06": 21352,
  "06-": 30945,
  "06.": 19398,
  "06</w>": 3190,
  "07": 22292,
  "07-": 30360,
  "07.": 20626,
  "07</w>": 3627,
  "08": 17709,
  "08-": 33470,
  "08.": 24048,
  "08</w>": 3803,
  "09": 19976,
  "09-": 34442,
  "09.": 24649,
  "09</w>": 3524,
  "0</w>": 700,
  "1": 1400,
  "1,": 1918,
  "1,00</w>": 37470,
  "1,0</w>": 37863,
  "1,1</w>": 15808,
  "1,25</w>": 41330,
  "1,2</w>": 10542,
  "1,3</w>": 12388,
  "1,4</w>": 13440,
  "1,5": 42974,
  "1,50</w>": 37912,
  "1,5</w>": 5789,
  "1,6</w>": 12670,
  "1,7</w>": 15310,
  "1,8</w>": 13946,
  "1,9</w>": 19366,
  "1-": 3223,
  "1-0</w>": 13417,
  "1-1</w>": 10493,
  "1-2</w>": 18017,
  "1-3</w>": 31508,
  "1-4</w>": 46358,
  "1-</w>": 21463,
  "1.": 1927,
  "1.000</w>": 16476,
  "1.0</w>": 30918,
  "1.1</w>": 7929,
  "1.2.": 19019,
  "1.2</w>": 12113,
  "1.3.": 11166,
  "1.3</w>": 19335,
  "1.4.": 18603,
  "1.4</w>": 22477,
  "1.500</w>": 34053,
  "1.5</w>": 21294,
  "1.6.": 29701,
  "1.6</w>": 33411,
  "1.</w>": 14898,
  "10": 1615,
  "10,": 7269,
  "10,5</w>": 41854,
  "10-": 8812,
  "10.": 6703,
  "10.000</w>": 15793,
  "100": 13341,
  "100.000</w>": 19070,
  "10000</w>": 42458,
  "1000</w>": 4633,
  "100</w>": 661,
  "100g</w>": 44974,
  "100m</w>": 33623,
  "101</w>": 13845,
  "102</w>": 16536,
  "103</w>": 17578,
  "104</w>": 16438,
  "105</w>": 13267,
  "106</w>": 18000,
  "107</w>": 17984,
  "108</w>": 17432,
  "109</w>": 17536,
  "10</w>": 216,
  "10e</w>": 16199,
  "10h": 32442,
  "10h30</w>": 37929,
  "10h</w>": 17715,
  "10ème</w>": 38978,
  "11": 5918,
  "11,": 9106,
  "11,5</w>": 46086,
  "11-": 9430,
  "11.": 8454,
  "1100</w>": 32463,
  "110</w>": 7863,
  "111</w>": 19059,
  "112</w>": 18387,
  "113</w>": 21050,
  "114</w>": 21727,
  "115</w>": 14838,
  "116</w>": 21011,
  "117</w>": 20174,
  "118</w>": 21123,
  "119</w>": 22327,
  "11</w>": 532,
  "11e</w>": 20619,
  "11h": 35584,
  "11h</w>": 28050,
  "12": 2057,
  "12,": 8311,
  "12,5</w>": 30498,
  "12-": 9894,
  "12.": 7766,
  "120": 17265,
  "1200</w>": 16483,
  "120</w>": 4606,
  "121</w>": 23903,
  "122</w>": 20935,
  "123</w>": 20739,
  "124</w>": 22793,
  "125</w>": 9846,
  "126</w>": 22320,
  "127</w>": 22415,
  "128</w>": 16728,
  "129</w>": 23432,
  "12</w>": 445,
  "12e</w>": 20490,
  "12h": 35939,
  "12h30</w>": 40893,
  "12h</w>": 24047,
  "12ème</w>": 45624,
  "13": 2173,
  "13,": 9547,
  "13,5</w>": 44942,
  "13-": 15092,
  "13.": 14403,
  "1300</w>": 28944,
  "130</w>": 7433,
  "131</w>": 24709,
  "132</w>": 22079,
  "133</w>": 24414,
  "134</w>": 25429,
  "135</w>": 16498,
  "136</w>": 23776,
  "137</w>": 24480,
  "138</w>": 23024,
  "139</w>": 27103,
  "13</w>": 638,
  "13e</w>": 21293,
  "13h": 39383,
  "13h30</w>": 40245,
  "13h</w>": 31173,
  "13ème</w>": 44355,
  "14": 2126,
  "14,": 8159,
  "14-": 14380,
  "14.": 15269,
  "1400</w>": 31700,
  "140</w>": 7267,
  "141</w>": 27102,
  "142</w>": 27327,
  "143</w>": 26566,
  "144</w>": 23928,
  "145</w>": 20707,
  "146</w>": 27362,
  "147</w>": 27139,
  "148</w>": 27618,
  "149</w>": 25572,
  "14</w>": 545,
  "14e</w>": 23051,
  "14h": 37225,
  "14h30</w>": 29558,
  "14h</w>": 16850,
  "15": 1643,
  "15,": 8879,
  "15-": 12589,
  "15.": 14734,
  "15.000</w>": 31274,
  "150": 22419,
  "150.000</w>": 43933,
  "1500</w>": 11734,
  "150</w>": 2919,
  "151</w>": 28123,
  "152</w>": 25613,
  "153</w>": 27793,
  "154</w>": 28246,
  "155</w>": 22427,
  "156</w>": 26581,
  "157</w>": 28678,
  "158</w>": 29381,
  "159</w>": 27167,
  "15</w>": 352,
  "15e</w>": 22698,
  "15h": 39202,
  "15h30</w>": 44176,
  "15h</w>": 23462,
  "16": 1338,
  "16,": 10141,
  "16-": 20334,
  "16.": 16759,
  "1600</w>": 24060,
  "160</w>": 7787,
  "161</w>": 29991,
  "162</w>": 28867,
  "163</w>": 29959,
  "164</w>": 31138,
  "165</w>": 22540,
  "166</w>": 28533,
  "167</w>": 29307,
  "168</w>": 27470,
  "169</w>": 28600,
  "16</w>": 642,
  "16e</w>": 21855,
  "16h": 33339,
  "16h00</w>": 39385,
  "16h30</w>": 36749,
  "16h</w>": 22228,
  "16ème</w>": 43834,
  "17": 1159,
  "17,": 10518,
  "17-": 22384,
  "17.": 18055,
  "1700</w>": 31643,
  "170</w>": 11375,
  "171</w>": 32129,
  "172</w>": 30392,
  "173</w>": 31032,
  "174</w>": 32345,
  "1750</w>": 44900,
  "175</w>": 18301,
  "176</w>": 30714,
  "177</w>": 29084,
  "1780</w>": 44695,
  "1789</w>": 17330,
  "178</w>": 30897,
  "1790</w>": 26847,
  "1791</w>": 29013,
  "1792</w>": 23808,
  "1793</w>": 20112,
  "1794</w>": 32418,
  "1795</w>": 36343,
  "1796</w>": 45571,
  "1798</w>": 43702,
  "1799</w>": 43295,
  "179</w>": 33054,
  "17</w>": 687,
  "17e</w>": 22586,
  "17h": 34368,
  "17h00</w>": 46310,
  "17h30</w>": 34544,
  "17h</w>": 18818,
  "17ème</w>": 43362,
  "18": 5471,
  "18,": 11246,
  "18-": 16929,
  "18.": 19080,
  "180": 30713,
  "1800</w>": 18570,
  "1801</w>": 37757,
  "1802</w>": 41757,
  "1803</w>": 42596,
  "1804</w>": 40365,
  "1805</w>": 46481,
  "1806</w>": 38354,
  "1807</w>": 41385,
  "1808</w>": 40062,
  "1809</w>": 40594,
  "180</w>": 7190,
  "180C</w>": 42938,
  "1810</w>": 36564,
  "1811</w>": 44333,
  "1812</w>": 33805,
  "1813</w>": 38752,
  "1814</w>": 27915,
  "1815</w>": 25146,
  "1816</w>": 41805,
  "1817</w>": 46519,
  "1818</w>": 44700,
  "1819</w>": 42449,
  "181</w>": 32209,
  "1820</w>": 33322,
  "1821</w>": 43014,
  "1822</w>": 44548,
  "1823</w>": 46112,
  "1824</w>": 44797,
  "1825</w>": 40834,
  "1826</w>": 46369,
  "1827</w>": 43953,
  "1828</w>": 43486,
  "1829</w>": 42864,
  "182</w>": 29041,
  "1830</w>": 18606,
  "1831</w>": 33555,
  "1832</w>": 35325,
  "1833</w>": 37233,
  "1834</w>": 38798,
  "1835</w>": 38255,
  "1836</w>": 37850,
  "1837</w>": 35803,
  "1838</w>": 37842,
  "1839</w>": 37811,
  "183</w>": 31773,
  "184": 43144,
  "1840</w>": 25587,
  "1841</w>": 38716,
  "1842</w>": 37408,
  "1843</w>": 38970,
  "1844</w>": 38986,
  "1845</w>": 36528,
  "1846</w>": 36423,
  "1847</w>": 37352,
  "1848</w>": 18774,
  "1849</w>": 33133,
  "184</w>": 33159,
  "185": 38063,
  "1850</w>": 21914,
  "1851</w>": 30427,
  "1852</w>": 32460,
  "1853</w>": 37409,
  "1854</w>": 34925,
  "1855</w>": 32016,
  "1856</w>": 35683,
  "1857</w>": 34367,
  "1858</w>": 35486,
  "1859</w>": 33202,
  "185</w>": 24022,
  "186": 32462,
  "1860</w>": 21038,
  "1861</w>": 31673,
  "1862</w>": 31640,
  "1863</w>": 30103,
  "1864</w>": 30999,
  "1865</w>": 30029,
  "1866</w>": 31179,
  "1867</w>": 25687,
  "1868</w>": 31647,
  "1869</w>": 33009,
  "186</w>": 33052,
  "187": 28252,
  "1870</w>": 15895,
  "1871</w>": 22479,
  "1872</w>": 30976,
  "1873</w>": 31062,
  "1874</w>": 31534,
  "1875</w>": 29179,
  "1876</w>": 30147,
  "1877</w>": 33284,
  "1878</w>": 29296,
  "1879</w>": 32801,
  "187</w>": 32266,
  "188": 29191,
  "1880</w>": 20108,
  "1881</w>": 26493,
  "1882</w>": 28898,
  "1883</w>": 30852,
  "1884</w>": 29982,
  "1885</w>": 26976,
  "1886</w>": 28135,
  "1887</w>": 30868,
  "1888</w>": 29554,
  "1889</w>": 25559,
  "188</w>": 33044,
  "189": 31900,
  "1890</w>": 22077,
  "1891</w>": 29690,
  "1892</w>": 29120,
  "1893</w>": 28132,
  "1894</w>": 28156,
  "1895</w>": 25824,
  "1896</w>": 25476,
  "1897</w>": 27163,
  "1898</w>": 24454,
  "1899</w>": 27003,
  "189</w>": 28661,
  "18</w>": 567,
  "18e</w>": 20010,
  "18h": 35285,
  "18h00</w>": 41855,
  "18h30</w>": 27848,
  "18h</w>": 15023,
  "18ème</w>": 35217,
  "19": 5446,
  "19,": 10153,
  "19-": 20358,
  "19.": 17493,
  "1900</w>": 13838,
  "1901</w>": 16812,
  "1902</w>": 24926,
  "1903</w>": 24923,
  "1904</w>": 23460,
  "1905</w>": 17033,
  "1906</w>": 22303,
  "1907</w>": 21969,
  "1908</w>": 22048,
  "1909</w>": 23979,
  "190</w>": 14231,
  "1910</w>": 17723,
  "1911</w>": 20872,
  "1912</w>": 18572,
  "1913</w>": 19566,
  "1914-": 44545,
  "1914</w>": 11349,
  "1915</w>": 17978,
  "1916</w>": 19631,
  "1917</w>": 15523,
  "1918</w>": 12621,
  "1919</w>": 16313,
  "191</w>": 31828,
  "1920</w>": 9916,
  "1921</w>": 19263,
  "1922</w>": 19563,
  "1923</w>": 19700,
  "1924</w>": 18361,
  "1925</w>": 18246,
  "1926</w>": 19488,
  "1927</w>": 19395,
  "1928</w>": 18234,
  "1929</w>": 15671,
  "192</w>": 27128,
  "193": 26121,
  "1930</w>": 9269,
  "1931</w>": 18991,
  "1932</w>": 17507,
  "1933</w>": 15914,
  "1934</w>": 16989,
  "1935</w>": 16831,
  "1936</w>": 13409,
  "1937</w>": 15937,
  "1938</w>": 14903,
  "1939</w>": 11984,
  "193</w>": 32625,
  "194": 18455,
  "1940</w>": 8403,
  "1941</w>": 13313,
  "1942</w>": 12279,
  "1943</w>": 12664,
  "1944</w>": 8654,
  "1945</w>": 7068,
  "1946</w>": 12454,
  "1947</w>": 12573,
  "1948</w>": 11451,
  "1949</w>": 13152,
  "194</w>": 33914,
  "195": 18803,
  "1950</w>": 7188,
  "1951</w>": 14881,
  "1952</w>": 14345,
  "1953</w>": 13797,
  "1954</w>": 13059,
  "1955</w>": 13260,
  "1956</w>": 12039,
  "1957</w>": 12773,
  "1958</w>": 9769,
  "1959</w>": 11934,
  "195</w>": 26548,
  "196": 15128,
  "1960</w>": 5476,
  "1961</w>": 11254,
  "1962</w>": 9415,
  "1963</w>": 10758,
  "1964</w>": 10472,
  "1965</w>": 10214,
  "1966</w>": 10558,
  "1967</w>": 8245,
  "1968</w>": 7777,
  "1969</w>": 9110,
  "196</w>": 33596,
  "197": 12154,
  "1970</w>": 4362,
  "1971</w>": 8769,
  "1972</w>": 7877,
  "1973</w>": 7338,
  "1974</w>": 7575,
  "1975</w>": 6385,
  "1976</w>": 7111,
  "1977</w>": 6968,
  "1978</w>": 6345,
  "1979</w>": 6327,
  "197</w>": 35188,
  "198": 9159,
  "1980</w>": 3452,
  "1981</w>": 5945,
  "1982</w>": 5742,
  "1983</w>": 5846,
  "1984</w>": 5336,
  "1985</w>": 5033,
  "1986</w>": 4625,
  "1987</w>": 4734,
  "1988</w>": 4323,
  "1989</w>": 3967,
  "198</w>": 33612,
  "199": 10040,
  "1990-": 43986,
  "1990</w>": 2383,
  "1991</w>": 3500,
  "1992</w>": 3135,
  "1993</w>": 3214,
  "1994-": 42756,
  "1994</w>": 3040,
  "1995-": 42682,
  "1995</w>": 2734,
  "1996-": 41179,
  "1996</w>": 2825,
  "1997-": 37715,
  "1997</w>": 2666,
  "1998-": 34094,
  "1998</w>": 2345,
  "1999-": 34361,
  "1999</w>": 1819,
  "199</w>": 26866,
  "19</w>": 847,
  "19e</w>": 18973,
  "19h": 34627,
  "19h30</w>": 32832,
  "19h</w>": 18428,
  "19ème</w>": 28247,
  "1</w>": 130,
  "1A</w>": 42371,
  "1N2</w>": 43929,
  "1e</w>": 13795,
  "1er": 44000,
  "1er</w>": 992,
  "1ere</w>": 33519,
  "1h": 27854,
  "1h30</w>": 27920,
  "1h</w>": 21559,
  "1m": 30474,
  "1re</w>": 20012,
  "1ère</w>": 8748,
  "2": 859,
  "2,": 3085,
  "2,00</w>": 37614,
  "2,0</w>": 41509,
  "2,1</w>": 21412,
  "2,2</w>": 17718,
  "2,3</w>": 16958,
  "2,4</w>": 17649,
  "2,50</w>": 32918,
  "2,5</w>": 6800,
  "2,6</w>": 19513,
  "2,7</w>": 19585,
  "2,8</w>": 19467,
  "2,9</w>": 24882,
  "2-": 3375,
  "2-0</w>": 15258,
  "2-1</w>": 11625,
  "2-2</w>": 22823,
  "2-3</w>": 19848,
  "2-</w>": 23965,
  "2.": 2534,
  "2.000</w>": 16729,
  "2.0</w>": 9825,
  "2.1.": 23427,
  "2.1</w>": 11958,
  "2.2.": 35661,
  "2.2</w>": 14334,
  "2.3</w>": 23014,
  "2.4</w>": 31379,
  "2.5</w>": 24132,
  "2.</w>": 13908,
  "20": 3270,
  "20,": 11787,
  "20-": 15364,
  "20.": 15482,
  "20.000</w>": 22749,
  "200": 6230,
  "200.000</w>": 30482,
  "2000-": 30745,
  "2000-2001</w>": 42162,
  "2000</w>": 1044,
  "2001-": 23878,
  "2001</w>": 1455,
  "2002-": 36373,
  "2002-2003</w>": 30828,
  "2002</w>": 1435,
  "2003-": 38955,
  "2003-2004</w>": 38048,
  "2003</w>": 1439,
  "2004-": 29765,
  "2004-2005</w>": 26428,
  "2004</w>": 1287,
  "2005-": 28844,
  "2005-2006</w>": 32691,
  "2005</w>": 1136,
  "2006-": 28927,
  "2006-2007</w>": 24806,
  "2006</w>": 1076,
  "2007-": 22989,
  "2007-2008</w>": 33074,
  "2007</w>": 967,
  "2008-": 29123,
  "2008-2009</w>": 25911,
  "2008</w>": 881,
  "2009-": 32439,
  "2009-2010</w>": 38329,
  "2009</w>": 938,
  "200</w>": 1408,
  "200m</w>": 38909,
  "201": 7195,
  "2010-": 33862,
  "2010-2011</w>": 32518,
  "2010</w>": 838,
  "2011-": 34749,
  "2011-2012</w>": 34023,
  "2011</w>": 818,
  "2012-": 38425,
  "2012-2013</w>": 32616,
  "2012</w>": 673,
  "2013-": 34681,
  "2013-2014</w>": 30428,
  "2013</w>": 741,
  "2014-": 27493,
  "2014-2015</w>": 26924,
  "2014</w>": 732,
  "2015-": 23368,
  "2015-2016</w>": 30027,
  "2015</w>": 719,
  "2016-": 18400,
  "2016-2017</w>": 36167,
  "2016.": 40690,
  "2016</w>": 839,
  "2017-": 21243,
  "2017</w>": 942,
  "2018</w>": 3271,
  "2019</w>": 7517,
  "201</w>": 28464,
  "2020</w>": 6850,
  "2021</w>": 34329,
  "2022</w>": 28644,
  "2024</w>": 40930,
  "2025</w>": 27425,
  "202</w>": 29664,
  "2030</w>": 20660,
  "203</w>": 31995,
  "204</w>": 31591,
  "2050</w>": 25875,
  "205</w>": 25968,
  "206</w>": 26674,
  "207</w>": 31790,
  "208</w>": 27539,
  "209</w>": 35307,
  "20</w>": 310,
  "20e</w>": 19713,
  "20h": 29954,
  "20h00</w>": 44250,
  "20h30</w>": 24159,
  "20h</w>": 15380,
  "20ème</w>": 33925,
  "21": 10781,
  "21,": 22769,
  "21-": 22014,
  "21.": 19675,
  "2100</w>": 45582,
  "210</w>": 16537,
  "211</w>": 33594,
  "212</w>": 23065,
  "213</w>": 35102,
  "214</w>": 32736,
  "215</w>": 29204,
  "216</w>": 36448,
  "217</w>": 32618,
  "218</w>": 38440,
  "219</w>": 41719,
  "21</w>": 854,
  "21e</w>": 27895,
  "21h": 39282,
  "21h</w>": 28382,
  "21ème</w>": 46470,
  "22": 6301,
  "22,": 15819,
  "22-": 24828,
  "22.": 20929,
  "220</w>": 12757,
  "221</w>": 36738,
  "222</w>": 35690,
  "223</w>": 38931,
  "224</w>": 35731,
  "225</w>": 21865,
  "226</w>": 37086,
  "227</w>": 39621,
  "228</w>": 36486,
  "229</w>": 43155,
  "22</w>": 894,
  "22e</w>": 41377,
  "22h": 36317,
  "22h</w>": 34948,
  "23": 6970,
  "23,": 18082,
  "23-": 24763,
  "23.": 22665,
  "230</w>": 15636,
  "231</w>": 38779,
  "232</w>": 35048,
  "233</w>": 31574,
  "234</w>": 40824,
  "235</w>": 28451,
  "236</w>": 42263,
  "237</w>": 42229,
  "238</w>": 39498,
  "239</w>": 38588,
  "23</w>": 945,
  "23e</w>": 44701,
  "23h": 45264,
  "23h</w>": 43901,
  "24": 6677,
  "24,": 16375,
  "24-": 22685,
  "24.": 20892,
  "240</w>": 13596,
  "241</w>": 42207,
  "242</w>": 38949,
  "243</w>": 44410,
  "244</w>": 38863,
  "245</w>": 36667,
  "246</w>": 46324,
  "247</w>": 45658,
  "248</w>": 42712,
  "249</w>": 39729,
  "24</w>": 714,
  "24e</w>": 44965,
  "24h</w>": 12491,
  "25": 5697,
  "25,": 16482,
  "25-": 16797,
  "25.": 22061,
  "25.000</w>": 40417,
  "250": 31985,
  "2500</w>": 22925,
  "250</w>": 4071,
  "251</w>": 40645,
  "252</w>": 42272,
  "253</w>": 39755,
  "254</w>": 41564,
  "255</w>": 35272,
  "256</w>": 28026,
  "257</w>": 41900,
  "258</w>": 45343,
  "25</w>": 547,
  "25e</w>": 35027,
  "26": 9492,
  "26,": 20064,
  "26-": 27371,
  "26.": 24527,
  "260</w>": 19052,
  "261</w>": 45943,
  "262</w>": 45014,
  "264</w>": 38512,
  "265</w>": 33626,
  "268</w>": 40530,
  "26</w>": 1096,
  "27": 9448,
  "27,": 20472,
  "27-": 29017,
  "27.": 23233,
  "270</w>": 18914,
  "272</w>": 44314,
  "275</w>": 31500,
  "27</w>": 1107,
  "28": 8485,
  "28,": 20297,
  "28-": 29715,
  "28.": 22841,
  "280</w>": 19450,
  "285</w>": 39939,
  "288</w>": 44534,
  "28</w>": 1087,
  "29": 9251,
  "29,": 16409,
  "29-": 32707,
  "29.": 20844,
  "290</w>": 28257,
  "295</w>": 42922,
  "299</w>": 41295,
  "29</w>": 1245,
  "2</w>": 124,
  "2A</w>": 44839,
  "2B</w>": 41043,
  "2C</w>": 34851,
  "2D</w>": 23695,
  "2P</w>": 40113,
  "2e</w>": 4500,
  "2eme</w>": 40266,
  "2h</w>": 18833,
  "2nd</w>": 45331,
  "2ème</w>": 7446,
  "3": 523,
  "3,": 3527,
  "3,1</w>": 27426,
  "3,2</w>": 21103,
  "3,3</w>": 21072,
  "3,4</w>": 22596,
  "3,5</w>": 9528,
  "3,6</w>": 22192,
  "3,7</w>": 23767,
  "3,8</w>": 23335,
  "3,9</w>": 28294,
  "3-": 3861,
  "3-0</w>": 20153,
  "3-1</w>": 16242,
  "3-2</w>": 21734,
  "3-3</w>": 37538,
  "3-4</w>": 28819,
  "3-6</w>": 37622,
  "3-</w>": 30967,
  "3.": 3050,
  "3.000</w>": 21474,
  "3.0</w>": 21887,
  "3.1</w>": 17086,
  "3.2</w>": 22122,
  "3.3</w>": 28308,
  "3.4</w>": 37469,
  "3.5</w>": 26848,
  "3.</w>": 17661,
  "30": 5822,
  "30,": 41276,
  "30-": 18032,
  "30.": 16892,
  "30.000</w>": 25453,
  "300": 17230,
  "300.000</w>": 34898,
  "3000</w>": 10863,
  "300</w>": 2002,
  "301</w>": 42368,
  "302</w>": 43945,
  "303</w>": 45444,
  "304</w>": 44162,
  "305</w>": 39489,
  "306</w>": 45542,
  "308</w>": 34514,
  "30</w>": 340,
  "30e</w>": 39479,
  "31": 43419,
  "31,": 45214,
  "31-": 39898,
  "31.": 27518,
  "31.12.": 36337,
  "310</w>": 26772,
  "312</w>": 45940,
  "315</w>": 40191,
  "316</w>": 46264,
  "31</w>": 1155,
  "32": 11591,
  "32,": 44058,
  "32-": 42610,
  "32.": 42289,
  "320</w>": 15062,
  "321</w>": 41135,
  "325</w>": 34316,
  "32</w>": 2188,
  "33": 10066,
  "33,": 39345,
  "33-": 42917,
  "330</w>": 20551,
  "335</w>": 46265,
  "33</w>": 2455,
  "34": 12378,
  "34,": 24224,
  "34-": 46444,
  "340</w>": 25177,
  "34</w>": 2658,
  "35": 8956,
  "35,": 27221,
  "35-": 38644,
  "3500</w>": 37744,
  "350</w>": 7749,
  "355</w>": 43325,
  "35</w>": 1480,
  "36": 12722,
  "36,": 27729,
  "360</w>": 8416,
  "365</w>": 24829,
  "36</w>": 2519,
  "37": 13188,
  "37,": 27576,
  "370</w>": 26999,
  "375</w>": 32935,
  "37</w>": 2986,
  "38": 13318,
  "38,": 28296,
  "380</w>": 19409,
  "38</w>": 2967,
  "39": 14976,
  "39,": 24093,
  "390</w>": 36080,
  "39</w>": 3097,
  "3</w>": 153,
  "3C</w>": 46096,
  "3D</w>": 4847,
  "3DS</w>": 33577,
  "3G</w>": 23092,
  "3e</w>": 4809,
  "3h</w>": 35787,
  "3ème</w>": 8193,
  "4": 584,
  "4,": 4268,
  "4,00</w>": 42828,
  "4,1</w>": 31729,
  "4,2</w>": 27509,
  "4,3</w>": 26696,
  "4,4</w>": 27866,
  "4,5</w>": 12073,
  "4,6</w>": 27496,
  "4,7</w>": 28148,
  "4,8</w>": 28611,
  "4,9</w>": 32797,
  "4-": 4785,
  "4-0</w>": 32469,
  "4-1</w>": 25791,
  "4-2</w>": 30523,
  "4-3</w>": 40847,
  "4-5</w>": 39474,
  "4-6</w>": 36037,
  "4-</w>": 39611,
  "4.": 3515,
  "4.000</w>": 29264,
  "4.0</w>": 32391,
  "4.1</w>": 21575,
  "4.2</w>": 25404,
  "4.3</w>": 26956,
  "4.4</w>": 38399,
  "4.5</w>": 32120,
  "4.</w>": 22991,
  "40": 7733,
  "40-": 33387,
  "40.": 35848,
  "40.000</w>": 38673,
  "400": 15270,
  "4000</w>": 16042,
  "400</w>": 2656,
  "404</w>": 46106,
  "40</w>": 752,
  "40e</w>": 45157,
  "410</w>": 36674,
  "41</w>": 3380,
  "42": 30109,
  "420</w>": 28593,
  "425</w>": 45220,
  "42</w>": 2969,
  "43": 18905,
  "430</w>": 31320,
  "43</w>": 3216,
  "44": 14744,
  "440</w>": 29590,
  "44</w>": 3139,
  "45": 11351,
  "45-": 38876,
  "450</w>": 10319,
  "45</w>": 1616,
  "46": 19831,
  "460</w>": 34314,
  "46</w>": 3634,
  "47": 19228,
  "47,": 35202,
  "470</w>": 38622,
  "47</w>": 3512,
  "48": 16968,
  "48,": 30443,
  "480</w>": 26855,
  "48</w>": 2748,
  "48h</w>": 34451,
  "49": 18267,
  "49,": 25885,
  "49.": 41793,
  "490</w>": 45252,
  "49</w>": 3361,
  "4</w>": 194,
  "4G</w>": 21509,
  "4K</w>": 35317,
  "4e</w>": 6315,
  "4h</w>": 40527,
  "4x": 46144,
  "4x4</w>": 29235,
  "4ème</w>": 13229,
  "5": 624,
  "5,": 5214,
  "5,00</w>": 22544,
  "5,1</w>": 35562,
  "5,2</w>": 30124,
  "5,3</w>": 31623,
  "5,4</w>": 32357,
  "5,5</w>": 14811,
  "5,6</w>": 28598,
  "5,7</w>": 30829,
  "5,8</w>": 33084,
  "5,9</w>": 37776,
  "5-": 3857,
  "5-1</w>": 35927,
  "5-2</w>": 44881,
  "5.": 3964,
  "5.000</w>": 17999,
  "5.0</w>": 34373,
  "5.1</w>": 24327,
  "5.2</w>": 35025,
  "5.3</w>": 42627,
  "5.5</w>": 40280,
  "5.</w>": 29784,
  "50": 7041,
  "50-": 28789,
  "50.": 39044,
  "50.000</w>": 19471,
  "500": 15964,
  "500.000</w>": 30380,
  "5000</w>": 11707,
  "500</w>": 1364,
  "50</w>": 534,
  "50e</w>": 37990,
  "50m</w>": 33633,
  "510</w>": 39770,
  "512</w>": 42742,
  "51</w>": 3692,
  "52": 30384,
  "520</w>": 36791,
  "52</w>": 3468,
  "53": 29473,
  "530</w>": 39751,
  "53</w>": 3797,
  "54": 22712,
  "540</w>": 38729,
  "54</w>": 3664,
  "55": 15785,
  "550</w>": 18894,
  "55</w>": 2523,
  "56": 20282,
  "560</w>": 38580,
  "56</w>": 3434,
  "57": 23316,
  "57</w>": 3720,
  "58": 24359,
  "580</w>": 45597,
  "58</w>": 3725,
  "59": 19239,
  "59,": 44869,
  "59</w>": 3835,
  "5</w>": 202,
  "5e</w>": 6529,
  "5h</w>": 46549,
  "5ème</w>": 17092,
  "6": 710,
  "6,": 5872,
  "6,00</w>": 43037,
  "6,1</w>": 39267,
  "6,2</w>": 33660,
  "6,3</w>": 33351,
  "6,4</w>": 33603,
  "6,5</w>": 15743,
  "6,6</w>": 33396,
  "6,7</w>": 32820,
  "6,8</w>": 35066,
  "6,9</w>": 38877,
  "6-": 5260,
  "6-0</w>": 39195,
  "6-1</w>": 20000,
  "6-2</w>": 17627,
  "6-3</w>": 15921,
  "6-4</w>": 16156,
  "6-7</w>": 35844,
  "6.": 4445,
  "6.000</w>": 34312,
  "6.1</w>": 38223,
  "6.2</w>": 41843,
  "6.</w>": 38507,
  "60": 8900,
  "60-": 39469,
  "600": 25076,
  "6000</w>": 22145,
  "600</w>": 3437,
  "60</w>": 1012,
  "610</w>": 44727,
  "61</w>": 4341,
  "620</w>": 41294,
  "62</w>": 4077,
  "63": 35544,
  "630</w>": 42959,
  "63</w>": 4125,
  "64": 25071,
  "640</w>": 37092,
  "64</w>": 3662,
  "65": 23759,
  "650</w>": 16884,
  "65</w>": 2877,
  "66": 27314,
  "660</w>": 44888,
  "66</w>": 4104,
  "67": 26480,
  "67</w>": 4084,
  "68": 24875,
  "680</w>": 45144,
  "68</w>": 4099,
  "69": 11820,
  "69</w>": 4599,
  "6</w>": 298,
  "6e</w>": 7372,
  "6h</w>": 36795,
  "6ème</w>": 19302,
  "7": 888,
  "7,": 6468,
  "7,1</w>": 43357,
  "7,2</w>": 37044,
  "7,3</w>": 39316,
  "7,4</w>": 38625,
  "7,5</w>": 13994,
  "7,6</w>": 37020,
  "7,7</w>": 39208,
  "7,8</w>": 37873,
  "7,9</w>": 45106,
  "7-": 5222,
  "7-5</w>": 31501,
  "7-6</w>": 25480,
  "7.": 4376,
  "7.000</w>": 43271,
  "7.1</w>": 37093,
  "7.</w>": 45404,
  "70": 10897,
  "70-": 38567,
  "700": 36573,
  "7000</w>": 30093,
  "700</w>": 4789,
  "70</w>": 1367,
  "71</w>": 4595,
  "720</w>": 36042,
  "72</w>": 3901,
  "73": 33280,
  "73</w>": 4532,
  "74": 30831,
  "74</w>": 4632,
  "75": 14544,
  "750": 27391,
  "7500": 31428,
  "750</w>": 11923,
  "75</w>": 2110,
  "76": 20856,
  "76</w>": 4416,
  "77": 20888,
  "77-": 48045,
  "77</w>": 3788,
  "78": 23002,
  "78-": 41413,
  "78</w>": 4187,
  "79": 32715,
  "79</w>": 4833,
  "7</w>": 386,
  "7e</w>": 8536,
  "7h</w>": 40235,
  "7j</w>": 46023,
  "7ème</w>": 25098,
  "8": 903,
  "8,": 6445,
  "8,2</w>": 41366,
  "8,3</w>": 41816,
  "8,4</w>": 42847,
  "8,5</w>": 18875,
  "8,6</w>": 42079,
  "8,7</w>": 43025,
  "8,8</w>": 41309,
  "8,9</w>": 44447,
  "8-": 4854,
  "8.": 5163,
  "8.000</w>": 38028,
  "8.1</w>": 37326,
  "80": 9190,
  "80-": 46389,
  "800": 28040,
  "8000</w>": 28916,
  "800</w>": 3855,
  "80</w>": 1129,
  "81</w>": 4666,
  "82</w>": 4521,
  "83</w>": 4418,
  "84": 28241,
  "84</w>": 4602,
  "85": 19605,
  "850</w>": 22570,
  "85</w>": 2943,
  "86": 32010,
  "86</w>": 4205,
  "87": 31799,
  "87</w>": 4214,
  "88": 26068,
  "88</w>": 3840,
  "89": 34262,
  "89</w>": 4041,
  "8</w>": 378,
  "8e</w>": 9429,
  "8h30</w>": 39703,
  "8h</w>": 26801,
  "8ème</w>": 32817,
  "9": 998,
  "9,": 4996,
  "9,00</w>": 12391,
  "9,5</w>": 29681,
  "9,90</w>": 37682,
  "9,99</w>": 41000,
  "9-": 5060,
  "9.": 5341,
  "90": 12245,
  "90-": 40916,
  "9000</w>": 41469,
  "900</w>": 7519,
  "90</w>": 1152,
  "911</w>": 35326,
  "91</w>": 4638,
  "92-": 24867,
  "92-77-": 44373,
  "92</w>": 3754,
  "93": 32275,
  "93</w>": 4183,
  "94": 26758,
  "94</w>": 4557,
  "95": 25333,
  "950</w>": 31712,
  "95</w>": 2775,
  "96": 24712,
  "96</w>": 4555,
  "97": 27190,
  "97</w>": 4690,
  "98": 40628,
  "98</w>": 4585,
  "99": 25887,
  "99,": 35880,
  "999</w>": 45754,
  "99</w>": 3116,
  "9</w>": 521,
  "9e</w>": 11008,
  "9h30</w>": 38741,
  "9h</w>": 22493,
  "9ème</w>": 37908,
  ":": 57332,
  ":</w>": 43,
  ";": 57822,
  ";</w>": 80,
  "<": 50070,
  "</s>": 1,
  "<</w>": 10179,
  "<pad>": 2,
  "<s>": 0,
  "<special0>": 4,
  "<special1>": 5,
  "<special2>": 6,
  "<special3>": 7,
  "<special4>": 8,
  "<special5>": 9,
  "<special6>": 10,
  "<special7>": 11,
  "<special8>": 12,
  "<special9>": 13,
  "<unk>": 3,
  "=</w>": 1171,
  ">": 53169,
  "></w>": 1047,
  "?": 56430,
  "?</w>": 87,
  "@": 53551,
  "@</w>": 2271,
  "A": 302,
  "A-": 7862,
  "A.": 5685,
  "A.</w>": 3484,
  "A1</w>": 28730,
  "A2</w>": 29961,
  "A3</w>": 39054,
  "A4</w>": 23804,
  "A</w>": 134,
  "AA": 34128,
  "AA</w>": 17901,
  "AAA</w>": 32492,
  "AB": 5057,
  "AB</w>": 18046,
  "ABC</w>": 11413,
  "ABLE</w>": 27550,
  "ABS</w>": 36261,
  "AC": 2754,
  "AC.": 35756,
  "AC</w>": 5063,
  "ACC": 40633,
  "ACCES": 38685,
  "ACCUEIL</w>": 34240,
  "ACH": 21765,
  "ACI</w>": 44632,
  "ACP</w>": 14617,
  "ACS</w>": 46120,
  "ACTI": 26820,
  "ACTION</w>": 30155,
  "ACTIONS</w>": 34408,
  "ACTIVI": 18906,
  "ACTU": 29265,
  "AD": 3169,
  "AD</w>": 10305,
  "ADA</w>": 38100,
  "ADAP": 41489,
  "ADE</w>": 37720,
  "ADI": 23673,
  "ADMINIS": 49149,
  "ADMINISTR": 31494,
  "ADMINISTRATION</w>": 36420,
  "ADN</w>": 7542,
  "ADS</w>": 48250,
  "ADSL</w>": 32177,
  "AE": 24664,
  "AE</w>": 18235,
  "AELE</w>": 31488,
  "AF": 4885,
  "AF</w>": 15045,
  "AFF": 48138,
  "AFFAIRES</w>": 40112,
  "AFP</w>": 3181,
  "AFRI": 29964,
  "AG": 3769,
  "AG</w>": 14229,
  "AGE</w>": 6075,
  "AGEMENT</w>": 40928,
  "AGENCE</w>": 44543,
  "AGES": 49431,
  "AGES</w>": 13616,
  "AGRI": 25373,
  "AH": 39317,
  "AH</w>": 36868,
  "AI": 4320,
  "AI</w>": 17391,
  "AIDE</w>": 30798,
  "AIE</w>": 46184,
  "AIEA</w>": 27963,
  "AIL</w>": 25554,
  "AILL": 23180,
  "AIN": 35033,
  "AIN</w>": 11752,
  "AINE</w>": 44204,
  "AIR</w>": 23069,
  "AIRE</w>": 5300,
  "AIRES</w>": 8920,
  "AIS</w>": 10531,
  "AISE</w>": 48995,
  "AIT</w>": 14915,
  "AJ": 45119,
  "AJOU": 38276,
  "AK": 16166,
  "AK</w>": 45840,
  "AL": 2718,
  "AL</w>": 4742,
  "ALE</w>": 11220,
  "ALES</w>": 17953,
  "ALI": 11171,
  "ALIS": 22559,
  "ALISATION</w>": 38442,
  "ALITE</w>": 35957,
  "ALL": 16761,
  "ALL</w>": 37049,
  "ALY": 49506,
  "AM": 3087,
  "AM</w>": 9235,
  "AMA</w>": 29561,
  "AMBU": 49934,
  "AMBULE</w>": 46451,
  "AMD</w>": 43214,
  "AME</w>": 25789,
  "AMEN": 46544,
  "AMF</w>": 28048,
  "AMI</w>": 44824,
  "AMP</w>": 45098,
  "AN": 2606,
  "AN</w>": 6346,
  "ANA</w>": 34158,
  "ANALY": 47958,
  "ANALYSE</w>": 41310,
  "ANC</w>": 32507,
  "ANCE</w>": 7407,
  "ANCES</w>": 35255,
  "AND": 17310,
  "AND</w>": 22155,
  "ANDE</w>": 27730,
  "ANE</w>": 32907,
  "ANG": 37764,
  "ANI": 29111,
  "ANIM": 41955,
  "ANN": 15583,
  "ANNEE</w>": 43015,
  "ANNEX": 48931,
  "ANNEXE</w>": 26959,
  "ANNU": 46048,
  "ANS</w>": 17280,
  "ANT</w>": 5871,
  "ANTE</w>": 36400,
  "ANTI": 28154,
  "ANTS</w>": 16654,
  "AO": 19093,
  "AO</w>": 29425,
  "AOC</w>": 22475,
  "AP": 4126,
  "AP</w>": 8947,
  "APD</w>": 43557,
  "APE</w>": 35020,
  "API</w>": 23449,
  "APP": 31617,
  "APPAR": 35744,
  "APPEL</w>": 35288,
  "APPLI": 29685,
  "APPLICATION</w>": 34941,
  "APR": 29659,
  "AQ": 35947,
  "AR": 2352,
  "AR</w>": 11221,
  "ARC</w>": 22265,
  "ARCH": 33153,
  "ARD</w>": 11705,
  "ARE</w>": 29562,
  "ARI": 13473,
  "ARN</w>": 31578,
  "ARS</w>": 25423,
  "ART</w>": 20708,
  "ARTI": 20163,
  "ARTICLE</w>": 6644,
  "AS": 2809,
  "AS</w>": 4687,
  "ASE</w>": 35966,
  "ASFC</w>": 40870,
  "ASI": 39155,
  "ASM</w>": 34664,
  "ASS": 18797,
  "ASS</w>": 41824,
  "ASSE</w>": 26217,
  "ASSEM": 39022,
  "ASSIST": 45651,
  "ASSOCI": 43074,
  "ASSOCIATION</w>": 31510,
  "ASSU": 43794,
  "ASSURAN": 49150,
  "ASSURANCE</w>": 19454,
  "ASSURANCES</w>": 42499,
  "AST</w>": 44391,
  "AT": 3326,
  "AT</w>": 6028,
  "ATA</w>": 25796,
  "ATE": 24927,
  "ATE</w>": 44660,
  "ATEUR</w>": 27620,
  "ATEURS</w>": 38523,
  "ATI": 10330,
  "ATIF</w>": 20154,
  "ATIFS</w>": 41694,
  "ATION": 36248,
  "ATION</w>": 3435,
  "ATIONS</w>": 7716,
  "ATIQUE</w>": 47510,
  "ATIQUES</w>": 33057,
  "ATIVE</w>": 24710,
  "ATIVES</w>": 31525,
  "ATP</w>": 22004,
  "ATTEN": 41638,
  "ATTENTION</w>": 25945,
  "ATURE</w>": 39453,
  "AU": 3565,
  "AU</w>": 3480,
  "AUD</w>": 38712,
  "AULT</w>": 37993,
  "AUSSI</w>": 12281,
  "AUT": 15679,
  "AUTO": 20128,
  "AUTO</w>": 40835,
  "AUTRE</w>": 44513,
  "AUTRES</w>": 24066,
  "AUX</w>": 3922,
  "AV": 5909,
  "AV</w>": 28147,
  "AVAN": 26782,
  "AVANT</w>": 27953,
  "AVC</w>": 34771,
  "AVEC</w>": 9434,
  "AVEN": 37322,
  "AVIS</w>": 25421,
  "AVRIL</w>": 37386,
  "AW": 34595,
  "AX": 46768,
  "AXA</w>": 36371,
  "AY": 22577,
  "AY</w>": 32321,
  "AZ": 18595,
  "Aaron</w>": 26176,
  "Ab": 2499,
  "Aband": 46175,
  "Abb": 27891,
  "Abbas</w>": 22724,
  "Abbaye</w>": 29757,
  "Abbé</w>": 34596,
  "Abd": 46966,
  "Abd</w>": 45757,
  "Abdallah</w>": 29004,
  "Abdel": 17017,
  "Abdel</w>": 27741,
  "Abdelk": 43051,
  "Abdes": 50709,
  "Abdeslam</w>": 44602,
  "Abdou": 47239,
  "Abdoulaye</w>": 30434,
  "Abdu": 42964,
  "Abdullah</w>": 44341,
  "Abe</w>": 37012,
  "Abeba</w>": 46520,
  "Abel</w>": 30962,
  "Aber": 37260,
  "Abi": 25129,
  "Abidjan</w>": 21358,
  "Abiti": 37592,
  "Abonnés</w>": 32454,
  "Abou": 37006,
  "Abou</w>": 17721,
  "Abr": 29908,
  "Abra": 48609,
  "Abraham</w>": 16314,
  "Abu": 42306,
  "Abu</w>": 28878,
  "Ac": 3316,
  "Aca": 17135,
  "Academy</w>": 24672,
  "Académie</w>": 5448,
  "Accep": 30273,
  "Access": 43487,
  "Access</w>": 35005,
  "Accessi": 37915,
  "Accessoires</w>": 16641,
  "Accompagn": 22074,
  "Accompagné</w>": 41315,
  "Accor": 40044,
  "Accord</w>": 7183,
  "Accords</w>": 37184,
  "Accu": 18461,
  "Accueil": 39235,
  "Accueil</w>": 7115,
  "Accès</w>": 10247,
  "Ach": 16587,
  "Achat</w>": 14947,
  "Achet": 40960,
  "Acheter</w>": 14128,
  "Achetez</w>": 38702,
  "Achille</w>": 27660,
  "Acro": 38634,
  "Act</w>": 18610,
  "Acte</w>": 20328,
  "Actes</w>": 19219,
  "Acti": 21911,
  "Action</w>": 7997,
  "Actions</w>": 29079,
  "Active</w>": 29802,
  "Activité": 49887,
  "Activité</w>": 21733,
  "Activités": 50531,
  "Activités</w>": 12528,
  "Actu": 21214,
  "Actu</w>": 40084,
  "Actualité</w>": 28168,
  "Actualités</w>": 9912,
  "Actuellement</w>": 7330,
  "Ad": 2066,
  "Adam</w>": 8560,
  "Adams</w>": 27743,
  "Adap": 18555,
  "Add.": 21451,
  "Add.1</w>": 29302,
  "Addi": 36635,
  "Ade": 40448,
  "Adi": 33881,
  "Adid": 50547,
  "Adidas</w>": 33422,
  "Adieu</w>": 30563,
  "Administr": 25140,
  "Administrateur</w>": 33544,
  "Administration</w>": 8488,
  "Adobe</w>": 24579,
  "Adol": 47937,
  "Adolf</w>": 39856,
  "Adolphe</w>": 33468,
  "Adoption</w>": 25162,
  "Adresse</w>": 11280,
  "Adri": 20231,
  "Adrian</w>": 33471,
  "Adrien</w>": 19190,
  "Adul": 40267,
  "Advis": 48211,
  "Advisor</w>": 49516,
  "Adèle</w>": 33128,
  "Adé": 38557,
  "Aer": 24141,
  "Af": 17558,
  "Aff": 11214,
  "Affaire</w>": 21897,
  "Affaires</w>": 4192,
  "Affi": 16142,
  "Afficher</w>": 5088,
  "Afgh": 48055,
  "Afghan": 49674,
  "Afghanistan</w>": 5716,
  "Afghans</w>": 43830,
  "Afin</w>": 3997,
  "Afri": 25029,
  "Afric": 48146,
  "Africa</w>": 26354,
  "Africain</w>": 31742,
  "Africaine</w>": 36254,
  "Africains</w>": 18411,
  "African</w>": 41115,
  "Afrique</w>": 1032,
  "Afro": 41830,
  "After</w>": 40615,
  "Ag": 5922,
  "Agathe</w>": 44292,
  "Age</w>": 13091,
  "Agen</w>": 32947,
  "Agence</w>": 3390,
  "Agency</w>": 40007,
  "Agend": 50057,
  "Agenda</w>": 28337,
  "Agent</w>": 27505,
  "Agi": 44911,
  "Agir</w>": 45372,
  "Agn": 24736,
  "Agnès</w>": 17589,
  "Agr": 26891,
  "Agri": 19971,
  "Agricole</w>": 19731,
  "Agriculture</w>": 11769,
  "Agro": 41578,
  "Agré": 33045,
  "Agu": 36960,
  "Agé</w>": 45293,
  "Ah": 14124,
  "Ah</w>": 7003,
  "Ahmad": 48560,
  "Ahmad</w>": 36708,
  "Ahmadinejad</w>": 43843,
  "Ahmed</w>": 14425,
  "Ai": 7250,
  "Aid": 34141,
  "Aide</w>": 13135,
  "Aides</w>": 45107,
  "Aig": 39899,
  "Aigle</w>": 44356,
  "Aignan</w>": 36598,
  "Aigu": 32693,
  "Ailleurs</w>": 28128,
  "Aim": 24470,
  "Aimé</w>": 37613,
  "Ain": 46685,
  "Ain</w>": 23901,
  "Ainsi</w>": 804,
  "Air": 12430,
  "Air</w>": 4040,
  "Airbnb</w>": 36169,
  "Airbus</w>": 12522,
  "Aires</w>": 18962,
  "Airlines</w>": 18785,
  "Airways</w>": 31702,
  "Ais": 48104,
  "Aisne</w>": 26760,
  "Aix-": 30865,
  "Aix-en-": 50075,
  "Aix-en-Provence</w>": 23325,
  "Aix</w>": 20175,
  "Aj": 37273,
  "Ajaccio</w>": 20478,
  "Ajax</w>": 41216,
  "Ajou": 19748,
  "Ajouter</w>": 1357,
  "Ajoutez</w>": 9039,
  "Ajoutons</w>": 38639,
  "Ak": 8926,
  "Akh": 45342,
  "Aki": 34315,
  "Al": 1088,
  "Al-": 7459,
  "Al-Q": 47682,
  "Al-Qaida</w>": 40145,
  "Al-Qaïda</w>": 22083,
  "Al</w>": 7580,
  "Alab": 49922,
  "Alabama</w>": 39262,
  "Alain</w>": 3120,
  "Alan</w>": 17143,
  "Alaska</w>": 26389,
  "Alassane</w>": 32851,
  "Alb": 39434,
  "Alba</w>": 44681,
  "Alban": 24835,
  "Albanie</w>": 20420,
  "Alber": 20335,
  "Albert</w>": 6590,
  "Alberta</w>": 12318,
  "Alberto</w>": 25187,
  "Albi": 31499,
  "Albi</w>": 36688,
  "Albin</w>": 41039,
  "Albu": 40573,
  "Album</w>": 36803,
  "Alco": 45747,
  "Ale": 25949,
  "Alej": 50073,
  "Alejandro</w>": 43886,
  "Alek": 48852,
  "Aleksand": 46251,
  "Alen": 49635,
  "Alençon</w>": 43266,
  "Alep</w>": 18666,
  "Aless": 47284,
  "Alessandro</w>": 43363,
  "Alex": 24441,
  "Alex</w>": 8700,
  "Alexand": 27840,
  "Alexander</w>": 14498,
  "Alexandra</w>": 24890,
  "Alexandre</w>": 4828,
  "Alexandrie</w>": 23684,
  "Alexis</w>": 12231,
  "Alfa</w>": 42092,
  "Alfre": 43969,
  "Alfred</w>": 13861,
  "Alg": 41572,
  "Alger</w>": 9936,
  "Algéri": 30684,
  "Algérie</w>": 3439,
  "Algériens</w>": 28176,
  "Ali": 6716,
  "Ali</w>": 6895,
  "Alib": 38247,
  "Alice</w>": 10826,
  "Alicia</w>": 42451,
  "Alimentation</w>": 28604,
  "Aline</w>": 46506,
  "Alis": 29832,
  "All": 4231,
  "All</w>": 14855,
  "Allah</w>": 10656,
  "Allan</w>": 35293,
  "Allem": 35319,
  "Allemagne</w>": 1073,
  "Allemand</w>": 14323,
  "Allemande</w>": 36203,
  "Allemands</w>": 7155,
  "Allen</w>": 18930,
  "Aller</w>": 20370,
  "Allez</w>": 9162,
  "Alli": 22779,
  "Alliance</w>": 8404,
  "Allianz</w>": 46133,
  "Allier</w>": 29864,
  "Alliés</w>": 28768,
  "Allo": 46021,
  "Allons</w>": 21309,
  "Allu": 46483,
  "Alma</w>": 37172,
  "Alo": 34949,
  "Alon": 48969,
  "Alonso</w>": 33143,
  "Alors</w>": 646,
  "Alou": 48695,
  "Alouettes</w>": 37413,
  "Alp": 32480,
  "Alpes-": 47308,
  "Alpes-Maritimes</w>": 26114,
  "Alpes</w>": 7645,
  "Alph": 33987,
  "Alpha</w>": 21793,
  "Alphon": 48798,
  "Alphonse</w>": 20850,
  "Als": 49069,
  "Alsac": 42225,
  "Alsace</w>": 5886,
  "Alsaci": 33413,
  "Alstom</w>": 26475,
  "Alt": 26688,
  "Altern": 22364,
  "Alu": 42808,
  "Alvar": 34378,
  "Alz": 48303,
  "Alzheimer</w>": 20765,
  "Am": 2744,
  "Am</w>": 39542,
  "Ama": 17163,
  "Amadou</w>": 40081,
  "Aman": 30864,
  "Amanda</w>": 34995,
  "Amar": 30117,
  "Amaz": 43232,
  "Amazon</w>": 10506,
  "Amazonie</w>": 39505,
  "Ambass": 46849,
  "Ambassade</w>": 42409,
  "Ambassadeur</w>": 22897,
  "Ambi": 41308,
  "Ambiance</w>": 40299,
  "Ambro": 38036,
  "Ambroise</w>": 43932,
  "Ame": 35411,
  "Amen": 47260,
  "Amend": 48629,
  "Amendement</w>": 39350,
  "Amendes</w>": 50561,
  "Ameri": 31283,
  "America</w>": 14997,
  "American</w>": 9598,
  "Ami": 12562,
  "Ami</w>": 35172,
  "Amiens</w>": 16044,
  "Amiga</w>": 33615,
  "Amir": 38101,
  "Amis</w>": 17213,
  "Amn": 50363,
  "Amnesty</w>": 22761,
  "Amor": 35965,
  "Amour": 39237,
  "Amour</w>": 9937,
  "Amster": 48996,
  "Amsterdam</w>": 11300,
  "Amy</w>": 24584,
  "Amé": 38355,
  "Améli": 47266,
  "Amélie</w>": 23670,
  "Amélioration</w>": 36277,
  "Améliorer</w>": 27140,
  "Aménag": 47929,
  "Aménagement</w>": 30219,
  "Amér": 49643,
  "Améric": 39140,
  "Américain</w>": 10491,
  "Américaine</w>": 19294,
  "Américains</w>": 5007,
  "Amérindiens</w>": 42006,
  "Amérique</w>": 1717,
  "Amériques</w>": 23847,
  "An": 1441,
  "An</w>": 15773,
  "Ana</w>": 31181,
  "Analy": 19668,
  "Analyse</w>": 14784,
  "Analytics</w>": 43669,
  "Anas": 38419,
  "Anat": 20865,
  "Anaïs</w>": 41338,
  "Ancel": 45389,
  "Ancien</w>": 9186,
  "Ancienne</w>": 30280,
  "Anciens</w>": 22706,
  "And": 15693,
  "And</w>": 33021,
  "Andal": 48147,
  "Andalousie</w>": 33023,
  "Ander": 33114,
  "Anderle": 49452,
  "Anderlecht</w>": 23997,
  "Anderson</w>": 18149,
  "Andes</w>": 41198,
  "Andor": 49650,
  "Andorre</w>": 37062,
  "Andr": 22047,
  "Andre": 17928,
  "Andrea</w>": 22358,
  "Andreas</w>": 32634,
  "Andrew</w>": 14556,
  "Andri": 34060,
  "Androi": 49347,
  "Android</w>": 8286,
  "André": 35000,
  "André-": 42105,
  "André</w>": 3652,
  "Andrée</w>": 42878,
  "Andy</w>": 16467,
  "Ang": 11774,
  "Ange": 34216,
  "Ange</w>": 18504,
  "Angel": 37122,
  "Angel</w>": 22395,
  "Angela</w>": 12317,
  "Angeles</w>": 6869,
  "Angelina</w>": 41242,
  "Angelo</w>": 37518,
  "Angels</w>": 39088,
  "Angers</w>": 13018,
  "Anges</w>": 27965,
  "Angl": 17806,
  "Anglais</w>": 5919,
  "Angleterre</w>": 2289,
  "Anglo": 42423,
  "Angola</w>": 20014,
  "Angoul": 49395,
  "Angoulême</w>": 24086,
  "Angélique</w>": 39684,
  "Ani": 9382,
  "Animation</w>": 32841,
  "Animaux</w>": 29455,
  "Anjou</w>": 23885,
  "Ank": 39508,
  "Ankara</w>": 20990,
  "Ann": 8134,
  "Ann</w>": 27767,
  "Anna</w>": 10804,
  "Annales</w>": 37284,
  "Annan</w>": 46553,
  "Anne-": 17888,
  "Anne-Marie</w>": 29997,
  "Anne</w>": 4991,
  "Annecy</w>": 24751,
  "Annette</w>": 44514,
  "Annexe</w>": 14653,
  "Anni": 28012,
  "Annick</w>": 44260,
  "Annie</w>": 17540,
  "Annon": 44459,
  "Annonce</w>": 38214,
  "Annonces</w>": 46165,
  "Annu": 43029,
  "Annuaire</w>": 33287,
  "Annuler</w>": 20722,
  "Année</w>": 12920,
  "Années</w>": 45880,
  "Ano": 44032,
  "Anonyme</w>": 39817,
  "Ans</w>": 31275,
  "Ant": 24194,
  "Antar": 48926,
  "Antarctique</w>": 29523,
  "Anth": 24037,
  "Anthony</w>": 12473,
  "Anti": 7490,
  "Anti-": 26812,
  "Antibes</w>": 35583,
  "Antilles</w>": 19440,
  "Antiquité</w>": 17837,
  "Anto": 42096,
  "Antoine</w>": 4803,
  "Antoinette</w>": 45230,
  "Anton": 19730,
  "Anton</w>": 34341,
  "Antoni": 44309,
  "Antonin</w>": 39544,
  "Antonio</w>": 10794,
  "Anvers</w>": 17827,
  "Ao": 48077,
  "Aoû</w>": 35159,
  "Août</w>": 18430,
  "Ap": 3491,
  "Apa": 47193,
  "Apache</w>": 44041,
  "Aperçu</w>": 9911,
  "Aph": 43718,
  "Apo": 39524,
  "Apocalypse</w>": 30792,
  "Apoll": 36544,
  "Apollo</w>": 39467,
  "Apollon</w>": 36044,
  "App": 34721,
  "App</w>": 24394,
  "Appar": 44616,
  "Apparemment</w>": 22000,
  "Appartement</w>": 11478,
  "Appel": 20232,
  "Appel</w>": 19920,
  "Applau": 49992,
  "Applaudissements</w>": 38365,
  "Apple</w>": 4507,
  "Appli": 19187,
  "Application</w>": 19363,
  "Applications</w>": 44810,
  "Appliquer</w>": 30837,
  "Appr": 35297,
  "Appren": 50150,
  "Apprendre</w>": 24331,
  "Apprenez-en</w>": 23518,
  "Apprenez</w>": 40993,
  "Approche</w>": 38902,
  "Appu": 28394,
  "Appuyez</w>": 19769,
  "Apr": 34359,
  "Apres": 51004,
  "Apres</w>": 30696,
  "Apreslachat</w>": 27643,
  "April</w>": 31896,
  "Après</w>": 391,
  "Apôtres</w>": 46293,
  "Aq": 32860,
  "Aqu": 22189,
  "Aquit": 48913,
  "Aquitaine</w>": 13049,
  "Ar": 929,
  "Ara": 31199,
  "Arab": 42023,
  "Arabe</w>": 32978,
  "Arabes</w>": 14001,
  "Arabie</w>": 7830,
  "Araf": 51443,
  "Arafat</w>": 40983,
  "Aragon</w>": 26235,
  "Arbi": 43934,
  "Arbre</w>": 42125,
  "Arc": 26441,
  "Arc</w>": 16930,
  "Arca": 46986,
  "Arcachon</w>": 43940,
  "Arcel": 49168,
  "Arcelor": 45074,
  "Arch": 34732,
  "Arche</w>": 37616,
  "Archi": 20356,
  "Architec": 31986,
  "Architecture</w>": 26180,
  "Archives</w>": 11708,
  "Arché": 38462,
  "Arctique</w>": 23326,
  "Ard": 42752,
  "Ardenne</w>": 47223,
  "Ardennes</w>": 25628,
  "Ardèche</w>": 23200,
  "Are": 23786,
  "Aren": 47072,
  "Arena</w>": 26173,
  "Areva</w>": 24840,
  "Argent": 26539,
  "Argent</w>": 20162,
  "Argenti": 33110,
  "Argentin</w>": 30634,
  "Argentine</w>": 7208,
  "Ari": 12397,
  "Ariane</w>": 24943,
  "Ariel</w>": 39132,
  "Aristi": 49685,
  "Aristide</w>": 45176,
  "Aristo": 48948,
  "Aristote</w>": 22343,
  "Arizona</w>": 22319,
  "Ariège</w>": 38547,
  "Ark": 23768,
  "Arles</w>": 26512,
  "Arm": 19506,
  "Armand</w>": 20101,
  "Armes</w>": 45895,
  "Armor</w>": 33882,
  "Armstrong</w>": 27476,
  "Army</w>": 40356,
  "Armé": 48634,
  "Armée</w>": 9189,
  "Arménie</w>": 17719,
  "Arméniens</w>": 35071,
  "Arn": 24947,
  "Arnau": 39289,
  "Arnaud</w>": 8963,
  "Arnold</w>": 29121,
  "Arr": 31318,
  "Arr.": 37874,
  "Arras</w>": 32244,
  "Arri": 35129,
  "Arriv": 47685,
  "Arrivé</w>": 18870,
  "Arrivée-": 53904,
  "Arrivée</w>": 26021,
  "Arrivés</w>": 40734,
  "Arro": 40319,
  "Arrê": 24552,
  "Arrêt</w>": 22847,
  "Arrêté</w>": 25360,
  "Ars": 48672,
  "Arsenal</w>": 17535,
  "Arsène</w>": 40458,
  "Art": 24089,
  "Art</w>": 4962,
  "Artagnan</w>": 42406,
  "Arte</w>": 25255,
  "Arth": 28185,
  "Arthur</w>": 8763,
  "Arti": 15401,
  "Article</w>": 4516,
  "Articles</w>": 16689,
  "Artis": 29717,
  "Artiste</w>": 38389,
  "Artistes</w>": 43059,
  "Artois</w>": 40935,
  "Arts</w>": 8205,
  "As": 4754,
  "As-tu</w>": 40157,
  "As</w>": 22568,
  "Asc": 22954,
  "Ash": 18977,
  "Ashley</w>": 40205,
  "Ashton</w>": 40582,
  "Asi": 18922,
  "Asia</w>": 34931,
  "Asie-": 49305,
  "Asie-Pacifique</w>": 41191,
  "Asie</w>": 3093,
  "Aspec": 40563,
  "Aspi": 47895,
  "Aspirateur</w>": 45121,
  "Ass": 5289,
  "Assad</w>": 13573,
  "Assass": 40472,
  "Assembl": 29963,
  "Assemblée</w>": 1360,
  "Assez</w>": 25310,
  "Assi": 31470,
  "Assise</w>": 37750,
  "Assises</w>": 45198,
  "Assistance</w>": 18196,
  "Assistant</w>": 31653,
  "Associ": 19968,
  "Association</w>": 2854,
  "Associations</w>": 36193,
  "Associé</w>": 41073,
  "Associés</w>": 45294,
  "Assomption</w>": 42724,
  "Assu": 23648,
  "Assur": 40453,
  "Assurance</w>": 14284,
  "Assurances</w>": 27305,
  "Assurer</w>": 31840,
  "Assurez-vous</w>": 33238,
  "Ast": 21688,
  "Aston</w>": 43133,
  "Astr": 18126,
  "Astri": 46364,
  "Astu": 23571,
  "Astéri": 50304,
  "Astérix</w>": 37459,
  "Asus</w>": 40876,
  "At": 4675,
  "At</w>": 41889,
  "Ath": 11516,
  "Athle": 45472,
  "Athè": 49768,
  "Athènes</w>": 9565,
  "Atl": 48105,
  "Atlanta</w>": 23143,
  "Atlanti": 30369,
  "Atlantic</w>": 36101,
  "Atlantique</w>": 6681,
  "Atlantiques</w>": 49481,
  "Atlas</w>": 20672,
  "Atlético</w>": 39911,
  "Att": 21417,
  "Atta": 21487,
  "Attaque</w>": 44818,
  "Attend": 33018,
  "Attendez</w>": 41849,
  "Attent": 42861,
  "Attention</w>": 4149,
  "Atti": 33546,
  "Au": 2263,
  "Au-": 48414,
  "Au-delà</w>": 7549,
  "Au-dessus</w>": 39517,
  "Au</w>": 263,
  "Aub": 26744,
  "Aube</w>": 26013,
  "Auber": 34706,
  "Auberge</w>": 42965,
  "Aubert</w>": 40373,
  "Aubin</w>": 43388,
  "Aubry</w>": 17103,
  "Auc": 49373,
  "Auchan</w>": 37292,
  "Aucun</w>": 4408,
  "Aucune</w>": 4851,
  "Aud": 46110,
  "Aude</w>": 21054,
  "Audi": 15355,
  "Audi</w>": 19037,
  "Audio</w>": 39552,
  "Audrey</w>": 21637,
  "Aug": 19703,
  "Augus": 33198,
  "August</w>": 34821,
  "Auguste</w>": 12743,
  "Augustin</w>": 16861,
  "Aujourd'</w>": 1475,
  "Aujourd</w>": 43544,
  "Aul": 18960,
  "Auparavant</w>": 19780,
  "Aur": 18738,
  "Aurore</w>": 31813,
  "Auré": 48144,
  "Aurélie</w>": 24474,
  "Aurélien</w>": 37498,
  "Aus": 20303,
  "Ausch": 49467,
  "Auschwitz</w>": 30346,
  "Aussi</w>": 2940,
  "Aussitôt</w>": 22169,
  "Austin</w>": 27724,
  "Austr": 46723,
  "Australi": 16706,
  "Australie</w>": 4276,
  "Australien</w>": 32130,
  "Aut": 17078,
  "Autant</w>": 7046,
  "Auteuil</w>": 44712,
  "Auteur</w>": 12483,
  "Auth": 26818,
  "Auto": 16219,
  "Auto</w>": 19008,
  "Autochtones</w>": 23950,
  "Autom": 23491,
  "Automne</w>": 44520,
  "Automobi": 48251,
  "Automobile</w>": 34142,
  "Auton": 34313,
  "Autorité</w>": 7420,
  "Autour</w>": 15070,
  "Autre</w>": 4919,
  "Autrefois</w>": 26635,
  "Autrement</w>": 8680,
  "Autres</w>": 6225,
  "Autri": 29436,
  "Autriche</w>": 4787,
  "Autrichiens</w>": 41739,
  "Auver": 30671,
  "Auvergne</w>": 14923,
  "Aux": 35348,
  "Aux</w>": 3414,
  "Auxerre</w>": 26761,
  "Av": 5487,
  "Aval": 35438,
  "Avant": 46584,
  "Avant-": 34986,
  "Avant</w>": 2129,
  "Avantages</w>": 36323,
  "Avec</w>": 497,
  "Aven": 24624,
  "Avengers</w>": 44369,
  "Avenir</w>": 25137,
  "Aventure</w>": 43113,
  "Avenue</w>": 17371,
  "Aver": 22557,
  "Aveyron</w>": 32074,
  "Avez-vous</w>": 12195,
  "Avi": 16870,
  "Aviation</w>": 30595,
  "Avignon</w>": 13102,
  "Avis</w>": 7213,
  "Avo": 36865,
  "Avocat</w>": 40031,
  "Avoir</w>": 14346,
  "Avr</w>": 21867,
  "Avril</w>": 13186,
  "Aw": 36434,
  "Award</w>": 26288,
  "Awards</w>": 17437,
  "Away</w>": 48719,
  "Ax": 18227,
  "Axe</w>": 38635,
  "Axel</w>": 32020,
  "Ay": 8661,
  "Ayant</w>": 8211,
  "Ayr": 48604,
  "Ayrault</w>": 17438,
  "Az": 7006,
  "Azerbaï": 49869,
  "Azerbaïdjan</w>": 18646,
  "Azi": 47892,
  "Aziz</w>": 36098,
  "Azur</w>": 13748,
  "Azz": 43837,
  "Aéro": 36505,
  "Aéroport</w>": 36594,
  "Aï": 13489,
  "B": 283,
  "B-": 14341,
  "B.": 10099,
  "B.</w>": 5390,
  "B.V.</w>": 32534,
  "B1</w>": 34980,
  "B2</w>": 33144,
  "B</w>": 900,
  "BA": 8612,
  "BA</w>": 10914,
  "BAC": 34612,
  "BAC</w>": 22418,
  "BAG": 44205,
  "BAL": 21582,
  "BAL</w>": 42007,
  "BAN": 18979,
  "BANC": 43267,
  "BANQUE</w>": 32046,
  "BAR": 14177,
  "BAS": 22118,
  "BASE</w>": 32613,
  "BAT": 33597,
  "BAT</w>": 40791,
  "BB": 19308,
  "BB</w>": 16950,
  "BBC</w>": 12836,
  "BC</w>": 10806,
  "BCE</w>": 8351,
  "BD</w>": 7663,
  "BDSP</w>": 24006,
  "BE": 9380,
  "BE</w>": 15686,
  "BEAU": 24021,
  "BEI</w>": 23175,
  "BEL": 18014,
  "BEN": 24807,
  "BER": 9620,
  "BERT</w>": 31344,
  "BES": 30508,
  "BES</w>": 45511,
  "BF</w>": 32738,
  "BFM": 49262,
  "BFM</w>": 28248,
  "BFMTV</w>": 30593,
  "BG</w>": 39056,
  "BI": 4354,
  "BI</w>": 17545,
  "BIEN": 38431,
  "BIEN</w>": 26831,
  "BILI": 38506,
  "BILITE</w>": 28316,
  "BILITÉ</w>": 25912,
  "BIN": 35219,
  "BIO": 33715,
  "BIO</w>": 40174,
  "BIT</w>": 44544,
  "BL": 10076,
  "BL</w>": 23003,
  "BLAN": 46394,
  "BLANC</w>": 38189,
  "BLE": 37456,
  "BLE</w>": 11052,
  "BLES</w>": 17757,
  "BLI": 32164,
  "BLISS": 36108,
  "BLO": 29005,
  "BM": 19419,
  "BM</w>": 27202,
  "BMW</w>": 12888,
  "BN": 20331,
  "BN</w>": 46889,
  "BNP</w>": 13657,
  "BO": 6521,
  "BO</w>": 17641,
  "BOIS</w>": 33689,
  "BON": 26187,
  "BON</w>": 31144,
  "BONN": 43804,
  "BONNE</w>": 39596,
  "BOR": 22864,
  "BOU": 11138,
  "BOUR": 18399,
  "BOURG</w>": 29199,
  "BOX</w>": 41783,
  "BP": 37694,
  "BP</w>": 13426,
  "BR": 10829,
  "BR</w>": 29978,
  "BRA": 23827,
  "BRE": 14741,
  "BRE</w>": 24452,
  "BRES</w>": 30519,
  "BRI": 15020,
  "BRO": 31254,
  "BRU": 47489,
  "BRUX": 50483,
  "BRUXELLES</w>": 42809,
  "BS</w>": 16789,
  "BT": 35714,
  "BT</w>": 25568,
  "BTP</w>": 23075,
  "BTS</w>": 8100,
  "BU": 11606,
  "BUDG": 45667,
  "BUR": 40306,
  "BURE": 34414,
  "BUS": 40300,
  "BV</w>": 34067,
  "BY</w>": 46303,
  "Ba": 7903,
  "Ba</w>": 45464,
  "Bab": 12088,
  "Baba</w>": 42013,
  "Baby": 41152,
  "Baby</w>": 25835,
  "Babylone</w>": 35513,
  "Bac": 20191,
  "Bac</w>": 13276,
  "Bach": 16918,
  "Bach</w>": 20446,
  "Bachar</w>": 15829,
  "Bachel": 37155,
  "Back": 23512,
  "Back</w>": 32777,
  "Bad": 12030,
  "Bad</w>": 24971,
  "Bag": 15311,
  "Bagdad</w>": 18160,
  "Bagn": 34420,
  "Bah": 20539,
  "Bah</w>": 27824,
  "Bahamas</w>": 38965,
  "Bahreï": 50310,
  "Bahreïn</w>": 30580,
  "Bai": 22098,
  "Baie-": 40275,
  "Baie</w>": 24673,
  "Baill": 43913,
  "Bain</w>": 38054,
  "Bains</w>": 37646,
  "Bak": 12544,
  "Baker</w>": 28512,
  "Bal": 4032,
  "Balance</w>": 39689,
  "Bali</w>": 31739,
  "Balk": 47408,
  "Balkans</w>": 20150,
  "Ball": 16804,
  "Ball</w>": 27694,
  "Balladur</w>": 38316,
  "Ballet</w>": 45254,
  "Ballon</w>": 26596,
  "Balti": 49763,
  "Baltimore</w>": 33818,
  "Baltique</w>": 31988,
  "Balzac</w>": 29613,
  "Bam": 34560,
  "Bamako</w>": 26485,
  "Bamb": 45190,
  "Ban": 5924,
  "Ban</w>": 23918,
  "Banc": 34181,
  "Band": 27664,
  "Band</w>": 30198,
  "Bande</w>": 27503,
  "Bang": 33907,
  "Bang</w>": 37760,
  "Bangkok</w>": 25603,
  "Bangl": 49846,
  "Bangladesh</w>": 19568,
  "Bangui</w>": 32240,
  "Bank</w>": 9880,
  "Banque</w>": 2619,
  "Banques</w>": 44052,
  "Bap": 38724,
  "Baptis": 36338,
  "Baptiste</w>": 24491,
  "Bar": 1776,
  "Bar</w>": 18516,
  "Barack</w>": 7579,
  "Barb": 22804,
  "Barbade</w>": 43622,
  "Barbar": 33931,
  "Barbara</w>": 17439,
  "Barbe</w>": 37680,
  "Barbie</w>": 27101,
  "Barbier</w>": 43293,
  "Barcel": 32909,
  "Barcelone</w>": 6632,
  "Barcl": 36082,
  "Baron</w>": 30643,
  "Barr": 16118,
  "Barre</w>": 31436,
  "Barreau</w>": 45037,
  "Barrette</w>": 40674,
  "Barri": 32775,
  "Barro": 49733,
  "Barroso</w>": 38231,
  "Barry</w>": 24182,
  "Bart</w>": 32225,
  "Barth": 24497,
  "Barthél": 44794,
  "Barthélemy</w>": 41521,
  "Bartol": 28440,
  "Barça</w>": 19550,
  "Bas": 6389,
  "Bas-": 25978,
  "Bas-Rhin</w>": 25678,
  "Bas</w>": 17424,
  "Base</w>": 16481,
  "Bash": 44071,
  "Basi": 19156,
  "Basile</w>": 46365,
  "Basket</w>": 38206,
  "Basque</w>": 31403,
  "Bass": 18721,
  "Basse-": 26629,
  "Basse-Normandie</w>": 44306,
  "Basse</w>": 35539,
  "Bassin</w>": 30148,
  "Basti": 30040,
  "Bastia</w>": 20155,
  "Bastien</w>": 41145,
  "Bastille</w>": 26751,
  "Basé</w>": 33794,
  "Bat": 7418,
  "Bataclan</w>": 42391,
  "Bataille</w>": 23263,
  "Bath": 36702,
  "Bati": 35345,
  "Batman</w>": 19823,
  "Batt": 23437,
  "Batterie</w>": 38390,
  "Battle</w>": 38860,
  "Battre</w>": 45638,
  "Bau": 9107,
  "Baudel": 49987,
  "Baudelaire</w>": 32689,
  "Baudouin</w>": 41691,
  "Bauer</w>": 39296,
  "Bav": 39221,
  "Bavière</w>": 21177,
  "Bay": 9964,
  "Bay</w>": 13056,
  "Bayer</w>": 43457,
  "Bayern</w>": 19724,
  "Bayonne</w>": 23174,
  "Bayrou</w>": 15217,
  "Baz": 17788,
  "Be": 2726,
  "Be</w>": 31513,
  "Beach</w>": 16247,
  "Beat": 48080,
  "Beatles</w>": 26554,
  "Beau": 4563,
  "Beau</w>": 23888,
  "Beauce</w>": 42877,
  "Beaucoup</w>": 4036,
  "Beaujolais</w>": 43222,
  "Beaulieu</w>": 30308,
  "Beaumont</w>": 29718,
  "Beaune</w>": 39690,
  "Beauté</w>": 20620,
  "Beauvais</w>": 32338,
  "Beaux-": 48490,
  "Beaux-Arts</w>": 21883,
  "Beaux</w>": 23259,
  "Bec": 27584,
  "Beck": 33316,
  "Beck</w>": 44321,
  "Becker</w>": 42470,
  "Beckham</w>": 41870,
  "Bed": 45340,
  "Beet": 49181,
  "Beethoven</w>": 29247,
  "Bei": 35546,
  "Beijing</w>": 28429,
  "Bek": 44467,
  "Bel": 3024,
  "Bel</w>": 19856,
  "Belfort</w>": 28261,
  "Belge</w>": 17125,
  "Belges</w>": 18073,
  "Belgi": 25027,
  "Belgique</w>": 1911,
  "Belgrade</w>": 23382,
  "Beli": 35853,
  "Belk": 48196,
  "Belkacem</w>": 36923,
  "Bell": 38029,
  "Bell</w>": 14485,
  "Bella</w>": 31437,
  "Belle": 20816,
  "Belle-": 42279,
  "Belle</w>": 8481,
  "Belles</w>": 36874,
  "Belleville</w>": 43930,
  "Ben": 3985,
  "Ben</w>": 4349,
  "Bene": 43707,
  "Beng": 35407,
  "Bengh": 50345,
  "Benghazi</w>": 40898,
  "Benjamin</w>": 9028,
  "Benn": 23317,
  "Bennett</w>": 40665,
  "Benoit</w>": 17866,
  "Benoît</w>": 6285,
  "Bent": 29072,
  "Benz": 48846,
  "Benz</w>": 38098,
  "Benzema</w>": 31026,
  "Ber": 2303,
  "Bercy</w>": 15061,
  "Berg": 22276,
  "Berger": 47840,
  "Berger</w>": 24934,
  "Bergerac</w>": 44538,
  "Bergeron</w>": 32237,
  "Berlin": 34197,
  "Berlin</w>": 4670,
  "Berlus": 50613,
  "Berlusconi</w>": 22429,
  "Bern": 8972,
  "Bernad": 48704,
  "Bernadette</w>": 32551,
  "Bernard": 42517,
  "Bernard</w>": 3012,
  "Berne</w>": 22696,
  "Bernie</w>": 40431,
  "Bernier</w>": 34400,
  "Berry</w>": 24704,
  "Berth": 29395,
  "Bertr": 47832,
  "Bertrand</w>": 7994,
  "Bes": 14216,
  "Besançon</w>": 19095,
  "Besoin</w>": 30196,
  "Bess": 36480,
  "Besson</w>": 27798,
  "Best</w>": 25344,
  "Bet": 11119,
  "Beth": 26862,
  "Betten": 50019,
  "Bettencourt</w>": 36771,
  "Betty</w>": 35912,
  "Beu": 29238,
  "Beur": 33565,
  "Bever": 34256,
  "Bey": 30373,
  "Beyoncé</w>": 36517,
  "Beyrou": 50012,
  "Beyrouth</w>": 23596,
  "Bez": 45632,
  "Bi": 1882,
  "Bian": 46390,
  "Biarri": 50339,
  "Biarritz</w>": 29107,
  "Bible</w>": 9826,
  "Biblio": 36728,
  "Bibliothè": 47600,
  "Bibliothèque</w>": 9835,
  "Bid": 29986,
  "Bieber</w>": 39900,
  "Bien": 29593,
  "Bien-": 36853,
  "Bien</w>": 1092,
  "Biennale</w>": 44186,
  "Bientôt</w>": 15447,
  "Bienvenue</w>": 12827,
  "Big": 41791,
  "Big</w>": 9037,
  "Bil": 12985,
  "Bilan</w>": 21476,
  "Bilbao</w>": 39691,
  "Bill": 22539,
  "Bill</w>": 9041,
  "Billancourt</w>": 44232,
  "Billboard</w>": 44594,
  "Billi": 45422,
  "Billy</w>": 20955,
  "Bin": 24326,
  "Bio": 14766,
  "Bio</w>": 23308,
  "Bir": 11573,
  "Bird</w>": 43578,
  "Birmanie</w>": 24198,
  "Birmingham</w>": 39589,
  "Bis": 8563,
  "Biss": 47450,
  "Bissau</w>": 48799,
  "Bit": 18867,
  "Biz": 43240,
  "Biélor": 49167,
  "Biélorussie</w>": 36812,
  "Bj": 36928,
  "Bl": 5114,
  "Bla": 16410,
  "Black": 13665,
  "Black</w>": 7884,
  "BlackBerry</w>": 45263,
  "Blacks</w>": 41282,
  "Blair</w>": 28329,
  "Blaise</w>": 23307,
  "Blake</w>": 27516,
  "Blan": 9445,
  "Blanc": 26377,
  "Blanc</w>": 7175,
  "Blanche</w>": 8574,
  "Blancs</w>": 20771,
  "Blatter</w>": 43406,
  "Ble": 44070,
  "Bleu</w>": 14225,
  "Bleue</w>": 34688,
  "Bleus</w>": 11167,
  "Bli": 22020,
  "Blo": 9905,
  "Bloc</w>": 22259,
  "Blog": 36929,
  "Blog</w>": 14835,
  "Blois</w>": 31220,
  "Blon": 21535,
  "Blood</w>": 39183,
  "Bloomberg</w>": 34668,
  "Blu": 17332,
  "Blu-": 46799,
  "Blu-ray</w>": 35846,
  "Blue": 43898,
  "Blue</w>": 11577,
  "Blues</w>": 19569,
  "Bluetooth</w>": 22589,
  "Bn": 48439,
  "BnF</w>": 44030,
  "Bo": 2326,
  "Bo</w>": 43088,
  "Board</w>": 29774,
  "Bob": 21367,
  "Bob</w>": 10859,
  "Bobby</w>": 28205,
  "Bobigny</w>": 42280,
  "Boc": 23668,
  "Bod": 44473,
  "Body</w>": 45005,
  "Boe": 47282,
  "Boeing</w>": 16325,
  "Bog": 27838,
  "Boh": 34149,
  "Bohême</w>": 44798,
  "Boi": 17217,
  "Bois": 12941,
  "Bois</w>": 9723,
  "Boko</w>": 24226,
  "Bol": 9257,
  "Boli": 47120,
  "Bolivie</w>": 21137,
  "Boll": 33240,
  "Bolloré</w>": 35332,
  "Bologne</w>": 27360,
  "Bomb": 29024,
  "Bombardier</w>": 28491,
  "Bombay</w>": 43792,
  "Bon": 5065,
  "Bon</w>": 2797,
  "Bonaparte</w>": 18362,
  "Bond</w>": 21923,
  "Bongo</w>": 29398,
  "Bonheur</w>": 42954,
  "Boni": 24271,
  "Bonjour</w>": 9693,
  "Bonn": 12466,
  "Bonn</w>": 35456,
  "Bonne</w>": 7626,
  "Bonnes</w>": 37654,
  "Bonnet</w>": 35502,
  "Bons</w>": 39375,
  "Boo": 17176,
  "Book": 35274,
  "Book</w>": 20302,
  "Books</w>": 44438,
  "Bor": 4108,
  "Bord": 21674,
  "Borde": 37271,
  "Bordeaux</w>": 3970,
  "Boris</w>": 17768,
  "Borloo</w>": 33356,
  "Bos": 12446,
  "Bosch</w>": 36012,
  "Bosni": 46878,
  "Bosnie-": 50574,
  "Bosnie-Herzégovine</w>": 19094,
  "Bosnie</w>": 23445,
  "Boss</w>": 37890,
  "Boston</w>": 10924,
  "Bot": 16361,
  "Botsw": 50557,
  "Botswana</w>": 38979,
  "Bou": 1731,
  "Bouchard</w>": 18787,
  "Boucher</w>": 25439,
  "Bouches-": 50132,
  "Bouches-du-Rhône</w>": 25113,
  "Boucle</w>": 41986,
  "Boudd": 47681,
  "Bouddha</w>": 26969,
  "Boul": 9641,
  "Boulevard</w>": 29725,
  "Boulo": 49838,
  "Boulogne-": 35804,
  "Boulogne</w>": 24769,
  "Bour": 4798,
  "Bourbon</w>": 23167,
  "Bourg": 36207,
  "Bourg-": 37320,
  "Bourg</w>": 33460,
  "Bourgeois</w>": 35077,
  "Bourges</w>": 26779,
  "Bourget</w>": 29739,
  "Bourgogne</w>": 9412,
  "Bourgui": 35148,
  "Bourse</w>": 5352,
  "Bourses</w>": 30811,
  "Boursor": 52424,
  "Boursorama": 50645,
  "Boursorama</w>": 49156,
  "BoursoramaBoursorama</w>": 43392,
  "Bous": 44916,
  "Bouss": 39321,
  "Boute": 47164,
  "Bouteflika</w>": 38570,
  "Bouti": 47594,
  "Boutin</w>": 40566,
  "Boutique</w>": 28116,
  "Bouv": 43870,
  "Bouy": 49138,
  "Bouygues</w>": 25068,
  "Bow": 26559,
  "Bowie</w>": 35462,
  "Bowl</w>": 32325,
  "Box": 36084,
  "Box</w>": 14781,
  "Boy": 18043,
  "Boy</w>": 24013,
  "Boyer</w>": 37166,
  "Boys</w>": 32812,
  "Boîte</w>": 26409,
  "Br": 3199,
  "Bra": 9104,
  "Brab": 47551,
  "Brabant</w>": 29957,
  "Brac": 31768,
  "Brad": 30157,
  "Brad</w>": 23775,
  "Bradley</w>": 34374,
  "Brah": 34650,
  "Bran": 7302,
  "Brandon</w>": 37056,
  "Brass": 19571,
  "Brau": 29944,
  "Bravo": 49577,
  "Bravo</w>": 15503,
  "Bravofly</w>": 44842,
  "Bray</w>": 38092,
  "Brazz": 50078,
  "Brazzaville</w>": 34025,
  "Bre": 6973,
  "Break": 27778,
  "Bref</w>": 3357,
  "Bren": 29535,
  "Brend": 34401,
  "Brent</w>": 32458,
  "Bres": 23747,
  "Bresse</w>": 34845,
  "Brest</w>": 13284,
  "Bret": 16787,
  "Bretagne</w>": 4580,
  "Breton</w>": 19390,
  "Bretons</w>": 34654,
  "Brev": 48879,
  "Brevet</w>": 31625,
  "Brexit</w>": 16646,
  "Bri": 4468,
  "Brian</w>": 13475,
  "Brice</w>": 26439,
  "Brid": 43460,
  "Bridge</w>": 33105,
  "Brie</w>": 43307,
  "Brieuc</w>": 43035,
  "Brig": 47354,
  "Brigade</w>": 33708,
  "Brigi": 49229,
  "Brigitte</w>": 15577,
  "Brill": 44741,
  "Bris": 18203,
  "Bristo": 50299,
  "Bristol</w>": 43904,
  "Brit": 19598,
  "Britanni": 47979,
  "Britannique</w>": 16757,
  "Britanniques</w>": 13494,
  "British</w>": 15486,
  "Britney</w>": 46400,
  "Brive</w>": 44007,
  "Bro": 4715,
  "Broad": 45673,
  "Broadway</w>": 34722,
  "Broché</w>": 40197,
  "Brom": 34646,
  "Bron": 20874,
  "Bron</w>": 43530,
  "Bronze</w>": 44786,
  "Brook": 47569,
  "Brooke</w>": 46081,
  "Brooklyn</w>": 26742,
  "Brooks</w>": 45316,
  "Bros</w>": 40962,
  "Brothers</w>": 30328,
  "Brou": 19282,
  "Brow": 38271,
  "Brown</w>": 11494,
  "Bru": 7207,
  "Bruce</w>": 17376,
  "Bruges</w>": 23771,
  "Bruins</w>": 32218,
  "Brun": 10229,
  "Brun</w>": 37808,
  "Bruno</w>": 6070,
  "Bruns": 49123,
  "Brunswick</w>": 47118,
  "Bruss": 47479,
  "Brussels</w>": 36801,
  "Brux": 35375,
  "Bruxelles-": 39654,
  "Bruxelles</w>": 2366,
  "Bry": 29316,
  "Bryan</w>": 29506,
  "Bré": 27240,
  "Brési": 47763,
  "Brésil</w>": 3798,
  "Brésilien</w>": 29423,
  "Brésiliens</w>": 44661,
  "Brû": 45700,
  "Bu": 2464,
  "Bucar": 50442,
  "Bucarest</w>": 33665,
  "Buck": 30398,
  "Bud": 38707,
  "Budap": 50387,
  "Budapest</w>": 22080,
  "Budget</w>": 15376,
  "Buen": 48176,
  "Buenos</w>": 20308,
  "Buff": 21271,
  "Buffalo</w>": 33745,
  "Buffy</w>": 44386,
  "Bug": 40929,
  "Buil": 33391,
  "Buisson</w>": 43285,
  "Bul": 19814,
  "Bulgar": 47021,
  "Bulgarie</w>": 11412,
  "Bull": 21643,
  "Bull</w>": 8922,
  "Bulle": 49241,
  "Bulletin</w>": 16083,
  "Bun": 19284,
  "Bundes": 24039,
  "Bundesliga</w>": 42717,
  "Bur": 5100,
  "Bureau</w>": 3200,
  "Bureaux</w>": 38417,
  "Burger</w>": 45245,
  "Burkina</w>": 13431,
  "Burns</w>": 46055,
  "Burton</w>": 32282,
  "Burundi</w>": 16809,
  "Bus": 15237,
  "Bus</w>": 30374,
  "Bush</w>": 9229,
  "Business</w>": 11110,
  "But": 21940,
  "But</w>": 20168,
  "Butler</w>": 38548,
  "Buu": 49938,
  "Buuyers</w>": 39952,
  "By": 17361,
  "By</w>": 20260,
  "Byron</w>": 42688,
  "Bâ": 18662,
  "Bâle</w>": 16974,
  "Bâtiment</w>": 25205,
  "Bé": 11099,
  "Béarn</w>": 41452,
  "Béatrice</w>": 25049,
  "Béb": 47546,
  "Bébé</w>": 27080,
  "Béch": 43918,
  "Béd": 39946,
  "Bég": 44402,
  "Bél": 34385,
  "Bélanger</w>": 43782,
  "Bélarus</w>": 35153,
  "Béli": 41518,
  "Bén": 15005,
  "Bénin</w>": 15479,
  "Béné": 47175,
  "Bénéfici": 26650,
  "Bér": 24125,
  "Béré": 42205,
  "Béziers</w>": 30889,
  "Bête</w>": 39395,
  "C": 318,
  "C'</w>": 113,
  "C-": 5462,
  "C.": 4984,
  "C.1</w>": 44889,
  "C.3</w>": 42929,
  "C.</w>": 3999,
  "C.C.": 43394,
  "C1</w>": 21067,
  "C2</w>": 34519,
  "C3</w>": 35451,
  "C4</w>": 42479,
  "C</w>": 548,
  "CA": 1808,
  "CA</w>": 4233,
  "CAA</w>": 39580,
  "CAC</w>": 15424,
  "CAD</w>": 28753,
  "CADRE</w>": 33337,
  "CAF</w>": 19591,
  "CAHIER</w>": 31478,
  "CAL": 18564,
  "CAL</w>": 25154,
  "CALE</w>": 42757,
  "CAM": 34402,
  "CAM</w>": 35427,
  "CAN": 10879,
  "CAN</w>": 15576,
  "CANADA</w>": 29841,
  "CANDI": 43080,
  "CAP</w>": 16326,
  "CAPI": 33526,
  "CAQ</w>": 33354,
  "CAR": 7823,
  "CAR</w>": 26624,
  "CARAC": 31339,
  "CARTE</w>": 42873,
  "CAS</w>": 17357,
  "CAT</w>": 24095,
  "CATA": 43198,
  "CATE": 42196,
  "CATION</w>": 26055,
  "CATIONS</w>": 23761,
  "CB-": 41988,
  "CB</w>": 16558,
  "CBC</w>": 38659,
  "CBS</w>": 31620,
  "CC": 7152,
  "CC</w>": 8581,
  "CCC</w>": 43036,
  "CCE</w>": 45179,
  "CCI</w>": 19359,
  "CD": 7052,
  "CD-": 41312,
  "CD-ROM</w>": 45709,
  "CD</w>": 4612,
  "CDC</w>": 31648,
  "CDD</w>": 20433,
  "CDH</w>": 39069,
  "CDI</w>": 13958,
  "CDU</w>": 38810,
  "CE": 3203,
  "CE-": 40685,
  "CE1</w>": 45972,
  "CE</w>": 1212,
  "CEA</w>": 27099,
  "CECA</w>": 18004,
  "CED</w>": 49080,
  "CEDE": 41321,
  "CEDEAO</w>": 42825,
  "CEDH</w>": 45855,
  "CEE-": 43788,
  "CEE</w>": 2091,
  "CEF</w>": 47082,
  "CEI</w>": 30285,
  "CEM": 43518,
  "CEM</w>": 42896,
  "CEMENT</w>": 29826,
  "CEN": 19144,
  "CENT": 31029,
  "CENTRE</w>": 23053,
  "CEO</w>": 28613,
  "CEP": 32226,
  "CEP</w>": 42625,
  "CER": 13672,
  "CER</w>": 29752,
  "CERTI": 31174,
  "CES": 12897,
  "CES</w>": 7022,
  "CET</w>": 40002,
  "CETTE</w>": 25664,
  "CF": 8078,
  "CF</w>": 14689,
  "CFA</w>": 14563,
  "CFC</w>": 42410,
  "CFDT</w>": 15592,
  "CFP</w>": 41127,
  "CFTC</w>": 35457,
  "CG": 9348,
  "CG</w>": 19966,
  "CGC</w>": 37191,
  "CGI</w>": 43456,
  "CGT</w>": 8665,
  "CH": 2261,
  "CH</w>": 10042,
  "CHA": 23953,
  "CHAM": 17110,
  "CHAN": 13588,
  "CHAPI": 50054,
  "CHAPITRE</w>": 18214,
  "CHAR": 11639,
  "CHARGE</w>": 45601,
  "CHARGES</w>": 38892,
  "CHAU": 29429,
  "CHAUFF": 42955,
  "CHE": 15360,
  "CHE</w>": 9260,
  "CHER": 36038,
  "CHER</w>": 32396,
  "CHES</w>": 19721,
  "CHETTE</w>": 49549,
  "CHEZ</w>": 37256,
  "CHF</w>": 16838,
  "CHI": 15509,
  "CHO": 24727,
  "CHRIS": 46497,
  "CHU</w>": 21105,
  "CI": 2223,
  "CI</w>": 8910,
  "CIA</w>": 11563,
  "CIC</w>": 35379,
  "CICE</w>": 34844,
  "CICR</w>": 43755,
  "CID": 43748,
  "CIE</w>": 45977,
  "CIEL</w>": 45742,
  "CIER</w>": 45236,
  "CIN": 25514,
  "CIO</w>": 20814,
  "CIPA": 50236,
  "CIR": 26857,
  "CIS": 33861,
  "CIS</w>": 31216,
  "CITE</w>": 29551,
  "CIVI": 38571,
  "CJ": 34697,
  "CK": 20008,
  "CK</w>": 18422,
  "CL": 5649,
  "CL</w>": 22643,
  "CLAR": 42987,
  "CLAS": 45527,
  "CLAU": 38204,
  "CLE</w>": 27696,
  "CLES</w>": 34382,
  "CLI": 16703,
  "CLIENT</w>": 39346,
  "CLO": 39692,
  "CLU": 24449,
  "CLUB</w>": 44348,
  "CM": 10057,
  "CM2</w>": 33896,
  "CM</w>": 10461,
  "CMS</w>": 29375,
  "CN": 4703,
  "CN.": 31654,
  "CN.4</w>": 34987,
  "CN</w>": 14333,
  "CNC</w>": 39169,
  "CNIL</w>": 36467,
  "CNN</w>": 28231,
  "CNRC</w>": 33583,
  "CNRS</w>": 13164,
  "CNS</w>": 39504,
  "CNT</w>": 39700,
  "CNU": 46581,
  "CNUCED</w>": 24662,
  "CO": 2252,
  "CO-": 23734,
  "CO2</w>": 9024,
  "CO</w>": 6925,
  "CODE</w>": 31688,
  "COL": 16565,
  "COLE</w>": 21556,
  "COLL": 27019,
  "COLLECTI": 28480,
  "COM": 13055,
  "COM</w>": 8127,
  "COMI": 46739,
  "COMITÉ</w>": 43264,
  "COMM": 18117,
  "COMME</w>": 31846,
  "COMMENT</w>": 30589,
  "COMMENTAIRE</w>": 14455,
  "COMMER": 48789,
  "COMMERCE</w>": 29173,
  "COMMERCI": 32699,
  "COMMISSION</w>": 19227,
  "COMMUN": 26466,
  "COMMUNAU": 29899,
  "COMMUNE</w>": 29039,
  "COMMUNI": 27980,
  "COMMUNICATION</w>": 31517,
  "COMP": 7125,
  "COMPAG": 35590,
  "COMPTA": 42093,
  "COMPTE</w>": 21295,
  "COMPTES</w>": 43450,
  "CON": 2816,
  "CONCER": 47008,
  "CONCERNANT</w>": 46412,
  "CONCOURS</w>": 27519,
  "CONDITIONS</w>": 16261,
  "CONFI": 34850,
  "CONN": 32012,
  "CONNA": 38166,
  "CONOMI": 50941,
  "CONSE": 33905,
  "CONSEIL</w>": 10730,
  "CONSI": 42276,
  "CONSOMM": 42973,
  "CONSTRUCTION</w>": 46121,
  "CONSUL": 32642,
  "CONTA": 34993,
  "CONTEN": 38366,
  "CONTIN": 43861,
  "CONTRA": 45212,
  "CONTRAT</w>": 25737,
  "CONTRE</w>": 27330,
  "CONVENTION</w>": 35442,
  "COP": 38044,
  "COP21</w>": 40849,
  "COP</w>": 28367,
  "COR": 11954,
  "CORD</w>": 42376,
  "CORE</w>": 40357,
  "COU": 8407,
  "COUR": 19615,
  "COURS</w>": 18919,
  "CP": 12357,
  "CP</w>": 7712,
  "CPA</w>": 40074,
  "CPE</w>": 21149,
  "CPI</w>": 21928,
  "CPU</w>": 40263,
  "CQ": 38730,
  "CR": 4957,
  "CR</w>": 16917,
  "CRA": 31303,
  "CRC</w>": 39545,
  "CRD": 47506,
  "CRDI</w>": 45948,
  "CRE": 10363,
  "CRI": 14985,
  "CRI</w>": 46207,
  "CRM</w>": 23105,
  "CRO": 14763,
  "CRS</w>": 29575,
  "CRTC</w>": 42397,
  "CRÉ": 20180,
  "CS": 7048,
  "CS</w>": 7783,
  "CSA</w>": 17491,
  "CSC</w>": 34285,
  "CSG</w>": 33255,
  "CSI</w>": 42661,
  "CSN</w>": 41297,
  "CSP</w>": 33728,
  "CSS": 34535,
  "CSS</w>": 32150,
  "CT": 14018,
  "CT</w>": 11293,
  "CTI": 22904,
  "CTION</w>": 43951,
  "CTIONS</w>": 38661,
  "CU": 8419,
  "CUEIL</w>": 48957,
  "CUIS": 40843,
  "CUL": 18091,
  "CULTURE</w>": 31461,
  "CUR": 44767,
  "CV": 24222,
  "CV</w>": 9822,
  "CY": 20833,
  "CY</w>": 43490,
  "Ca": 6985,
  "Ca</w>": 3885,
  "Cab": 8243,
  "Cabinet</w>": 17645,
  "Cac</w>": 36171,
  "Cach": 23644,
  "Cad": 14558,
  "Cadeau</w>": 28085,
  "Cadi": 26289,
  "Cadre</w>": 16121,
  "Caen</w>": 13357,
  "Caf": 32834,
  "Café</w>": 16404,
  "Cag": 41193,
  "Cage</w>": 44569,
  "Cah": 32778,
  "Cahier</w>": 31950,
  "Cahiers</w>": 25244,
  "Cahu": 49960,
  "Cahuzac</w>": 29422,
  "Cai": 41084,
  "Caill": 38010,
  "Caire</w>": 12077,
  "Caisse</w>": 9469,
  "Cal": 4002,
  "Calais</w>": 15967,
  "Calcul</w>": 44928,
  "Calend": 48467,
  "Calendrier</w>": 32771,
  "Calgary</w>": 21161,
  "Cali": 22244,
  "Califor": 47048,
  "California</w>": 42111,
  "Californie</w>": 6657,
  "Call": 25764,
  "Call</w>": 29806,
  "Calme</w>": 38068,
  "Calvados</w>": 31453,
  "Calvin</w>": 34550,
  "Calé": 49214,
  "Calédonie</w>": 47861,
  "Cam": 3550,
  "Cam</w>": 44329,
  "Camara</w>": 46318,
  "Camb": 40184,
  "Cambo": 48335,
  "Cambodge</w>": 18545,
  "Cambridge</w>": 23271,
  "Camer": 33813,
  "Cameron</w>": 14845,
  "Cameroun</w>": 9902,
  "Camille</w>": 11481,
  "Camp": 32783,
  "Camp</w>": 20897,
  "Campagne</w>": 27634,
  "Campbell</w>": 27035,
  "Camping</w>": 28646,
  "Campus</w>": 31644,
  "Camus</w>": 27684,
  "Can": 3633,
  "Can</w>": 33669,
  "Canad": 25465,
  "Canada</w>": 511,
  "Canadi": 48612,
  "Canadian</w>": 25995,
  "Canadien</w>": 8990,
  "Canadienne</w>": 35123,
  "Canadiennes</w>": 25460,
  "Canadiens</w>": 5337,
  "Canal</w>": 8246,
  "Canalisation</w>": 31610,
  "Canard</w>": 27630,
  "Canaries</w>": 36351,
  "Canc": 36682,
  "Cancer</w>": 33263,
  "Cand": 38371,
  "Candid": 30614,
  "Cann": 23852,
  "Cannes</w>": 8277,
  "Canon</w>": 23339,
  "Cant": 17731,
  "Cantal</w>": 40389,
  "Canton</w>": 27784,
  "Canyon</w>": 46459,
  "Cap": 6060,
  "Cap-": 25542,
  "Cap</w>": 10744,
  "Capa": 41110,
  "Capacité</w>": 24074,
  "Cape</w>": 44694,
  "Capi": 34892,
  "Capit": 21803,
  "Capitaine</w>": 21023,
  "Capital</w>": 14436,
  "Capitale</w>": 24473,
  "Capitole</w>": 37147,
  "Capri": 28161,
  "Captain</w>": 35591,
  "Car": 1388,
  "Car</w>": 1449,
  "Carac": 47977,
  "Caracas</w>": 43962,
  "Caract": 39944,
  "Caractéris": 46959,
  "Caractéristiques</w>": 16155,
  "Caraï": 47509,
  "Caraïbes</w>": 10775,
  "Carcass": 49356,
  "Carcassonne</w>": 25919,
  "Card</w>": 31468,
  "Cardi": 25221,
  "Cardin": 45973,
  "Cardinal</w>": 33393,
  "Care</w>": 41174,
  "Carey</w>": 33761,
  "Cari": 21346,
  "Carl": 40569,
  "Carl</w>": 16136,
  "Carla</w>": 28800,
  "Carlo</w>": 20947,
  "Carlos</w>": 10629,
  "Carm": 29698,
  "Carmen</w>": 26648,
  "Carnaval</w>": 37927,
  "Carol": 35807,
  "Carol</w>": 36842,
  "Carole</w>": 25266,
  "Caroline</w>": 7853,
  "Caron</w>": 37749,
  "Carp": 42510,
  "Carr": 19136,
  "Carrefour</w>": 15941,
  "Carri": 19658,
  "Carré</w>": 30396,
  "Carte</w>": 10776,
  "Carter</w>": 19354,
  "Cartes</w>": 24367,
  "Carth": 31194,
  "Carthage</w>": 35248,
  "Cartier</w>": 25777,
  "Cas": 3613,
  "Cas</w>": 32745,
  "Casa</w>": 26759,
  "Casab": 49252,
  "Casablanca</w>": 20611,
  "Case</w>": 40537,
  "Cash</w>": 42476,
  "Casi": 29967,
  "Casino</w>": 17665,
  "Cass": 10971,
  "Cassi": 38336,
  "Cast": 23730,
  "Castill": 39629,
  "Castille</w>": 39658,
  "Castle</w>": 43735,
  "Castres</w>": 34927,
  "Castro</w>": 21437,
  "Cat": 8158,
  "Cat</w>": 36151,
  "Catal": 32577,
  "Catalans</w>": 44896,
  "Catalo": 49210,
  "Catalogne</w>": 16390,
  "Catalogue</w>": 31564,
  "Catawiki</w>": 12949,
  "Cath": 41602,
  "Catherine</w>": 5577,
  "Catho": 44331,
  "Catholique</w>": 35225,
  "Cathy</w>": 41735,
  "Cathédrale</w>": 33754,
  "Catég": 49185,
  "Catégorie</w>": 25894,
  "Catégories</w>": 42403,
  "Cau": 10108,
  "Caucase</w>": 26912,
  "Cav": 10956,
  "Cavan": 49972,
  "Cavani</w>": 39004,
  "Cave</w>": 43142,
  "Cay": 28006,
  "Cayenne</w>": 39014,
  "Caz": 27448,
  "Cazeneuve</w>": 26756,
  "Caï": 34540,
  "Cd": 31127,
  "Cdiscount</w>": 20075,
  "Ce": 7133,
  "Ce</w>": 128,
  "Ceci</w>": 3165,
  "Cedex</w>": 32988,
  "Cel": 7054,
  "Cela</w>": 635,
  "Celle": 48914,
  "Celle-ci</w>": 5229,
  "Celle</w>": 9993,
  "Celles-ci</w>": 13140,
  "Celles</w>": 21459,
  "Celui-ci</w>": 4243,
  "Celui</w>": 5549,
  "Cen": 25352,
  "Cendri": 50896,
  "Cendrillon</w>": 45835,
  "Cent": 32612,
  "Cent</w>": 24330,
  "Center</w>": 11651,
  "Centr": 20603,
  "Centrafrique</w>": 29312,
  "Central</w>": 15212,
  "Centrale</w>": 15293,
  "Centre-": 24315,
  "Centre</w>": 1632,
  "Centres</w>": 19650,
  "Century</w>": 45930,
  "Cependant</w>": 1186,
  "Cer": 6264,
  "Cercle": 50860,
  "Cercle</w>": 16172,
  "CercleFinance.com.</w>": 36141,
  "Cerise</w>": 43233,
  "Cert": 46919,
  "Certainement</w>": 33025,
  "Certaines</w>": 4454,
  "Certains</w>": 1866,
  "Certes</w>": 4556,
  "Certi": 43413,
  "Certifi": 47504,
  "Certificat</w>": 40878,
  "Ces": 21515,
  "Ces</w>": 326,
  "Cess": 41750,
  "Cest</w>": 33719,
  "Cet</w>": 1179,
  "Cette</w>": 174,
  "Ceux-ci</w>": 9384,
  "Ceux</w>": 5198,
  "Ch": 866,
  "Cha": 23896,
  "Chab": 14709,
  "Chac": 47949,
  "Chacun</w>": 6183,
  "Chacune</w>": 18409,
  "Chag": 44570,
  "Chaire</w>": 45581,
  "Chaise</w>": 40910,
  "Chal": 11015,
  "Chalet</w>": 44120,
  "Challen": 37110,
  "Challenge</w>": 23162,
  "Cham": 6675,
  "Chambre</w>": 3602,
  "Chambres</w>": 13220,
  "Chambéry</w>": 29330,
  "Chamonix</w>": 45223,
  "Champ": 35150,
  "Champ</w>": 27943,
  "Champa": 47336,
  "Champagne-": 49205,
  "Champagne-Ardenne</w>": 44413,
  "Champagne</w>": 13201,
  "Champi": 29756,
  "Champion": 49368,
  "Champion</w>": 22423,
  "Championnat</w>": 8098,
  "Championnats</w>": 15958,
  "Champions</w>": 15774,
  "Championship</w>": 34636,
  "Champlain</w>": 30287,
  "Champs-": 49444,
  "Champs-Elysées</w>": 29628,
  "Champs-Élysées</w>": 44522,
  "Champs</w>": 17815,
  "Chan": 13019,
  "Chan</w>": 39668,
  "Chanc": 40068,
  "Chand": 29603,
  "Chanel</w>": 28562,
  "Chang": 26331,
  "Changement</w>": 30241,
  "Changer</w>": 32447,
  "Changez</w>": 11210,
  "Channel</w>": 35128,
  "Chanson</w>": 39792,
  "Chant": 32640,
  "Chant</w>": 46113,
  "Chantal</w>": 18888,
  "Chanti": 44461,
  "Chaos</w>": 42525,
  "Chap": 10386,
  "Chapelle</w>": 17971,
  "Chapi": 48758,
  "Chapitre</w>": 9277,
  "Chaque</w>": 1645,
  "Char": 3202,
  "Charbonneau</w>": 35556,
  "Charente-": 49690,
  "Charente-Maritime</w>": 35963,
  "Charente</w>": 24750,
  "Charentes</w>": 48383,
  "Charest</w>": 19438,
  "Charg": 18690,
  "Charger</w>": 49279,
  "Chargé</w>": 31160,
  "Charle": 27916,
  "Charlem": 50220,
  "Charlemagne</w>": 28895,
  "Charler": 49269,
  "Charleroi</w>": 19793,
  "Charles": 43002,
  "Charles-": 17426,
  "Charles</w>": 2334,
  "Charlie</w>": 8597,
  "Charlotte</w>": 11694,
  "Charte</w>": 7882,
  "Chartr": 31701,
  "Chartres</w>": 28406,
  "Chase</w>": 41466,
  "Chass": 21096,
  "Chasse</w>": 44315,
  "Chat": 21781,
  "Chat</w>": 22236,
  "Chateau": 48083,
  "Chateaubriand</w>": 42388,
  "Chau": 7504,
  "Chauff": 40792,
  "Chauffage</w>": 35233,
  "Chaussures</w>": 31870,
  "Chav": 41394,
  "Chavez</w>": 28658,
  "Chaî": 49092,
  "Chaîne</w>": 41094,
  "Che": 12927,
  "Chef</w>": 7669,
  "Chefs</w>": 39333,
  "Chei": 47045,
  "Cheikh</w>": 23060,
  "Chel": 47169,
  "Chelem</w>": 23864,
  "Chelsea</w>": 14154,
  "Chem": 17366,
  "Chemin</w>": 20656,
  "Chemins</w>": 38529,
  "Chen": 25208,
  "Chen</w>": 36935,
  "Cher": 9648,
  "Cher</w>": 14087,
  "Cherbourg</w>": 38137,
  "Chers</w>": 40324,
  "Ches": 28875,
  "Chev": 14397,
  "Cheval</w>": 38908,
  "Chevalier</w>": 19394,
  "Chevaliers</w>": 40516,
  "Cheveux</w>": 45926,
  "Chevr": 50225,
  "Chevrolet</w>": 43438,
  "Chevènement</w>": 42138,
  "Chez</w>": 4338,
  "Chi": 4264,
  "Chi</w>": 42474,
  "Chic": 49064,
  "Chicago</w>": 8775,
  "Chicou": 49966,
  "Chicoutimi</w>": 36976,
  "Chiff": 41182,
  "Chil": 18389,
  "Chili</w>": 9930,
  "Chim": 32493,
  "Chimie</w>": 34700,
  "Chin": 16268,
  "China</w>": 16999,
  "Chine</w>": 1409,
  "Chinese</w>": 43286,
  "Chinois</w>": 10595,
  "Chir": 47470,
  "Chirac</w>": 9938,
  "Chirur": 29529,
  "Chlo": 47878,
  "Chloé</w>": 24453,
  "Cho": 16073,
  "Chocol": 47765,
  "Chocolat</w>": 46006,
  "Chois": 29502,
  "Choisir</w>": 17522,
  "Choisissez</w>": 11776,
  "Choix</w>": 26413,
  "Chopin</w>": 42851,
  "Chose</w>": 26411,
  "Chou": 16779,
  "Chris": 26863,
  "Chris</w>": 8603,
  "Christ": 15694,
  "Christ</w>": 4030,
  "Christi": 25369,
  "Christian</w>": 4298,
  "Christiane</w>": 22564,
  "Christie</w>": 44604,
  "Christina</w>": 43374,
  "Christine</w>": 8024,
  "Christophe</w>": 5712,
  "Christopher</w>": 18551,
  "Chrom": 45607,
  "Chrome</w>": 13196,
  "Chron": 21681,
  "Chronique</w>": 35843,
  "Chroniques</w>": 39781,
  "Chry": 36616,
  "Chrysler</w>": 36952,
  "Chré": 48458,
  "Chrétien</w>": 36117,
  "Chrétiens</w>": 32077,
  "Chu": 20671,
  "Chuck</w>": 28463,
  "Chur": 39203,
  "Churchill</w>": 33857,
  "Chy": 47221,
  "Chypre</w>": 11456,
  "Châ": 12237,
  "Châte": 32957,
  "Château": 23996,
  "Château-": 34147,
  "Château</w>": 7984,
  "Ci": 4225,
  "Ci-": 47424,
  "Ci-dessous</w>": 39693,
  "Cialis</w>": 34827,
  "Cicér": 50942,
  "Cicéron</w>": 39809,
  "Cie</w>": 23846,
  "Ciel</w>": 15333,
  "Cim": 26790,
  "Cin": 11463,
  "Cincin": 50148,
  "Cincinnati</w>": 45552,
  "Cindy</w>": 43882,
  "Cinq</w>": 8993,
  "Cinqui": 49557,
  "Cinquième</w>": 24660,
  "Ciné": 44196,
  "Ciném": 38135,
  "Cinéma</w>": 17909,
  "Cir": 12626,
  "Circuit</w>": 19660,
  "Cirque</w>": 27379,
  "Cis": 38867,
  "Cisco</w>": 32280,
  "Cisjordanie</w>": 18893,
  "Cissé</w>": 43429,
  "Cit": 17584,
  "Citation</w>": 24988,
  "Citi": 24827,
  "Citons</w>": 43404,
  "Citoy": 22916,
  "Citro": 48966,
  "Citroën</w>": 17400,
  "City</w>": 5506,
  "Cité</w>": 9534,
  "Civi": 22525,
  "Civil</w>": 37327,
  "Cl": 3266,
  "Cla": 24667,
  "Clair": 45872,
  "Clair</w>": 34918,
  "Claire</w>": 9372,
  "Clar": 15669,
  "Clara</w>": 24585,
  "Clark</w>": 21701,
  "Clarke</w>": 37913,
  "Classe</w>": 19185,
  "Classement</w>": 31906,
  "Classi": 33619,
  "Classic</w>": 31687,
  "Classification</w>": 42208,
  "Classique</w>": 30555,
  "Clau": 16510,
  "Claud": 50126,
  "Claude</w>": 3482,
  "Claudi": 47042,
  "Claudia</w>": 38897,
  "Claudine</w>": 38886,
  "Claudio</w>": 41633,
  "Cle": 13262,
  "Clem": 32982,
  "Cler": 21517,
  "Clermont-": 48451,
  "Clermont-Ferrand</w>": 26058,
  "Clermont</w>": 18270,
  "Cleveland</w>": 27650,
  "Cli": 7908,
  "Clichy</w>": 45701,
  "Client</w>": 15141,
  "Clients</w>": 36850,
  "Climat</w>": 31290,
  "Clini": 42141,
  "Clinique</w>": 37029,
  "Clinton</w>": 9079,
  "Clio</w>": 42935,
  "Cliquer</w>": 39739,
  "Cliquez</w>": 6694,
  "Clo": 8363,
  "Clos</w>": 35418,
  "Clou": 40169,
  "Cloud</w>": 12267,
  "Cloutier</w>": 40370,
  "Clovis</w>": 44555,
  "Clu": 16890,
  "Club</w>": 4115,
  "Clé": 26796,
  "Clém": 37675,
  "Clémence</w>": 44134,
  "Clément</w>": 12059,
  "Co": 1453,
  "Co-": 38981,
  "Co</w>": 15337,
  "Coalition</w>": 20985,
  "Coast</w>": 44072,
  "Cob": 20466,
  "Coc": 27695,
  "Coca-": 50439,
  "Coca-Cola</w>": 37632,
  "Cock": 35120,
  "Coco</w>": 36916,
  "Code</w>": 3778,
  "Coder": 50581,
  "Coderre</w>": 37255,
  "Coeur</w>": 23479,
  "Coff": 21384,
  "Cognac</w>": 42901,
  "Coh": 40818,
  "Cohen</w>": 20329,
  "Coi": 44284,
  "Coin</w>": 31561,
  "Col": 3186,
  "Col</w>": 33654,
  "Cola</w>": 48184,
  "Colbert</w>": 38008,
  "Cole</w>": 32498,
  "Colette</w>": 28595,
  "Colin</w>": 20880,
  "Colisée</w>": 44307,
  "Coll": 8633,
  "Collabor": 38561,
  "Colle": 46994,
  "Collec": 38381,
  "Collecti": 40325,
  "Collectif</w>": 17397,
  "Collection</w>": 13943,
  "Collectivités</w>": 46401,
  "College</w>": 17711,
  "Collier</w>": 45081,
  "Collins</w>": 30758,
  "Colloque</w>": 37404,
  "Collège</w>": 10006,
  "Colmar</w>": 14543,
  "Colo": 32216,
  "Cologne</w>": 21036,
  "Colomb": 17997,
  "Colomb</w>": 41446,
  "Colombi": 35566,
  "Colombie-": 50197,
  "Colombie-Britannique</w>": 12833,
  "Colombie</w>": 10240,
  "Colonel</w>": 33334,
  "Color": 34384,
  "Colorado</w>": 21980,
  "Colum": 33569,
  "Columbia</w>": 25223,
  "Com": 2488,
  "Com</w>": 22669,
  "Comb": 9409,
  "Combat</w>": 37934,
  "Combien</w>": 9906,
  "Comics</w>": 35505,
  "Comité</w>": 1017,
  "Comités</w>": 43371,
  "Comm": 7875,
  "Comman": 27282,
  "Command": 22936,
  "Commandant</w>": 35823,
  "Commande</w>": 31930,
  "Commander</w>": 5849,
  "Comme</w>": 565,
  "Commenc": 44433,
  "Commencez</w>": 36258,
  "Comment": 34470,
  "Comment</w>": 1041,
  "Commentaire</w>": 21035,
  "Commentaires</w>": 14846,
  "Commer": 26156,
  "Commerce</w>": 8497,
  "Commerci": 36773,
  "Commercial</w>": 35320,
  "Commis</w>": 40883,
  "Commiss": 48095,
  "Commissaire</w>": 10326,
  "Commissariat</w>": 22949,
  "Commission</w>": 446,
  "Committee</w>": 44035,
  "Common": 50322,
  "Commonwealth</w>": 31209,
  "Commun": 23296,
  "Communaut": 45237,
  "Communauté</w>": 1793,
  "Communautés</w>": 8431,
  "Commune</w>": 14631,
  "Communes</w>": 24140,
  "Communi": 26630,
  "Communication</w>": 10314,
  "Communications</w>": 26803,
  "Communiqué</w>": 34320,
  "Community</w>": 37206,
  "Comores</w>": 38743,
  "Comp": 10283,
  "Compa": 15046,
  "Compagni": 48524,
  "Compagnie</w>": 9343,
  "Company</w>": 15792,
  "Compar": 24272,
  "Comparer</w>": 17770,
  "Comparez</w>": 32555,
  "Compati": 35830,
  "Compiè": 50548,
  "Compiègne</w>": 37192,
  "Compl": 14519,
  "Complexe</w>": 44943,
  "Composi": 39518,
  "Composition</w>": 26925,
  "Composé</w>": 32167,
  "Comprendre</w>": 23419,
  "Comptabilité</w>": 43311,
  "Compte</w>": 7921,
  "Comptes</w>": 22852,
  "Compu": 30624,
  "Compét": 46905,
  "Compétences</w>": 21732,
  "Comte</w>": 22230,
  "Comté</w>": 22279,
  "Comédi": 35131,
  "Comédie</w>": 27929,
  "Con": 1198,
  "Conan</w>": 45208,
  "Concep": 44997,
  "Concept</w>": 33190,
  "Conception</w>": 25540,
  "Concer": 44112,
  "Concernant</w>": 7690,
  "Concert": 38200,
  "Concert</w>": 40442,
  "Concile</w>": 36609,
  "Conclu": 48165,
  "Conclusion</w>": 23580,
  "Conclusions</w>": 42201,
  "Concor": 48510,
  "Concorde</w>": 39851,
  "Concordia</w>": 42555,
  "Concours</w>": 16216,
  "Concrètement</w>": 19771,
  "Condam": 32106,
  "Condition</w>": 46445,
  "Conditions</w>": 10144,
  "Condé</w>": 27543,
  "Conf": 28893,
  "Conference</w>": 41696,
  "Confi": 38159,
  "Configuration</w>": 25307,
  "Confir": 33580,
  "Confor": 41439,
  "Conformément</w>": 9751,
  "Confort</w>": 25170,
  "Confron": 32830,
  "Confédération</w>": 12635,
  "Conférence</w>": 3490,
  "Conférences</w>": 45111,
  "Cong": 49355,
  "Congo</w>": 6493,
  "Congolais</w>": 40570,
  "Congr": 41993,
  "Congrès</w>": 5421,
  "Congrégation</w>": 37150,
  "Conn": 10019,
  "Connaiss": 31565,
  "Connaissance</w>": 39666,
  "Connaître</w>": 37965,
  "Connec": 33248,
  "Connect</w>": 46304,
  "Connectez-vous</w>": 33500,
  "Connecti": 49322,
  "Connecticut</w>": 41908,
  "Connexion</w>": 9082,
  "Connor</w>": 35013,
  "Conrad</w>": 32714,
  "Cons": 45859,
  "Consci": 36814,
  "Conscient</w>": 44267,
  "Conse": 42533,
  "Conseil</w>": 361,
  "Conseill": 34010,
  "Conseiller</w>": 16344,
  "Conseils</w>": 13577,
  "Conserv": 23471,
  "Conservation</w>": 44337,
  "Conservatoire</w>": 18135,
  "Considér": 28234,
  "Considérant</w>": 7756,
  "Consomm": 41278,
  "Consommation</w>": 29772,
  "Const": 30656,
  "Constance</w>": 33233,
  "Constant</w>": 40606,
  "Constanti": 49760,
  "Constantin</w>": 25809,
  "Constantine</w>": 39870,
  "Constantino": 50404,
  "Constantinople</w>": 19469,
  "Constat": 43762,
  "Constitu": 18495,
  "Constitution</w>": 4296,
  "Constr": 41429,
  "Construction</w>": 15700,
  "Construire</w>": 39163,
  "Construit</w>": 37851,
  "Consu": 27604,
  "Consul": 18871,
  "Consultation</w>": 24537,
  "Consultations</w>": 39967,
  "Consulter</w>": 32172,
  "Consultez</w>": 10413,
  "Consulting</w>": 38434,
  "Conséquence</w>": 32086,
  "Cont": 34182,
  "Conte</w>": 41479,
  "Contenu</w>": 17681,
  "Contes</w>": 38253,
  "Contexte</w>": 30410,
  "Contin": 29677,
  "Continent</w>": 39559,
  "Continental</w>": 45169,
  "Continu": 47032,
  "Continuer</w>": 15861,
  "Continuez</w>": 40756,
  "Contr": 15469,
  "Contrairement</w>": 6751,
  "Contrat</w>": 20344,
  "Contre</w>": 14208,
  "Contribu": 32079,
  "Contribution</w>": 34587,
  "Control</w>": 30344,
  "Contrô": 29600,
  "Contrôle</w>": 18256,
  "Convention</w>": 2176,
  "Conventions</w>": 37364,
  "Conver": 35368,
  "Convient</w>": 46554,
  "Conç": 37053,
  "Conçu</w>": 30186,
  "Coo": 18181,
  "Cook</w>": 24250,
  "Cookies</w>": 33050,
  "Cool</w>": 41381,
  "Cooper</w>": 23599,
  "Coopér": 44439,
  "Coopération</w>": 19483,
  "Coordination</w>": 32537,
  "Cop": 14501,
  "Copa</w>": 45458,
  "Copenh": 49456,
  "Copenhague</w>": 16147,
  "Copyright</w>": 17580,
  "Copé</w>": 18396,
  "Cor": 1641,
  "Coran</w>": 14860,
  "Cord": 44150,
  "Cordi": 38453,
  "Core</w>": 36289,
  "Corin": 47073,
  "Corinne</w>": 26829,
  "Corn": 21596,
  "Corne": 42056,
  "Corneille</w>": 30315,
  "Corp</w>": 33098,
  "Corpor": 41961,
  "Corporation</w>": 17253,
  "Corps</w>": 12779,
  "Correspon": 27703,
  "Corri": 32100,
  "Corrè": 50008,
  "Corrèze</w>": 32979,
  "Cors": 35644,
  "Corse</w>": 7103,
  "Corée</w>": 4738,
  "Coréens</w>": 42213,
  "Cos": 8569,
  "Cost": 36998,
  "Costa</w>": 10987,
  "Cot": 15002,
  "Cotation</w>": 44066,
  "Cote</w>": 46177,
  "Cotonou</w>": 42057,
  "Cou": 3239,
  "Couillard</w>": 17126,
  "Coul": 21195,
  "Couleur</w>": 18163,
  "Couleurs</w>": 43290,
  "Coulibaly</w>": 42970,
  "Coun": 36904,
  "Council</w>": 28094,
  "Country</w>": 37455,
  "County</w>": 45164,
  "Coup</w>": 19611,
  "Coupe</w>": 2538,
  "Couper</w>": 25580,
  "Coupes</w>": 42346,
  "Coupez</w>": 37124,
  "Cour": 4037,
  "Cour</w>": 1502,
  "Couronne</w>": 17271,
  "Courrier</w>": 30860,
  "Cours</w>": 10147,
  "Course</w>": 33333,
  "Court</w>": 24126,
  "Couture</w>": 35333,
  "Couvrir</w>": 37281,
  "Cow": 34411,
  "Coy": 35318,
  "Coût</w>": 27483,
  "Cr": 7684,
  "Cra": 19594,
  "Crac": 48239,
  "Cracovie</w>": 43899,
  "Crai": 49033,
  "Craig</w>": 27933,
  "Cran": 44902,
  "Cras": 32286,
  "Craw": 39740,
  "Cre": 9868,
  "Creative</w>": 40473,
  "Credit</w>": 37752,
  "Creek</w>": 36751,
  "Cres": 31089,
  "Creu": 38590,
  "Creuse</w>": 40554,
  "Cri": 9682,
  "Crimée</w>": 21138,
  "Cris": 31397,
  "Crise</w>": 38212,
  "Crist": 25822,
  "Cristi": 48327,
  "Cristiano</w>": 30275,
  "Cristina</w>": 40507,
  "Crit": 29192,
  "Critique</w>": 36296,
  "Cro": 4722,
  "Croatie</w>": 11574,
  "Croi": 48014,
  "Crois": 31462,
  "Croisi": 43513,
  "Croissance</w>": 41304,
  "Croix-": 36194,
  "Croix-Rouge</w>": 20157,
  "Croix</w>": 8747,
  "Cron": 39210,
  "Cross": 31415,
  "Cross</w>": 33779,
  "Croy": 22243,
  "Cru": 14815,
  "Crus": 40884,
  "Cruz</w>": 23590,
  "Cry": 31993,
  "Crystal</w>": 37640,
  "Crè": 48168,
  "Crème</w>": 28029,
  "Crèmes</w>": 31370,
  "Crète</w>": 40978,
  "Cré": 8907,
  "Créateur</w>": 27390,
  "Création</w>": 10668,
  "Crédi": 49323,
  "Crédit</w>": 8146,
  "Crédits</w>": 37316,
  "Créer</w>": 13038,
  "Créez</w>": 15064,
  "Créteil</w>": 30201,
  "Créé</w>": 18783,
  "Créée</w>": 24300,
  "Cu": 3986,
  "Cuba</w>": 8257,
  "Cube</w>": 40155,
  "Cui": 46238,
  "Cuir</w>": 44427,
  "Cuire</w>": 24328,
  "Cuis": 23435,
  "Cuisine</w>": 12250,
  "Cul": 14160,
  "Cultu": 33490,
  "Culture</w>": 7157,
  "Cum": 30429,
  "Cun": 28179,
  "Cup</w>": 13989,
  "Cur": 11423,
  "Curi": 27339,
  "Curie</w>": 32966,
  "Curieusement</w>": 44130,
  "Curtis</w>": 43701,
  "Cy": 9789,
  "Cyber": 33488,
  "Cycl": 25088,
  "Cycle</w>": 30216,
  "Cyn": 43210,
  "Cypri": 42611,
  "Cyr</w>": 30724,
  "Cyril</w>": 17986,
  "Cyrille</w>": 41841,
  "Cyrus</w>": 34018,
  "CÉ": 23140,
  "Câ": 33087,
  "Cé": 11179,
  "Cécile</w>": 13111,
  "Céd": 49077,
  "Cédric</w>": 19385,
  "Cégep</w>": 38874,
  "Cél": 18518,
  "Céline</w>": 12340,
  "Cér": 39795,
  "Céré": 39214,
  "César</w>": 10222,
  "Cévennes</w>": 39521,
  "Cô": 47176,
  "Côte-": 31538,
  "Côte-d'</w>": 34876,
  "Côte</w>": 5117,
  "Côtes-": 44254,
  "Côtes</w>": 34019,
  "Côté</w>": 6701,
  "Cœur</w>": 18498,
  "D": 294,
  "D'</w>": 327,
  "D-": 11236,
  "D.": 9676,
  "D.</w>": 6102,
  "D1</w>": 29591,
  "D2</w>": 20015,
  "D</w>": 571,
  "DA": 6595,
  "DA</w>": 7685,
  "DAG": 41081,
  "DAM": 36056,
  "DAN": 20969,
  "DANS</w>": 5735,
  "DAR": 40764,
  "DATE</w>": 36278,
  "DB</w>": 28278,
  "DC</w>": 8314,
  "DCI</w>": 40298,
  "DD": 23129,
  "DD</w>": 10787,
  "DDEN</w>": 50820,
  "DE": 2953,
  "DE-": 37416,
  "DE</w>": 282,
  "DEA</w>": 38939,
  "DEAL</w>": 43027,
  "DEC": 13630,
  "DEC</w>": 40821,
  "DEF</w>": 44790,
  "DEL": 16596,
  "DEL</w>": 28077,
  "DEM": 13814,
  "DEMANDE</w>": 22990,
  "DEN": 24898,
  "DEO</w>": 47611,
  "DEP": 38784,
  "DEPAR": 39626,
  "DER": 15894,
  "DER</w>": 25921,
  "DERNI": 39197,
  "DES": 10225,
  "DES</w>": 930,
  "DESCRI": 47601,
  "DESCRIPTION</w>": 39962,
  "DEU": 36810,
  "DEUX</w>": 31604,
  "DEV": 38306,
  "DEVELOPPEMENT</w>": 41176,
  "DF</w>": 17194,
  "DG": 10872,
  "DG</w>": 14882,
  "DH": 19829,
  "DH</w>": 7290,
  "DI": 2336,
  "DI</w>": 8258,
  "DIA</w>": 43749,
  "DIE</w>": 39326,
  "DIEU</w>": 36352,
  "DIFF": 33562,
  "DIN": 40398,
  "DIN</w>": 28360,
  "DIO</w>": 38846,
  "DIRE": 34788,
  "DIREC": 35088,
  "DIRECT</w>": 45440,
  "DIRECTION</w>": 32961,
  "DIS": 10215,
  "DIS</w>": 27337,
  "DISPOSI": 47346,
  "DISPOSITIONS</w>": 36376,
  "DIT</w>": 19951,
  "DITIONS</w>": 48579,
  "DITS</w>": 43883,
  "DIY</w>": 34161,
  "DJ": 25617,
  "DJ</w>": 11180,
  "DL</w>": 28624,
  "DLC</w>": 36395,
  "DM": 33007,
  "DM</w>": 15201,
  "DN": 24918,
  "DN</w>": 40433,
  "DNA</w>": 36864,
  "DNS</w>": 33264,
  "DO": 6171,
  "DO</w>": 23274,
  "DOC": 48748,
  "DOC</w>": 30220,
  "DOCUM": 41917,
  "DOCUMENT</w>": 42486,
  "DOM</w>": 33046,
  "DOMA": 49381,
  "DOMAINE</w>": 39983,
  "DON": 36086,
  "DON</w>": 32615,
  "DONN": 25851,
  "DONNÉES</w>": 45560,
  "DOS</w>": 42647,
  "DOSSI": 48571,
  "DOSSIER</w>": 16143,
  "DOU": 18722,
  "DP</w>": 12463,
  "DR": 10768,
  "DR</w>": 11627,
  "DRA": 27253,
  "DRE": 26571,
  "DRE</w>": 17406,
  "DRES</w>": 34403,
  "DRH</w>": 35687,
  "DRI": 42184,
  "DRO": 34026,
  "DROIT</w>": 22660,
  "DROITS</w>": 28565,
  "DS": 10777,
  "DS</w>": 7499,
  "DSI</w>": 39925,
  "DSK</w>": 24887,
  "DSP</w>": 46958,
  "DT</w>": 18918,
  "DU": 5714,
  "DU</w>": 1284,
  "DUCTION</w>": 47672,
  "DUI": 39597,
  "DURE</w>": 35212,
  "DUT</w>": 35610,
  "DV": 21279,
  "DVD</w>": 5372,
  "DY": 35408,
  "Da": 15512,
  "Da</w>": 25270,
  "Dad": 44524,
  "Daech</w>": 19996,
  "Daesh</w>": 38582,
  "Dag": 28825,
  "Dah": 24313,
  "Dai": 26913,
  "Daily": 40845,
  "Daily</w>": 23710,
  "Daim": 46290,
  "Dak": 46645,
  "Dakar</w>": 12944,
  "Dakota</w>": 40542,
  "Dal": 10803,
  "Dali": 40675,
  "Dall": 47005,
  "Dallas</w>": 22786,
  "Dam": 12862,
  "Damas</w>": 11944,
  "Dame</w>": 11888,
  "Dames</w>": 34592,
  "Dami": 36846,
  "Damien</w>": 19458,
  "Damon</w>": 37782,
  "Dan": 8177,
  "Dan</w>": 15320,
  "Dance</w>": 34936,
  "Danemark</w>": 6455,
  "Dani": 20078,
  "Daniel</w>": 3823,
  "Danielle</w>": 27205,
  "Danièle</w>": 44397,
  "Danny</w>": 23034,
  "Danois</w>": 36230,
  "Danone</w>": 43298,
  "Dans</w>": 156,
  "Danse</w>": 25526,
  "Dant": 35680,
  "Dante</w>": 29719,
  "Danube</w>": 29269,
  "Dany</w>": 28960,
  "Daou": 41440,
  "Daph": 42367,
  "Dar": 6223,
  "Darfour</w>": 23549,
  "Dark</w>": 19535,
  "Darwin</w>": 33444,
  "Das</w>": 45112,
  "Dass": 49182,
  "Dassault</w>": 29631,
  "Dat": 23354,
  "Data</w>": 16249,
  "Date</w>": 6545,
  "Dati</w>": 41831,
  "Dau": 23882,
  "Dauph": 48505,
  "Dauphin</w>": 39421,
  "Dauphine</w>": 42490,
  "Dauphiné</w>": 36456,
  "Dav": 16393,
  "Dave</w>": 20285,
  "Davi": 29800,
  "David": 35132,
  "David</w>": 2087,
  "Davis</w>": 13915,
  "Daw": 31262,
  "Dawson</w>": 45710,
  "Dax</w>": 25901,
  "Day": 28229,
  "Day</w>": 15866,
  "Days</w>": 45046,
  "De": 1591,
  "De</w>": 209,
  "Dead</w>": 23388,
  "Dean</w>": 27300,
  "Death</w>": 31426,
  "Deau": 50281,
  "Deauville</w>": 37821,
  "Deb": 28684,
  "Debout</w>": 37626,
  "Debu": 42732,
  "Dec": 10381,
  "Deep</w>": 42069,
  "Def": 26371,
  "Del": 3131,
  "Del</w>": 23574,
  "Delac": 42223,
  "Delano": 50133,
  "Delanoë</w>": 44016,
  "Delhi</w>": 28906,
  "Deli": 38720,
  "Dell</w>": 30750,
  "Delors</w>": 46355,
  "Delphine</w>": 22614,
  "Delta</w>": 26879,
  "Dem": 5869,
  "Dem</w>": 49823,
  "Demain</w>": 16096,
  "Demande</w>": 13885,
  "Demandez</w>": 10032,
  "Den": 9563,
  "Deni": 46710,
  "Denis</w>": 6120,
  "Denise</w>": 29354,
  "Denivelé</w>": 52635,
  "Dennis</w>": 31013,
  "Denti": 46705,
  "Dentiste</w>": 38429,
  "Denver</w>": 36591,
  "Depar": 50161,
  "Depardieu</w>": 41230,
  "Department</w>": 39005,
  "Depuis</w>": 765,
  "Der": 9809,
  "Der</w>": 25017,
  "Derby</w>": 45286,
  "Derek</w>": 39323,
  "Derni": 49914,
  "Dernier</w>": 16699,
  "Derniers</w>": 36259,
  "Dernière</w>": 15356,
  "Dernièrement</w>": 43562,
  "Dernières</w>": 41264,
  "Derrière</w>": 11142,
  "Des": 3325,
  "Des</w>": 320,
  "Descartes</w>": 24520,
  "Deschamps</w>": 22143,
  "Descrip": 48644,
  "Descriptif</w>": 42577,
  "Description</w>": 10690,
  "Design": 39592,
  "Design</w>": 12749,
  "Desjardins</w>": 22763,
  "Dess": 18344,
  "Destin": 17683,
  "Destination</w>": 44462,
  "Det": 26578,
  "Detroit</w>": 27007,
  "Deu": 25948,
  "Deuts": 47159,
  "Deutsche</w>": 25099,
  "Deux": 50143,
  "Deux-": 27232,
  "Deux</w>": 1658,
  "Deuxi": 49397,
  "Deuxième</w>": 10616,
  "Deuxièmement</w>": 21368,
  "Dev": 10502,
  "Devant</w>": 8254,
  "Development</w>": 28338,
  "Devenez</w>": 44277,
  "Devenir</w>": 38773,
  "Devenu</w>": 30133,
  "Devi": 47947,
  "Devils</w>": 35085,
  "Devoir</w>": 22753,
  "Dexia</w>": 42659,
  "Dhabi</w>": 39314,
  "Di": 1412,
  "Di</w>": 14311,
  "Diab": 31811,
  "Diable</w>": 25496,
  "Diables</w>": 28988,
  "Diagnosti": 49008,
  "Diagnostic</w>": 23013,
  "Diallo</w>": 34561,
  "Dialogue</w>": 37087,
  "Diam": 23794,
  "Diamond</w>": 42036,
  "Diana</w>": 31367,
  "Diane</w>": 17508,
  "Diaz</w>": 45637,
  "Dic": 41929,
  "Dick": 28748,
  "Dick</w>": 24821,
  "Dictionnaire</w>": 19183,
  "Dider": 50043,
  "Diderot</w>": 30252,
  "Didier</w>": 7639,
  "Die": 32626,
  "Die</w>": 17038,
  "Diego</w>": 15305,
  "Dieppe</w>": 42127,
  "Diesel</w>": 29224,
  "Dieu": 35568,
  "Dieu</w>": 771,
  "Dieudonné</w>": 29385,
  "Dieux</w>": 27792,
  "Diff": 21589,
  "Diffici": 49959,
  "Difficile</w>": 14542,
  "Diffusion</w>": 41776,
  "Différ": 47462,
  "Différentes</w>": 36126,
  "Différents</w>": 33209,
  "Digi": 31467,
  "Digital</w>": 21838,
  "Dijon</w>": 11977,
  "Dil": 25346,
  "Dim": 21843,
  "Dim</w>": 20463,
  "Dimanche</w>": 7082,
  "Dimension</w>": 42920,
  "Dimensions</w>": 20218,
  "Dimi": 43746,
  "Dimitri</w>": 31085,
  "Din": 16306,
  "Dion</w>": 21712,
  "Diop</w>": 36739,
  "Dior</w>": 30820,
  "Diouf</w>": 41390,
  "Dipl": 28689,
  "Diplô": 47752,
  "Diplôme</w>": 32219,
  "Diplômé</w>": 34599,
  "Dir": 28879,
  "Dire</w>": 23049,
  "Direc": 11498,
  "Direct</w>": 23066,
  "Directeur</w>": 4680,
  "Direction</w>": 4681,
  "Directive</w>": 12737,
  "Directoire</w>": 39223,
  "Directrice</w>": 24794,
  "Diri": 31743,
  "Dis": 4089,
  "Dis</w>": 29602,
  "Disco": 38488,
  "Discours</w>": 28630,
  "Discu": 34682,
  "Disney": 49099,
  "Disney</w>": 8121,
  "Disneyland</w>": 35910,
  "Disons</w>": 22448,
  "Disponi": 47964,
  "Disponibilité</w>": 21364,
  "Disponible</w>": 7710,
  "Disponibles</w>": 33775,
  "Disposer</w>": 42478,
  "Dispositions</w>": 35096,
  "Distance</w>": 14658,
  "Distribu": 41771,
  "Distribution</w>": 31649,
  "District</w>": 27241,
  "Dit": 47133,
  "Dites-": 34522,
  "Dites</w>": 28662,
  "Divers</w>": 22874,
  "Diverses</w>": 43850,
  "Divine</w>": 44074,
  "Division</w>": 7833,
  "Dix-": 36439,
  "Dix</w>": 13244,
  "Dj": 10842,
  "Djam": 34539,
  "Dji": 37746,
  "Djibou": 50188,
  "Djibouti</w>": 33407,
  "Djo": 47076,
  "Djokovic</w>": 24976,
  "Dmi": 48348,
  "Dmitri</w>": 42326,
  "Do": 5554,
  "Do</w>": 22891,
  "Dob": 32732,
  "Doc": 19268,
  "Doc</w>": 28204,
  "Docteur</w>": 11424,
  "Doctor</w>": 45966,
  "Docu": 43655,
  "Document</w>": 16408,
  "Documentation</w>": 32527,
  "Documents</w>": 20997,
  "Dod": 36843,
  "Dog": 27089,
  "Doha</w>": 23475,
  "Doi": 28626,
  "Dois": 49302,
  "Dois-je</w>": 44952,
  "Dol": 10902,
  "Doll": 33705,
  "Dollar</w>": 43633,
  "Dom": 5921,
  "Dom</w>": 30386,
  "Domaine</w>": 13677,
  "Domini": 24061,
  "Dominic</w>": 37624,
  "Dominique</w>": 5016,
  "Dommage</w>": 12843,
  "Don": 7275,
  "Don</w>": 10588,
  "Donal": 48341,
  "Donald'</w>": 49848,
  "Donald</w>": 5158,
  "Donc</w>": 1846,
  "Donetsk</w>": 38806,
  "Donn": 16658,
  "Donna</w>": 46490,
  "Donner</w>": 21393,
  "Donnez</w>": 20758,
  "Données</w>": 18575,
  "Dont</w>": 25871,
  "Dor": 6794,
  "Dordo": 49794,
  "Dordogne</w>": 21240,
  "Dori": 31697,
  "Dorothée</w>": 45102,
  "Dort": 50201,
  "Dortmund</w>": 31012,
  "Dos</w>": 38828,
  "Dossi": 47001,
  "Dossier</w>": 18346,
  "Dot": 43806,
  "Doté</w>": 29414,
  "Dou": 4375,
  "Douai</w>": 40543,
  "Double</w>": 20716,
  "Doubs</w>": 29817,
  "Doug</w>": 40493,
  "Douglas</w>": 20189,
  "Dour": 45378,
  "Douze</w>": 23021,
  "Dow": 38616,
  "Dow</w>": 20027,
  "Down": 33828,
  "Down</w>": 32107,
  "Doy": 28383,
  "Dr": 8489,
  "Dr</w>": 4451,
  "Dra": 19169,
  "Drac": 33996,
  "Drag": 32643,
  "Draghi</w>": 39743,
  "Dragon</w>": 16865,
  "Dragons</w>": 32722,
  "Drake</w>": 40965,
  "Dram": 44891,
  "Drama</w>": 36884,
  "Drap": 30138,
  "Dre": 19470,
  "Dre</w>": 39160,
  "Dream": 26951,
  "Dream</w>": 33510,
  "Dres": 47213,
  "Dresde</w>": 40635,
  "Dress": 40724,
  "Drey": 49375,
  "Dreyfus</w>": 31368,
  "Dri": 24652,
  "Drian</w>": 40176,
  "Drive</w>": 23182,
  "Dro": 15843,
  "Droit</w>": 8897,
  "Droite</w>": 34656,
  "Droits</w>": 12256,
  "Drou": 28214,
  "Dru": 17933,
  "Drum": 47302,
  "Drummond": 45147,
  "Drôme</w>": 27744,
  "Ds</w>": 44853,
  "Du": 1299,
  "Du</w>": 1311,
  "Dubaï</w>": 26227,
  "Dublin</w>": 18476,
  "Dubois</w>": 22390,
  "Duc</w>": 19528,
  "Duché</w>": 40788,
  "Duflot</w>": 32501,
  "Dufour</w>": 42514,
  "Duke</w>": 38921,
  "Dul": 40526,
  "Dum": 24498,
  "Dumas</w>": 23494,
  "Dumont</w>": 27037,
  "Dumou": 43680,
  "Dun": 12649,
  "Duncan</w>": 35860,
  "Dunker": 49568,
  "Dunkerque</w>": 24167,
  "Dupont-": 43101,
  "Dupont</w>": 25768,
  "Dupuis</w>": 35146,
  "Dur": 11330,
  "Durable</w>": 42421,
  "Durand</w>": 29227,
  "Durant</w>": 4224,
  "Durban</w>": 40607,
  "Durée</w>": 14554,
  "Dus": 33291,
  "Duval</w>": 39212,
  "Dy": 24216,
  "Dylan</w>": 24804,
  "Dyn": 15027,
  "DÉ": 4776,
  "DÉC": 33549,
  "DÉGUSTATION</w>": 15770,
  "DÉVELOPPEMENT</w>": 34971,
  "Dès</w>": 1955,
  "Dé": 2053,
  "Déb": 20288,
  "Débar": 42010,
  "Débat</w>": 37355,
  "Débu": 44807,
  "Début</w>": 14441,
  "Déc": 7586,
  "Déc</w>": 33145,
  "Décembre</w>": 17917,
  "Décennie</w>": 45784,
  "Déch": 27651,
  "Déci": 39372,
  "Décide</w>": 33096,
  "Décidément</w>": 33165,
  "Décision</w>": 6797,
  "Déclar": 42052,
  "Déclaration</w>": 6095,
  "Déco": 42018,
  "Déco</w>": 41480,
  "Décoration</w>": 39384,
  "Découverte</w>": 20317,
  "Découvrez</w>": 3046,
  "Découvrir</w>": 26181,
  "Décret</w>": 27567,
  "Déf": 24683,
  "Défense</w>": 5901,
  "Défi</w>": 36732,
  "Définir</w>": 37738,
  "Définition</w>": 16138,
  "Définitions</w>": 41279,
  "Dég": 32365,
  "Dégu": 33131,
  "Déjà</w>": 5835,
  "Dél": 44193,
  "Délai</w>": 40273,
  "Délais</w>": 43145,
  "Déli": 23958,
  "Délég": 37165,
  "Délégation</w>": 41040,
  "Dém": 22151,
  "Démar": 46870,
  "Démarches</w>": 49675,
  "Démarrer</w>": 43038,
  "Démo": 23604,
  "Démocratie</w>": 30697,
  "Démocratique</w>": 46294,
  "Dépann": 49159,
  "Dépannage</w>": 33377,
  "Départ</w>": 23410,
  "Département": 30686,
  "Département</w>": 6012,
  "Dépenses</w>": 32821,
  "Déposer</w>": 29323,
  "Déposez</w>": 19842,
  "Dépu": 46922,
  "Député</w>": 46404,
  "Dér": 34458,
  "Dés": 25107,
  "Dési": 28851,
  "Désir</w>": 38239,
  "Désol": 40873,
  "Désolé</w>": 15668,
  "Désor": 49496,
  "Désormais</w>": 9280,
  "Dét": 14618,
  "Détail</w>": 40248,
  "Détails</w>": 9287,
  "Détermin": 26773,
  "Détroit</w>": 37130,
  "Dév": 40133,
  "Développ": 28830,
  "Développement</w>": 6940,
  "Développer</w>": 30759,
  "Dî": 46502,
  "Dôme</w>": 46344,
  "Dü": 47992,
  "Düsseldorf</w>": 45017,
  "E": 314,
  "E-": 6514,
  "E.": 8184,
  "E.</w>": 6014,
  "E3</w>": 37771,
  "E</w>": 997,
  "EA</w>": 12569,
  "EADS</w>": 33953,
  "EAU</w>": 17821,
  "EC": 4262,
  "EC</w>": 7975,
  "ECE</w>": 31145,
  "ECH": 41086,
  "ECO": 31853,
  "ECO</w>": 34080,
  "ECONOMI": 41677,
  "ECONOMIE</w>": 43689,
  "ECT</w>": 42415,
  "ECTI": 32614,
  "ECTION</w>": 29421,
  "ECTS</w>": 45903,
  "ECU</w>": 17147,
  "ED": 9408,
  "ED</w>": 14604,
  "EDF</w>": 9710,
  "EDI": 29838,
  "EDI</w>": 36820,
  "EDIT</w>": 43136,
  "EDU": 40531,
  "EE</w>": 12178,
  "EEE</w>": 19907,
  "EEL": 50195,
  "EELV</w>": 27182,
  "EES</w>": 25304,
  "EF": 23733,
  "EF</w>": 24982,
  "EFF": 34263,
  "EG": 23528,
  "EG</w>": 34274,
  "EH": 22986,
  "EI</w>": 9466,
  "EIL</w>": 47345,
  "EL": 4045,
  "EL</w>": 4258,
  "ELEC": 29863,
  "ELECTRI": 44451,
  "ELLE</w>": 7099,
  "ELLES</w>": 13696,
  "ELS</w>": 12992,
  "EM": 3940,
  "EM</w>": 17630,
  "EMA</w>": 33425,
  "EMBRE</w>": 32855,
  "EME</w>": 15289,
  "EMENT": 35414,
  "EMENT</w>": 5362,
  "EMENTS</w>": 10213,
  "EMI</w>": 43044,
  "EMP": 35200,
  "EMPLOI</w>": 22443,
  "EN": 2470,
  "EN</w>": 1308,
  "ENA</w>": 23348,
  "ENCE</w>": 11153,
  "ENCES</w>": 33763,
  "ENE</w>": 45051,
  "ENER": 30807,
  "ENF": 36349,
  "ENFANTS</w>": 38118,
  "ENG": 34336,
  "ENNE</w>": 19279,
  "ENNES</w>": 31406,
  "ENS</w>": 10929,
  "ENSEIGN": 47943,
  "ENSEIGNEMENT</w>": 43475,
  "ENSEMBLE</w>": 40608,
  "ENT": 8911,
  "ENT</w>": 6207,
  "ENTAIRE</w>": 20245,
  "ENTATION</w>": 27765,
  "ENTE</w>": 35205,
  "ENTES</w>": 34036,
  "ENTI": 15164,
  "ENTIEL</w>": 45982,
  "ENTRE": 25812,
  "ENTRE</w>": 23365,
  "ENTREPR": 47566,
  "ENTREPRISE</w>": 20593,
  "ENTREPRISES</w>": 25100,
  "ENTS</w>": 11314,
  "ENVIR": 48011,
  "ENVIRONNEMENT</w>": 29220,
  "EP": 14381,
  "EP</w>": 9142,
  "EPA</w>": 41248,
  "EPCI</w>": 46149,
  "EPR</w>": 42785,
  "EPS</w>": 37830,
  "EQUI": 43592,
  "ER": 2883,
  "ER</w>": 2012,
  "ERA</w>": 36658,
  "ERE</w>": 10882,
  "ERES</w>": 16353,
  "ERI": 21131,
  "ERIE</w>": 22031,
  "ERP</w>": 26708,
  "ERRE</w>": 47154,
  "ERS</w>": 8012,
  "ES": 2640,
  "ES-": 24410,
  "ES</w>": 1909,
  "ESA</w>": 31958,
  "ESC</w>": 46585,
  "ESCO</w>": 49440,
  "ESP</w>": 36587,
  "ESPACE</w>": 32852,
  "ESS": 27614,
  "ESS</w>": 18438,
  "EST</w>": 5580,
  "ET": 4174,
  "ET</w>": 783,
  "ETA": 19088,
  "ETA</w>": 32702,
  "ETAT</w>": 30367,
  "ETE</w>": 20824,
  "ETRE</w>": 31412,
  "ETS</w>": 35004,
  "ETTE</w>": 28276,
  "ETU": 27966,
  "EU": 5267,
  "EU</w>": 16399,
  "EUR": 16027,
  "EUR</w>": 3273,
  "EURE</w>": 37516,
  "EURES</w>": 41975,
  "EURO": 23755,
  "EUROPAGES</w>": 10468,
  "EUROPE": 36243,
  "EUROPE</w>": 35765,
  "EUROPÉ": 34836,
  "EUROPÉENNE</w>": 45613,
  "EURS</w>": 10625,
  "EUSE</w>": 40947,
  "EUX</w>": 11918,
  "EV": 23415,
  "EVA</w>": 44578,
  "EX": 4434,
  "EX</w>": 33604,
  "EXER": 41335,
  "EXPER": 25846,
  "EXPLOI": 43832,
  "EZ</w>": 13247,
  "Eag": 30705,
  "Ear": 30701,
  "Earth</w>": 29097,
  "Eas": 40295,
  "East": 32334,
  "East</w>": 20760,
  "Easy": 42575,
  "Easy</w>": 46114,
  "Eau</w>": 14267,
  "Eaux</w>": 21755,
  "Eb": 40519,
  "Ebola</w>": 23299,
  "Ec": 24812,
  "Ech": 25151,
  "Echo</w>": 40990,
  "Echos</w>": 20284,
  "Eck": 32690,
  "Eco": 18184,
  "Eco</w>": 37223,
  "Ecole</w>": 7814,
  "Ecoles</w>": 40156,
  "Ecologie</w>": 27956,
  "Econom": 15083,
  "Economie</w>": 11238,
  "Economique</w>": 40387,
  "Ecosse</w>": 19582,
  "Ecoute</w>": 33812,
  "Ecoutez</w>": 36469,
  "Ecri": 23594,
  "Ed": 9762,
  "Ed</w>": 19487,
  "Eddie</w>": 29819,
  "Eddy</w>": 34438,
  "Eden</w>": 27374,
  "Edg": 49570,
  "Edgar</w>": 25056,
  "Edge</w>": 31270,
  "Edi": 13703,
  "Edit</w>": 41188,
  "Edith</w>": 36712,
  "Editing</w>": 24237,
  "Edition</w>": 14613,
  "Editions</w>": 16955,
  "Edmon": 49382,
  "Edmond</w>": 25252,
  "Edmonton</w>": 26305,
  "Edouard</w>": 14678,
  "Edu": 46564,
  "Eduardo</w>": 39710,
  "Education</w>": 9542,
  "Edward</w>": 13615,
  "Edwards</w>": 39006,
  "Eff": 18271,
  "Effecti": 47337,
  "Effectivement</w>": 16298,
  "Effectu": 37430,
  "Effet</w>": 36139,
  "Effets</w>": 34214,
  "Effi": 33842,
  "Eg": 22345,
  "Egalement</w>": 27788,
  "Eglise</w>": 5161,
  "Eglises</w>": 37073,
  "Egyp": 36362,
  "Egypte</w>": 7237,
  "Egyptiens</w>": 42310,
  "Eh": 41411,
  "Eh</w>": 6108,
  "Ei": 16772,
  "Eiffel</w>": 22838,
  "Einstein</w>": 31793,
  "Eis": 29707,
  "Ek": 30642,
  "El": 2835,
  "El-": 28543,
  "El</w>": 4462,
  "Ele": 22713,
  "Elec": 14141,
  "Electric</w>": 26108,
  "Electricité</w>": 43712,
  "Electron": 31680,
  "Electronic</w>": 44116,
  "Elena</w>": 26926,
  "Eli": 10650,
  "Elie</w>": 32709,
  "Elis": 33067,
  "Elisabeth</w>": 16895,
  "Elise</w>": 37619,
  "Elite</w>": 40312,
  "Eliz": 49276,
  "Elizabeth</w>": 16743,
  "Ell": 19774,
  "Elle</w>": 145,
  "Ellen</w>": 34116,
  "Elles</w>": 1123,
  "Elli": 45184,
  "Elliott</w>": 44811,
  "Ellis</w>": 42981,
  "Elo": 41861,
  "Elodie</w>": 43847,
  "Elsa</w>": 33402,
  "Elvis</w>": 35273,
  "Ely": 46797,
  "Elysée</w>": 9247,
  "Elysées</w>": 47896,
  "Em": 4019,
  "Emer": 27642,
  "Emery</w>": 43479,
  "Emile</w>": 22405,
  "Emili": 26196,
  "Emilie</w>": 27960,
  "Emily</w>": 27292,
  "Emirats</w>": 39238,
  "Emma</w>": 15235,
  "Emmanuel</w>": 4155,
  "Emmanuelle</w>": 24417,
  "Empereur</w>": 13098,
  "Empire</w>": 5064,
  "Empl": 48137,
  "Emploi</w>": 10476,
  "Emplois</w>": 28227,
  "Employ": 25393,
  "En": 1369,
  "En</w>": 94,
  "Encore</w>": 4788,
  "Encour": 37174,
  "Encycl": 48125,
  "Encyclopédie</w>": 37692,
  "End</w>": 33866,
  "Endroit</w>": 46493,
  "Ener": 26941,
  "Energie</w>": 18442,
  "Energy</w>": 24275,
  "Enf": 43641,
  "Enfance</w>": 42005,
  "Enfant</w>": 17081,
  "Enfants</w>": 17311,
  "Enfer</w>": 35508,
  "Enfin</w>": 1109,
  "Engag": 28446,
  "Engagement</w>": 42936,
  "England</w>": 38436,
  "Englis": 49747,
  "English</w>": 33282,
  "Ennah": 46172,
  "Enquête</w>": 18050,
  "Enregistr": 27921,
  "Enregistrer</w>": 42840,
  "Enrique</w>": 40054,
  "Enron</w>": 28962,
  "Enseign": 28484,
  "Enseignement</w>": 16338,
  "Ensemble</w>": 9725,
  "Ensuite</w>": 2717,
  "Entente</w>": 37328,
  "Enter": 47025,
  "Enterprise</w>": 36153,
  "Entertainment</w>": 26525,
  "Enti": 47810,
  "Entièrement</w>": 31861,
  "Entou": 43659,
  "Entour": 49438,
  "Entouré</w>": 34085,
  "Entr": 14592,
  "Entre": 18562,
  "Entre-": 48418,
  "Entre-temps</w>": 29196,
  "Entre</w>": 2617,
  "Entreprise</w>": 14165,
  "Entreprises</w>": 16983,
  "Entretien</w>": 18948,
  "Entrez</w>": 35279,
  "Entrée</w>": 18096,
  "Envie</w>": 32421,
  "Envir": 46730,
  "Environ": 38691,
  "Environ</w>": 11959,
  "Environnement</w>": 6988,
  "Envoy": 47171,
  "Envoyer</w>": 9035,
  "Envoyez</w>": 45585,
  "Envoyé</w>": 34723,
  "Ep": 27851,
  "Epargne</w>": 39825,
  "Eph": 46024,
  "Epi": 25239,
  "Episode</w>": 44349,
  "Equateur</w>": 38465,
  "Equi": 19435,
  "Equipe</w>": 19405,
  "Equipement</w>": 42216,
  "Equipements</w>": 21419,
  "Er": 4543,
  "Eras": 48606,
  "Erasmus</w>": 37601,
  "Erdo": 48858,
  "Erdogan</w>": 17783,
  "Eri": 14307,
  "Eric</w>": 5137,
  "Erik</w>": 28840,
  "Ern": 45498,
  "Ernest</w>": 20196,
  "Ernst</w>": 29326,
  "Es": 2671,
  "Es</w>": 28993,
  "Esc": 43995,
  "Esp": 49180,
  "Espa": 19693,
  "Espace</w>": 7583,
  "Espaces</w>": 42978,
  "Espagne</w>": 1629,
  "Espagnol</w>": 15231,
  "Espagnols</w>": 16589,
  "Espoir</w>": 46018,
  "Esprit</w>": 8825,
  "Espè": 46277,
  "Espér": 48052,
  "Espérance</w>": 35999,
  "Espérons</w>": 25145,
  "Ess": 7802,
  "Essai</w>": 19988,
  "Essais</w>": 36971,
  "Essayez</w>": 22971,
  "Essence</w>": 46466,
  "Essonne</w>": 21150,
  "Est": 9141,
  "Est-": 30876,
  "Est-ce</w>": 3391,
  "Est-il</w>": 14637,
  "Est</w>": 2313,
  "Estaing</w>": 36539,
  "Esther</w>": 34863,
  "Esti": 35706,
  "Estonie</w>": 18216,
  "Estr": 35446,
  "Estrie</w>": 38786,
  "Estro": 50568,
  "Estrosi</w>": 38236,
  "Et": 14534,
  "Et</w>": 133,
  "Etab": 42972,
  "Etablissement</w>": 39133,
  "Etal": 45103,
  "Etant</w>": 16006,
  "Etape</w>": 35054,
  "Etat": 46751,
  "Etat-": 36725,
  "Etat</w>": 631,
  "Etats-": 33797,
  "Etats-Unis</w>": 1365,
  "Etats</w>": 2324,
  "Eternel</w>": 39273,
  "Eth": 37407,
  "Ether": 49405,
  "Ethernet</w>": 38500,
  "Ethi": 45275,
  "Ethiopie</w>": 34759,
  "Eti": 32544,
  "Etienne</w>": 14357,
  "Etoile</w>": 32525,
  "Etr": 38999,
  "Etrang": 44552,
  "Etre</w>": 15881,
  "Etude</w>": 20411,
  "Etudes</w>": 20657,
  "Etudi": 30969,
  "Eu": 6254,
  "Eu</w>": 42512,
  "Eucharistie</w>": 45344,
  "Eugène</w>": 14934,
  "Eugénie</w>": 42053,
  "Euh</w>": 33897,
  "Euph": 37831,
  "Eur": 19698,
  "Euratom</w>": 28291,
  "Eure</w>": 28036,
  "Euro": 5304,
  "Euro</w>": 7482,
  "Euron": 35666,
  "Europa</w>": 18964,
  "Europe": 18910,
  "Europe1</w>": 43339,
  "Europe</w>": 407,
  "European</w>": 15352,
  "Europé": 48999,
  "Européen</w>": 16784,
  "Européenne</w>": 9002,
  "Européennes</w>": 44110,
  "Européens</w>": 8282,
  "Euros</w>": 20177,
  "Eurostat</w>": 15197,
  "Eurovision</w>": 38595,
  "Eus": 42697,
  "Eux</w>": 32023,
  "Ev": 14866,
  "Eva</w>": 18397,
  "Evaluation</w>": 26771,
  "Evan</w>": 44905,
  "Evangile</w>": 27453,
  "Evans</w>": 28079,
  "Eve</w>": 28250,
  "Evel": 33975,
  "Ever": 15659,
  "Evi": 19836,
  "Evidemment</w>": 15928,
  "Evil</w>": 42538,
  "Evolution</w>": 24850,
  "Ex": 2204,
  "Ex</w>": 18814,
  "Exam": 45740,
  "Examen</w>": 22814,
  "Excel": 46987,
  "Excel</w>": 23524,
  "Excellence</w>": 23472,
  "Excellent</w>": 19562,
  "Excellente</w>": 45450,
  "Excep": 43916,
  "Exceptionnel</w>": 37635,
  "Exchange</w>": 28573,
  "Exclu": 36346,
  "Excu": 36920,
  "Exemp": 49428,
  "Exemple</w>": 12775,
  "Exemples</w>": 27773,
  "Exerci": 47139,
  "Exercice</w>": 33731,
  "Exis": 36888,
  "Exit</w>": 44804,
  "Exper": 25490,
  "Expert</w>": 28568,
  "Experts</w>": 35094,
  "Expl": 20527,
  "Expli": 22285,
  "Exploi": 28728,
  "Explorer</w>": 19813,
  "Expo</w>": 31894,
  "Exposition</w>": 18336,
  "Express</w>": 9014,
  "Expédi": 40024,
  "Expédié</w>": 21121,
  "Expéri": 28386,
  "Expérience</w>": 31187,
  "Ext": 44117,
  "Extr": 32144,
  "Extrait</w>": 17501,
  "Extrê": 47730,
  "Extrême-": 49025,
  "Extrême-Orient</w>": 45334,
  "Exu": 45553,
  "Exécu": 36030,
  "Exécutif</w>": 45029,
  "Ey": 16650,
  "Eye</w>": 45653,
  "Ez": 42971,
  "F": 336,
  "F-": 9957,
  "F.": 10736,
  "F.</w>": 6707,
  "F1</w>": 17389,
  "F</w>": 981,
  "FA": 7435,
  "FA</w>": 12609,
  "FAB": 44362,
  "FAC": 25621,
  "FACE</w>": 41853,
  "FAI": 24630,
  "FAI</w>": 35784,
  "FAIRE</w>": 21891,
  "FAIT</w>": 24484,
  "FAM": 27136,
  "FAO</w>": 17347,
  "FAQ</w>": 11208,
  "FAR": 39331,
  "FAU": 25702,
  "FB</w>": 31430,
  "FBI</w>": 15436,
  "FC": 44370,
  "FC</w>": 4190,
  "FCFA</w>": 32372,
  "FD": 43336,
  "FDA</w>": 35663,
  "FE": 9958,
  "FE</w>": 21502,
  "FED": 32298,
  "FED</w>": 29090,
  "FEM": 23661,
  "FEM</w>": 34694,
  "FEN": 34819,
  "FER": 15210,
  "FES": 25020,
  "FF": 7131,
  "FF</w>": 11668,
  "FFF</w>": 41814,
  "FI": 2605,
  "FI</w>": 16453,
  "FIA</w>": 37173,
  "FICATION</w>": 19028,
  "FICHE</w>": 23959,
  "FID</w>": 48992,
  "FIFA</w>": 15655,
  "FIL</w>": 41183,
  "FIN": 15117,
  "FIN</w>": 23052,
  "FINAN": 40047,
  "FINANCES</w>": 44984,
  "FINANCI": 21802,
  "FINI": 33877,
  "FIS": 26274,
  "FK</w>": 39784,
  "FL": 15169,
  "FL</w>": 28775,
  "FLN</w>": 37834,
  "FM": 38795,
  "FM</w>": 11711,
  "FMI</w>": 8128,
  "FN": 13869,
  "FN</w>": 5641,
  "FNU": 49384,
  "FNUAP</w>": 33922,
  "FO": 8507,
  "FO</w>": 15233,
  "FON": 14557,
  "FONCTI": 28066,
  "FONCTION</w>": 41706,
  "FONDS</w>": 41447,
  "FOR": 10837,
  "FOR</w>": 39776,
  "FORM": 15229,
  "FORMATION</w>": 11932,
  "FORME</w>": 30096,
  "FORT</w>": 33071,
  "FOUR": 30628,
  "FP</w>": 14127,
  "FPS</w>": 36331,
  "FR": 9616,
  "FR-C</w>": 26233,
  "FR</w>": 7960,
  "FRA": 24970,
  "FRA</w>": 23309,
  "FRAIS</w>": 39035,
  "FRAN": 16337,
  "FRANC": 42543,
  "FRANCE</w>": 11834,
  "FRANÇ": 33454,
  "FRANÇAISE</w>": 40721,
  "FRE": 25891,
  "FRI": 46236,
  "FS": 19967,
  "FS</w>": 13204,
  "FSE</w>": 38190,
  "FT": 19629,
  "FT</w>": 18793,
  "FTP</w>": 38132,
  "FU": 22034,
  "FX</w>": 44062,
  "Fa": 22268,
  "Fab": 23725,
  "Fabi": 33217,
  "Fabien</w>": 20471,
  "Fabienne</w>": 34392,
  "Fabio</w>": 44350,
  "Fabius</w>": 21019,
  "Fabre</w>": 37161,
  "Fabri": 17101,
  "Fabrication</w>": 21997,
  "Fabrice</w>": 16777,
  "Fabriqué</w>": 41472,
  "Fac": 28857,
  "Face": 43386,
  "Face</w>": 5076,
  "Facebook</w>": 2681,
  "Faci": 24292,
  "Facile</w>": 22336,
  "Facili": 45602,
  "Fact": 48575,
  "Factory</w>": 42799,
  "Facul": 48460,
  "Faculté</w>": 15429,
  "Fah": 41042,
  "Fai": 14827,
  "Faible</w>": 41725,
  "Fair": 35735,
  "Fair</w>": 44871,
  "Faire</w>": 4911,
  "Fais</w>": 29124,
  "Faisant</w>": 31767,
  "Fait</w>": 17760,
  "Faites-": 34086,
  "Faites</w>": 5852,
  "Faits</w>": 34677,
  "Fal": 9471,
  "Fall": 26620,
  "Fall</w>": 35405,
  "Falls</w>": 43430,
  "Fam": 32538,
  "Famili": 35181,
  "Famille</w>": 7181,
  "Familles</w>": 46409,
  "Family</w>": 32840,
  "Fan": 18102,
  "Fan</w>": 41581,
  "Fanny</w>": 27119,
  "Fant": 19372,
  "Fantasy</w>": 27947,
  "Far": 6676,
  "Fari": 41427,
  "Fas": 25536,
  "Fashion</w>": 32653,
  "Faso</w>": 14871,
  "Fast</w>": 40996,
  "Fat": 22972,
  "Fatah</w>": 44293,
  "Fati": 36994,
  "Fatima</w>": 39412,
  "Fau": 7360,
  "Faure</w>": 30893,
  "Faut-il</w>": 12342,
  "Faut</w>": 15471,
  "Faute</w>": 20554,
  "Fav": 19453,
  "Fay": 20886,
  "Fayard</w>": 45354,
  "Fe": 6599,
  "Fed</w>": 13249,
  "Feder": 25194,
  "Federal</w>": 40422,
  "Federer</w>": 21943,
  "Fel": 19386,
  "Feli": 44334,
  "Felipe</w>": 35386,
  "Felix</w>": 41120,
  "Fell": 46180,
  "Fem": 26129,
  "Femme</w>": 11601,
  "Femmes</w>": 14277,
  "Fen": 20690,
  "Fer": 5176,
  "Fer</w>": 28310,
  "Ferdin": 49365,
  "Ferdinand</w>": 19556,
  "Fergu": 49948,
  "Ferguson</w>": 38273,
  "Ferme": 49520,
  "Ferme</w>": 30024,
  "Fermer</w>": 17549,
  "Fermeture</w>": 41635,
  "Fern": 24270,
  "Fernand</w>": 24953,
  "Fernandez</w>": 36135,
  "Fernando</w>": 20917,
  "Ferr": 17306,
  "Ferrand</w>": 43040,
  "Ferrari</w>": 14795,
  "Ferrer</w>": 45305,
  "Ferry</w>": 32548,
  "Festi": 41373,
  "Festival</w>": 4838,
  "Feu": 18811,
  "Feu</w>": 22732,
  "Feuille</w>": 40576,
  "Fi": 2978,
  "Fi</w>": 46921,
  "Fiat</w>": 19592,
  "Fiche</w>": 10346,
  "Fiches</w>": 43537,
  "Fichier</w>": 42167,
  "Fid": 40921,
  "Fidel</w>": 37553,
  "Fidji</w>": 36624,
  "Fidèle</w>": 32713,
  "Field</w>": 27050,
  "Fifa</w>": 27315,
  "Figaro</w>": 9875,
  "Figh": 35664,
  "Figu": 23208,
  "Figure</w>": 16331,
  "Fil": 9764,
  "Fil</w>": 9042,
  "Fili": 16913,
  "Fille</w>": 25732,
  "Filles</w>": 39215,
  "Fillon</w>": 5243,
  "Film</w>": 15018,
  "Films</w>": 25548,
  "Fils</w>": 8387,
  "Fin": 6051,
  "Fin</w>": 8899,
  "Final</w>": 25133,
  "Finale</w>": 44199,
  "Finalement</w>": 6486,
  "Finance.": 50762,
  "Finance.com.</w>": 60329,
  "Finance</w>": 15149,
  "Financement</w>": 26141,
  "Finances</w>": 6884,
  "Financi": 48456,
  "Financial</w>": 25694,
  "Financière</w>": 44408,
  "Fini</w>": 33380,
  "Finistère</w>": 23694,
  "Finlandais</w>": 41857,
  "Finlande</w>": 7840,
  "Fior": 36901,
  "Fir": 26125,
  "Fire": 38145,
  "Fire</w>": 26661,
  "Firefox</w>": 18354,
  "First</w>": 24072,
  "Fis": 19636,
  "Fischer</w>": 35349,
  "Fisher</w>": 39688,
  "Fit": 20526,
  "Fitz": 33083,
  "Fix": 28149,
  "Fl": 4280,
  "Fla": 29668,
  "Flam": 17314,
  "Flammarion</w>": 41252,
  "Flandre</w>": 16033,
  "Flandres</w>": 35718,
  "Flash": 46076,
  "Flash</w>": 14211,
  "Flau": 50108,
  "Flaubert</w>": 39402,
  "Fle": 33439,
  "Fleur": 32853,
  "Fleur</w>": 27673,
  "Fleurs</w>": 29852,
  "Fleury</w>": 33375,
  "Fli": 30947,
  "Flo": 18658,
  "Flor": 11583,
  "Florence</w>": 9083,
  "Florent</w>": 21941,
  "Flori": 27655,
  "Florian</w>": 23544,
  "Floride</w>": 11347,
  "Floyd</w>": 43887,
  "Flu": 31240,
  "Fly": 35688,
  "Flyers</w>": 44505,
  "Flynn</w>": 45541,
  "Flèche</w>": 29712,
  "Fnac</w>": 33399,
  "Fo": 14062,
  "Foc": 38991,
  "Focus</w>": 31242,
  "Foi</w>": 35650,
  "Foire</w>": 27428,
  "Fol": 14857,
  "Foli": 25648,
  "Fon": 8117,
  "Fonc": 14808,
  "Fonction</w>": 21958,
  "Fond": 17833,
  "Fond</w>": 43017,
  "Fondation</w>": 5584,
  "Fonds</w>": 3229,
  "Fondé</w>": 32152,
  "Fondée</w>": 29073,
  "Fontain": 47653,
  "Fontaine</w>": 14776,
  "Fontainebleau</w>": 30179,
  "Fonten": 25143,
  "Foo": 39928,
  "Food</w>": 29082,
  "Foot": 36588,
  "Foot</w>": 28958,
  "Football</w>": 14968,
  "For": 2578,
  "For</w>": 25211,
  "Forbes</w>": 40150,
  "Force</w>": 6651,
  "Forces</w>": 11147,
  "Forcément</w>": 43708,
  "Ford</w>": 9594,
  "Foreign</w>": 44416,
  "Forest</w>": 26395,
  "Form": 39659,
  "Format</w>": 29317,
  "Formation</w>": 8997,
  "Formations</w>": 45723,
  "Forme</w>": 23430,
  "Formul": 30177,
  "Formule</w>": 17312,
  "Formé</w>": 43987,
  "Fort</w>": 7973,
  "Forte</w>": 30629,
  "Fortin</w>": 33968,
  "Fortune</w>": 46206,
  "Forum</w>": 6188,
  "Forêt</w>": 20063,
  "Forêts</w>": 43802,
  "Foss": 45478,
  "Foster</w>": 42894,
  "Fou": 7094,
  "Fou</w>": 41041,
  "Foucault</w>": 35924,
  "Foul": 43098,
  "Foun": 48483,
  "Foundation</w>": 27433,
  "Four": 9684,
  "Four</w>": 21566,
  "Fourn": 42662,
  "Fourni": 42392,
  "Fournier</w>": 24797,
  "Fox": 40579,
  "Fox</w>": 16442,
  "Foy</w>": 43203,
  "Foyer</w>": 46159,
  "Fr": 3741,
  "Fr</w>": 33795,
  "Fra": 32795,
  "Frais</w>": 8832,
  "Fran": 6519,
  "Franc": 19280,
  "Franc</w>": 43092,
  "France": 15886,
  "France-": 15864,
  "France.": 27309,
  "France</w>": 143,
  "Frances": 39374,
  "Francesco</w>": 27936,
  "Francfort</w>": 14701,
  "Franche-": 50066,
  "Franche-Comté</w>": 24873,
  "Franchement</w>": 22791,
  "Franci": 43875,
  "Francine</w>": 41163,
  "Francis": 48203,
  "Francis</w>": 8628,
  "Francisco</w>": 10182,
  "Franck</w>": 11057,
  "Franco": 31383,
  "Franco-": 38807,
  "Franco</w>": 23272,
  "Francophonie</w>": 27108,
  "Francs</w>": 27984,
  "Frank": 22309,
  "Frank</w>": 9795,
  "Franklin</w>": 26966,
  "Franz</w>": 25700,
  "Franç": 27269,
  "Français</w>": 1139,
  "Française</w>": 7021,
  "Françaises</w>": 27606,
  "François-": 19481,
  "François</w>": 954,
  "Françoise</w>": 9673,
  "Fraser</w>": 37474,
  "Fraternité</w>": 32704,
  "Fre": 6691,
  "Fred</w>": 14792,
  "Freddy</w>": 43506,
  "Frederi": 26932,
  "Free": 20201,
  "Free</w>": 11163,
  "Fren": 39487,
  "French</w>": 19027,
  "Fres": 21146,
  "Freud</w>": 22266,
  "Fri": 9666,
  "Fribourg</w>": 32737,
  "Friday</w>": 24816,
  "Frie": 48541,
  "Fried": 32798,
  "Friedrich</w>": 32470,
  "Frit": 47069,
  "Fritz</w>": 35873,
  "Fro": 16295,
  "From": 28304,
  "From</w>": 45934,
  "Fron": 19184,
  "Front</w>": 4986,
  "Frontières</w>": 46561,
  "Froome</w>": 41169,
  "Fruit</w>": 44412,
  "Fruits</w>": 42592,
  "Frère</w>": 27830,
  "Frères</w>": 12882,
  "Fré": 13800,
  "Frédé": 38337,
  "Frédéric</w>": 5359,
  "Frédérique</w>": 39721,
  "Fréjus</w>": 43927,
  "Fu": 4552,
  "Fuk": 48771,
  "Fukushima</w>": 23336,
  "Ful": 26314,
  "Full</w>": 27937,
  "Fum": 41808,
  "Fun": 15831,
  "Fund</w>": 45963,
  "Fur": 17158,
  "Futu": 32204,
  "Future</w>": 41736,
  "FÉ": 35982,
  "FÉREN": 47678,
  "Fé": 26663,
  "Fédér": 40586,
  "Fédérale</w>": 41530,
  "Fédération</w>": 3365,
  "Féli": 24448,
  "Félicitations</w>": 43060,
  "Félix</w>": 15969,
  "Fémin": 43752,
  "Fév</w>": 32724,
  "Février</w>": 18161,
  "Fête</w>": 15036,
  "Fêtes</w>": 24209,
  "G": 293,
  "G-": 13966,
  "G.": 15135,
  "G.</w>": 6467,
  "G20</w>": 20980,
  "G7</w>": 37572,
  "G8</w>": 35082,
  "G</w>": 1495,
  "GA": 14495,
  "GA</w>": 15057,
  "GAG": 45473,
  "GAL": 32273,
  "GAL</w>": 45707,
  "GAN": 45501,
  "GAR": 11500,
  "GARAGE</w>": 35604,
  "GARANTI": 47484,
  "GARANTIE</w>": 38992,
  "GAT": 45397,
  "GATT</w>": 39257,
  "GAU": 29433,
  "GB</w>": 19779,
  "GC</w>": 17954,
  "GDF</w>": 32090,
  "GE": 7051,
  "GE</w>": 5148,
  "GEMENT</w>": 32970,
  "GEN": 12229,
  "GENER": 24659,
  "GENERALE</w>": 41697,
  "GENERALES</w>": 30751,
  "GENT</w>": 43771,
  "GER": 19154,
  "GER</w>": 14496,
  "GES": 40003,
  "GES</w>": 10954,
  "GESTION</w>": 14088,
  "GH": 31572,
  "GHT</w>": 39830,
  "GHz</w>": 35721,
  "GI": 5340,
  "GI</w>": 28331,
  "GIE</w>": 15318,
  "GIEC</w>": 38748,
  "GIQUE</w>": 31489,
  "GIS": 46807,
  "GISL": 43568,
  "GL": 11778,
  "GL</w>": 33684,
  "GLEMENT</w>": 50352,
  "GLO": 35195,
  "GM</w>": 17138,
  "GMT</w>": 13464,
  "GN": 9623,
  "GN</w>": 38922,
  "GNE</w>": 19484,
  "GNU</w>": 43152,
  "GO": 10838,
  "GO</w>": 15126,
  "GOR": 48119,
  "GORIE</w>": 43670,
  "GOU": 40863,
  "GOUVER": 50602,
  "GOUVERN": 38456,
  "GP": 42266,
  "GP</w>": 17231,
  "GPA</w>": 41707,
  "GPL</w>": 40326,
  "GPS</w>": 9175,
  "GR": 9869,
  "GR</w>": 21170,
  "GRA": 17140,
  "GRAN": 20780,
  "GRAND</w>": 26816,
  "GRAPH": 33452,
  "GRAPHIE</w>": 40436,
  "GRATU": 24698,
  "GRATUIT</w>": 35062,
  "GRC</w>": 21539,
  "GRE": 19194,
  "GRI": 33635,
  "GRO": 33020,
  "GROU": 35452,
  "GROUPE</w>": 25862,
  "GS": 43531,
  "GS</w>": 19295,
  "GSM</w>": 36059,
  "GT": 16237,
  "GT</w>": 18840,
  "GTA</w>": 40418,
  "GTON</w>": 49839,
  "GU": 8145,
  "GUE</w>": 26719,
  "GUES</w>": 39852,
  "GUI": 22836,
  "GUIDE</w>": 7606,
  "GUS": 48645,
  "GUSTATION</w>": 50743,
  "Ga": 11828,
  "Gab": 13248,
  "Gabon</w>": 15280,
  "Gabri": 31107,
  "Gabriel</w>": 9654,
  "Gabrielle</w>": 27827,
  "Gad": 33949,
  "Gag": 15264,
  "Gaga</w>": 36332,
  "Gagnon</w>": 27607,
  "Gai": 41740,
  "Gaillard</w>": 45423,
  "Gain": 47695,
  "Gainsbourg</w>": 39400,
  "Gal": 6424,
  "Gala</w>": 39213,
  "Galax": 47211,
  "Galaxy</w>": 14919,
  "Galer": 48971,
  "Galerie</w>": 19899,
  "Galeries</w>": 44090,
  "Gali": 19018,
  "Galilée</w>": 33592,
  "Gall": 15103,
  "Gall</w>": 41133,
  "Galler": 49583,
  "Gallery</w>": 41699,
  "Galles</w>": 15889,
  "Galli": 23381,
  "Gallimard</w>": 19969,
  "Gallois</w>": 36783,
  "Gam": 11522,
  "Gamb": 34429,
  "Gambie</w>": 37804,
  "Game": 26434,
  "Game</w>": 15728,
  "Games</w>": 19127,
  "Gan": 20819,
  "Gand": 37600,
  "Gand</w>": 26841,
  "Gandhi</w>": 44097,
  "Gao</w>": 45086,
  "Gap</w>": 39615,
  "Gar": 3318,
  "Garage</w>": 27666,
  "Garanti": 45493,
  "Garantie</w>": 10205,
  "Garcia</w>": 17973,
  "Gard": 19050,
  "Gard</w>": 23774,
  "Garde</w>": 13183,
  "Garden</w>": 31100,
  "Gardez</w>": 36511,
  "Gardiens</w>": 44573,
  "Gare</w>": 16671,
  "Gari": 43565,
  "Garnier</w>": 27009,
  "Garonne</w>": 18036,
  "Garros</w>": 47446,
  "Gary</w>": 19885,
  "Gas": 12071,
  "Gascogne</w>": 41829,
  "Gaspard</w>": 36889,
  "Gaspé": 49087,
  "Gaspésie</w>": 37008,
  "Gasquet</w>": 45935,
  "Gaston</w>": 17011,
  "Gat": 31056,
  "Gate</w>": 41595,
  "Gates</w>": 33485,
  "Gati": 47660,
  "Gatineau</w>": 17420,
  "Gau": 7982,
  "Gauche</w>": 16512,
  "Gaul": 46656,
  "Gaule</w>": 27899,
  "Gaulle</w>": 9871,
  "Gaulois</w>": 33873,
  "Gauth": 49602,
  "Gauthier</w>": 24266,
  "Gautier</w>": 32687,
  "Gav": 25958,
  "Gay": 30411,
  "Gay</w>": 31143,
  "Gaz": 16008,
  "Gaz</w>": 30244,
  "Gaza</w>": 7893,
  "Gazette</w>": 28608,
  "Gaël</w>": 35262,
  "Gbag": 50441,
  "Gbagbo</w>": 17655,
  "Ge": 5624,
  "Gear</w>": 39152,
  "Gel": 31719,
  "Gel</w>": 40092,
  "Gels</w>": 41232,
  "Gem": 24120,
  "Gen": 6406,
  "Gend": 47529,
  "Gendarmerie</w>": 29490,
  "Gener": 23138,
  "General</w>": 15384,
  "Genevi": 49618,
  "Geneviève</w>": 16423,
  "Genre</w>": 26201,
  "Genti": 23023,
  "Genèse</w>": 36947,
  "Genève</w>": 4453,
  "Geo": 33889,
  "Geoff": 48529,
  "Geoffrey</w>": 43571,
  "Geoffroy</w>": 35805,
  "Geor": 19036,
  "Georg": 44057,
  "Georg</w>": 42773,
  "George</w>": 4705,
  "Georges-": 44820,
  "Georges</w>": 4624,
  "Ger": 4184,
  "Germain</w>": 20521,
  "Gers</w>": 36611,
  "Gervais</w>": 46115,
  "Ges": 21741,
  "Gest": 46539,
  "Gestion</w>": 6256,
  "Gestionnaire</w>": 46532,
  "Gh": 14906,
  "Ghan": 47219,
  "Ghana</w>": 18060,
  "Ghisl": 41606,
  "Ghos": 42454,
  "Ghost</w>": 42854,
  "Gi": 3559,
  "Giacom": 45867,
  "Gian": 41467,
  "Gib": 35477,
  "Gibral": 50521,
  "Gibraltar</w>": 33780,
  "Gibson</w>": 40077,
  "Gig": 27806,
  "Gil": 11352,
  "Gil</w>": 39874,
  "Gilbert</w>": 11700,
  "Gill": 28752,
  "Gilles</w>": 6138,
  "Gim": 37606,
  "Gin": 26807,
  "Gior": 47822,
  "Giorgio</w>": 40511,
  "Giov": 48281,
  "Giovanni</w>": 22496,
  "Gir": 12793,
  "Girard</w>": 23227,
  "Giraud</w>": 45659,
  "Girl</w>": 26859,
  "Girls</w>": 35439,
  "Gironde</w>": 17794,
  "Girondins</w>": 35972,
  "Girou": 40366,
  "Gis": 26011,
  "Giscard</w>": 31928,
  "Giu": 26463,
  "Gius": 49430,
  "Giuseppe</w>": 33090,
  "Gl": 9403,
  "Gla": 32126,
  "Glas": 48375,
  "Glasgow</w>": 32398,
  "Glass</w>": 41620,
  "Glenn</w>": 40574,
  "Glo": 16010,
  "Glob": 48086,
  "Global</w>": 15134,
  "Globalement</w>": 26261,
  "Globe</w>": 24762,
  "Glori": 45625,
  "Gloria</w>": 42372,
  "Glu": 38763,
  "GmbH</w>": 32411,
  "Gn": 32998,
  "Go": 4151,
  "Go</w>": 6998,
  "Gob": 20506,
  "God": 19553,
  "God</w>": 43165,
  "Godard</w>": 41674,
  "Goet": 49773,
  "Goethe</w>": 39109,
  "Gog": 49352,
  "Gogh</w>": 43372,
  "Gol": 13239,
  "Gold": 20905,
  "Gold</w>": 20280,
  "Golden</w>": 17380,
  "Goldman</w>": 24787,
  "Golf</w>": 20158,
  "Golfe</w>": 12598,
  "Gom": 22023,
  "Gomez</w>": 33358,
  "Gon": 15182,
  "Goncourt</w>": 34218,
  "Gonz": 24401,
  "Gonzalez</w>": 44955,
  "Goo": 16274,
  "Good": 36094,
  "Good</w>": 29503,
  "Google</w>": 2372,
  "Gor": 8860,
  "Gordon</w>": 20445,
  "Gorges</w>": 40952,
  "Gos": 26495,
  "Goss": 33539,
  "Got": 29861,
  "Goth": 42214,
  "Gou": 8522,
  "Goul": 30554,
  "Gour": 12624,
  "Gouvern": 23538,
  "Gouvernement</w>": 2650,
  "Gouverneur</w>": 30312,
  "Gr": 4291,
  "Gra": 10822,
  "Graal</w>": 37978,
  "Grace</w>": 21088,
  "Graham</w>": 27124,
  "Gram": 25708,
  "Grammy</w>": 46203,
  "Gran": 7894,
  "Gran</w>": 44430,
  "Granby</w>": 38451,
  "Grand": 23811,
  "Grand-": 12608,
  "Grand</w>": 1674,
  "Grande-": 29584,
  "Grande-Bretagne</w>": 5910,
  "Grande</w>": 3917,
  "Grandes</w>": 23400,
  "Grands</w>": 11879,
  "Grant</w>": 25630,
  "Grap": 35190,
  "Graphi": 42794,
  "Graphique</w>": 39470,
  "Grass": 33472,
  "Grasse</w>": 34669,
  "Grat": 38602,
  "Gratui": 48683,
  "Gratuit</w>": 25176,
  "Gratuite</w>": 42240,
  "Gratuitement</w>": 34074,
  "Grav": 18508,
  "Gray</w>": 32299,
  "Gre": 7357,
  "Great</w>": 33154,
  "Grec": 47340,
  "Grecs</w>": 12070,
  "Green": 21076,
  "Green</w>": 13257,
  "Greenpeace</w>": 28400,
  "Greg": 26552,
  "Greg</w>": 23067,
  "Gregory</w>": 37979,
  "Gren": 17818,
  "Grenade</w>": 28068,
  "Grenelle</w>": 25188,
  "Grenier</w>": 41607,
  "Grenoble</w>": 9003,
  "Grey</w>": 26633,
  "Gri": 4807,
  "Grim": 45568,
  "Gris": 32930,
  "Gris</w>": 36925,
  "Gro": 8060,
  "Groen": 48394,
  "Groenland</w>": 32984,
  "Gros": 35659,
  "Gros</w>": 16614,
  "Gross": 30012,
  "Grosse</w>": 36981,
  "Grossesse</w>": 39786,
  "Grou": 14520,
  "Group</w>": 10508,
  "Groupe</w>": 1865,
  "Groupement</w>": 38957,
  "Groupes</w>": 32759,
  "Gru": 24611,
  "Grâce</w>": 2438,
  "Grè": 41302,
  "Grèce</w>": 3002,
  "Gré": 41965,
  "Grég": 48824,
  "Grégoire</w>": 17208,
  "Grégory</w>": 30948,
  "Gu": 2095,
  "Guad": 42951,
  "Guadel": 49125,
  "Guadeloupe</w>": 17569,
  "Guantan": 50784,
  "Guantanamo</w>": 43574,
  "Guar": 46015,
  "Guardi": 43767,
  "Guardian</w>": 27340,
  "Guat": 49816,
  "Guatem": 50459,
  "Guatemala</w>": 22207,
  "Guer": 14162,
  "Guerre</w>": 3349,
  "Gui": 5089,
  "Guide</w>": 6261,
  "Guil": 18953,
  "Guill": 14825,
  "Guillaume</w>": 5086,
  "Guin": 34037,
  "Guing": 49574,
  "Guingamp</w>": 37987,
  "Guiné": 48232,
  "Guinée-": 49998,
  "Guinée-Bissau</w>": 40874,
  "Guinée</w>": 11753,
  "Gul": 28118,
  "Gun": 16065,
  "Gur": 30030,
  "Gust": 25196,
  "Gustave</w>": 21656,
  "Guy": 17192,
  "Guy</w>": 6027,
  "Guyane</w>": 16661,
  "Gué": 46886,
  "Guéant</w>": 35245,
  "Guér": 29440,
  "Guérin</w>": 43862,
  "Gw": 25520,
  "Gy": 19014,
  "Gymn": 43856,
  "GÉ": 31929,
  "GÉN": 48623,
  "GÉNÉRA": 32403,
  "GÉNÉRALE</w>": 39432,
  "GÉNÉRALES</w>": 37755,
  "Gâ": 33578,
  "Gé": 11403,
  "Gén": 23018,
  "Génie</w>": 30356,
  "Génér": 18928,
  "Général</w>": 6434,
  "Générale</w>": 10311,
  "Généralement</w>": 20737,
  "Générales</w>": 30936,
  "Généraliste</w>": 30990,
  "Généralités</w>": 39492,
  "Génération</w>": 34585,
  "Géo": 28140,
  "Géographie</w>": 33440,
  "Géorgie</w>": 13134,
  "Gér": 14832,
  "Gérald</w>": 29492,
  "Gérard</w>": 5897,
  "Gérer</w>": 34975,
  "Gênes</w>": 26928,
  "Gîte</w>": 32053,
  "Gîtes</w>": 12177,
  "Gö": 25296,
  "Gü": 41478,
  "H": 419,
  "H-": 23940,
  "H.": 18676,
  "H.</w>": 9074,
  "H.T.</w>": 38232,
  "H00</w>": 14204,
  "H1": 49777,
  "H1N1</w>": 45145,
  "H2": 42990,
  "H30</w>": 25258,
  "H</w>": 1512,
  "HA": 12648,
  "HA</w>": 23777,
  "HABI": 32035,
  "HACHETTE</w>": 15752,
  "HAN": 41989,
  "HAR": 24157,
  "HAU": 21489,
  "HB</w>": 44609,
  "HBO</w>": 40441,
  "HC</w>": 18072,
  "HCR</w>": 19455,
  "HD": 29285,
  "HD</w>": 7282,
  "HDMI</w>": 33172,
  "HE": 15246,
  "HE</w>": 36266,
  "HEC</w>": 28647,
  "HEL": 45432,
  "HEN": 41761,
  "HER": 23513,
  "HF</w>": 32526,
  "HI": 12946,
  "HICU": 46507,
  "HIDDEN</w>": 29671,
  "HIER</w>": 49460,
  "HIN": 49346,
  "HIST": 46042,
  "HISTOIRE</w>": 35174,
  "HL</w>": 24268,
  "HLM</w>": 27748,
  "HO": 8182,
  "HO</w>": 45995,
  "HOLL": 43414,
  "HOMME</w>": 33503,
  "HON": 45454,
  "HOR": 41408,
  "HOU": 43732,
  "HP</w>": 10580,
  "HR</w>": 40667,
  "HS": 47717,
  "HS</w>": 18188,
  "HSBC</w>": 34317,
  "HT": 37954,
  "HT</w>": 13012,
  "HTC</w>": 28620,
  "HTM": 47258,
  "HTML</w>": 19766,
  "HTTP</w>": 39958,
  "HU": 21560,
  "HUM": 24191,
  "HY": 22478,
  "Ha": 10382,
  "Ha</w>": 36927,
  "Hab": 15924,
  "Habi": 16982,
  "Habit": 42066,
  "Habitat</w>": 21699,
  "Habituellement</w>": 33401,
  "Habs": 39603,
  "Hach": 34637,
  "Hachette</w>": 35641,
  "Had": 10931,
  "Hadopi</w>": 40188,
  "Hag": 33017,
  "Haguen": 49815,
  "Haguenau</w>": 32800,
  "Hai": 24309,
  "Hain": 47599,
  "Hainaut</w>": 34330,
  "Hak": 27092,
  "Hal": 8777,
  "Hali": 32584,
  "Hall": 29825,
  "Hall</w>": 14814,
  "Halle</w>": 33367,
  "Halles</w>": 39019,
  "Hallo": 49531,
  "Halloween</w>": 22154,
  "Hallyday</w>": 32097,
  "Ham": 5147,
  "Ham</w>": 46150,
  "Hamas</w>": 12641,
  "Hambourg</w>": 21139,
  "Hamid</w>": 46511,
  "Hamil": 49196,
  "Hamilton</w>": 15781,
  "Hamon</w>": 13051,
  "Hamp": 48848,
  "Hampshire</w>": 46208,
  "Han": 7421,
  "Han</w>": 29067,
  "Hand": 23674,
  "Handi": 35046,
  "Hann": 38539,
  "Hannah</w>": 36898,
  "Hano": 47434,
  "Hanou": 48910,
  "Hanouna</w>": 44509,
  "Hanovre</w>": 39573,
  "Hans</w>": 19067,
  "Happ": 47468,
  "Happy</w>": 31342,
  "Har": 3825,
  "Haram</w>": 24024,
  "Hard": 23857,
  "Hard</w>": 36191,
  "Hardy</w>": 32307,
  "Hari": 36050,
  "Harlem</w>": 37871,
  "Harmattan</w>": 40617,
  "Harmon": 40640,
  "Harold</w>": 36152,
  "Harper</w>": 11936,
  "Harri": 47115,
  "Harris</w>": 24612,
  "Harrison</w>": 31601,
  "Harry</w>": 8877,
  "Hart": 29555,
  "Hart</w>": 39231,
  "Harvard</w>": 24299,
  "Harvey</w>": 24493,
  "Has": 16839,
  "Hass": 27739,
  "Hassan</w>": 18920,
  "Hat": 24420,
  "Hau": 11092,
  "Haut": 46806,
  "Haut-": 15453,
  "Haut-Commissaire</w>": 45381,
  "Haut-Commissariat</w>": 30764,
  "Haut-Rhin</w>": 27010,
  "Haut</w>": 7607,
  "Haute-": 9942,
  "Haute-Garonne</w>": 35362,
  "Haute-Normandie</w>": 41980,
  "Haute-Savoie</w>": 32051,
  "Haute</w>": 7403,
  "Hautes-": 26927,
  "Hautes</w>": 32863,
  "Hauteur</w>": 24079,
  "Hauts-": 42676,
  "Hauts-de-": 50258,
  "Hauts-de-Seine</w>": 23403,
  "Hauts</w>": 36574,
  "Hav": 17666,
  "Havane</w>": 29139,
  "Havre</w>": 15604,
  "Haw": 12726,
  "Hawaï</w>": 38122,
  "Hay": 12053,
  "Haye</w>": 18510,
  "Haz": 26658,
  "Hazard</w>": 42395,
  "Haï": 24899,
  "Haïti</w>": 10252,
  "He": 3589,
  "He</w>": 23503,
  "Head</w>": 41538,
  "Health</w>": 22657,
  "Heart</w>": 40709,
  "Heb": 47570,
  "Hebdo</w>": 18098,
  "Hebdomadaire</w>": 15978,
  "Hector</w>": 33265,
  "Hegel</w>": 44769,
  "Hei": 21849,
  "Heid": 40270,
  "Heide": 50691,
  "Heidegger</w>": 41453,
  "Hein": 29480,
  "Heinrich</w>": 37204,
  "Hel": 7775,
  "Helen</w>": 38350,
  "Heli": 44733,
  "Hell": 23904,
  "Hello</w>": 35934,
  "Helsin": 50357,
  "Helsinki</w>": 29909,
  "Hem": 31113,
  "Hen": 18038,
  "Hend": 36368,
  "Hendri": 34855,
  "Henn": 40636,
  "Henri": 30363,
  "Henri-": 38402,
  "Henri</w>": 3552,
  "Henriette</w>": 38359,
  "Henry</w>": 7286,
  "Her": 3428,
  "Herbert</w>": 30158,
  "Hercule</w>": 32561,
  "Herman</w>": 33196,
  "Hermann</w>": 34917,
  "Hermès</w>": 32667,
  "Hern": 28679,
  "Herr": 31871,
  "Hers": 39125,
  "Hervé</w>": 10939,
  "Herz": 48617,
  "Herzég": 50486,
  "Herzégovine</w>": 47361,
  "Hes": 34745,
  "Heu": 33605,
  "Heur": 46941,
  "Heure</w>": 37596,
  "Heures</w>": 25529,
  "Heureusement</w>": 6091,
  "Heureux</w>": 34731,
  "Hexagone</w>": 17041,
  "Hey": 41164,
  "Hey</w>": 36948,
  "Hez": 49716,
  "Hezbollah</w>": 20126,
  "Hi": 5602,
  "Hid": 47270,
  "Hidalgo</w>": 31557,
  "Hier</w>": 8693,
  "Hig": 38649,
  "High": 20217,
  "High</w>": 20062,
  "Hil": 13076,
  "Hilaire</w>": 36006,
  "Hill": 40517,
  "Hill</w>": 16241,
  "Hillary</w>": 15566,
  "Hills</w>": 36529,
  "Him": 42707,
  "Himal": 50030,
  "Himalaya</w>": 43446,
  "Hin": 25533,
  "Hip": 46603,
  "Hippo": 42432,
  "Hippoly": 49984,
  "Hippolyte</w>": 41897,
  "Hir": 17705,
  "Hiro": 47744,
  "Hirosh": 48962,
  "Hiroshima</w>": 44574,
  "His": 33270,
  "Hist": 16389,
  "Histoire</w>": 3224,
  "Histoires</w>": 39730,
  "Historique</w>": 28405,
  "Historiquement</w>": 44636,
  "Hit": 40796,
  "Hitch": 50002,
  "Hitchcock</w>": 45648,
  "Hitler</w>": 12539,
  "Hiver</w>": 35419,
  "Ho": 5292,
  "Ho</w>": 41228,
  "Hob": 24371,
  "Hoch": 44930,
  "Hockey</w>": 39860,
  "Hoff": 26081,
  "Hog": 43650,
  "Hol": 6659,
  "Holl": 18478,
  "Hollandais</w>": 37046,
  "Hollande</w>": 2425,
  "Hollywood</w>": 11786,
  "Holmes</w>": 26780,
  "Hom": 13741,
  "Home": 47240,
  "Home</w>": 16473,
  "HomeAway</w>": 14730,
  "Homm": 44272,
  "Hommage</w>": 43598,
  "Homme</w>": 4388,
  "Hommes</w>": 17915,
  "Homo</w>": 43407,
  "Homs</w>": 42076,
  "Homère</w>": 36817,
  "Hon": 10742,
  "Honda</w>": 20842,
  "Hondu": 50202,
  "Honduras</w>": 28698,
  "Hong": 42433,
  "Hong</w>": 11793,
  "Hongr": 49600,
  "Hongrie</w>": 7382,
  "Hongrois</w>": 41490,
  "Honn": 47899,
  "Honneur</w>": 26001,
  "Honnêtement</w>": 44854,
  "Honoré</w>": 28493,
  "Hoo": 23526,
  "Hop": 28743,
  "Hop</w>": 35576,
  "Hope</w>": 38861,
  "Hor": 5866,
  "Horace</w>": 38946,
  "Horaires</w>": 42521,
  "Horiz": 47249,
  "Horizon</w>": 41170,
  "Hormis</w>": 26530,
  "Hors</w>": 11529,
  "Horte": 50543,
  "Hortefeux</w>": 44729,
  "Hos": 16630,
  "Hosni</w>": 44211,
  "Hospitali": 38690,
  "Hoss": 44951,
  "Hot": 28766,
  "Hot</w>": 29777,
  "Hou": 6926,
  "House</w>": 11218,
  "Houston</w>": 21497,
  "Howard</w>": 20831,
  "Hu": 3152,
  "Hua": 50590,
  "Huawei</w>": 40973,
  "Hubert</w>": 13638,
  "Hudson</w>": 28987,
  "Huff": 37910,
  "Hugh</w>": 35067,
  "Hughes</w>": 41508,
  "Hugo</w>": 8534,
  "Hugues</w>": 20306,
  "Hui": 46661,
  "Huile</w>": 25844,
  "Huiles</w>": 28942,
  "Huit</w>": 18168,
  "Hul": 29461,
  "Hull</w>": 43558,
  "Hulot</w>": 35674,
  "Hum": 9670,
  "Humaines</w>": 33204,
  "Human": 37833,
  "Human</w>": 21665,
  "Humanité</w>": 25322,
  "Hun": 14901,
  "Hunt</w>": 45087,
  "Hunter</w>": 31974,
  "Hur": 15325,
  "Hus": 33058,
  "Huss": 37185,
  "Hussein</w>": 21724,
  "Hy": 7389,
  "Hyac": 50257,
  "Hyacinthe</w>": 46457,
  "Hydr": 41940,
  "Hydro": 42698,
  "Hydro-Québec</w>": 28769,
  "Hygi": 49622,
  "Hygiène</w>": 45847,
  "Hyp": 45205,
  "Hyper": 30497,
  "Hypo": 39161,
  "Hyund": 50583,
  "Hyundai</w>": 42900,
  "Hz</w>": 24064,
  "HÉ": 37306,
  "Hé": 33120,
  "Hé</w>": 27772,
  "Héb": 25636,
  "Héber": 47948,
  "Hébergement</w>": 42417,
  "Hébert</w>": 34724,
  "Hél": 39380,
  "Hélas</w>": 19913,
  "Héli": 34553,
  "Hélène</w>": 8805,
  "Hér": 16059,
  "Hérault</w>": 22621,
  "Héri": 30152,
  "Héros</w>": 42230,
  "Hô": 18549,
  "Hôpital</w>": 17850,
  "I": 420,
  "I'</w>": 12191,
  "I-": 14916,
  "I.": 9839,
  "I.</w>": 7314,
  "I</w>": 699,
  "IA": 40637,
  "IA</w>": 15138,
  "IB": 20359,
  "IBM</w>": 18743,
  "IC": 30075,
  "IC</w>": 15862,
  "ICI</w>": 15516,
  "ID": 24179,
  "ID-": 50276,
  "ID-Assistance</w>": 44972,
  "ID</w>": 18408,
  "IDE</w>": 32032,
  "IDENTI": 45399,
  "IE": 38370,
  "IE</w>": 8766,
  "IER</w>": 34318,
  "IEUR</w>": 33529,
  "IF": 20346,
  "IG": 12913,
  "IG</w>": 36823,
  "IGN": 47453,
  "IGN</w>": 36524,
  "IGP</w>": 33768,
  "IH": 44024,
  "II": 8301,
  "II.": 24586,
  "II</w>": 1241,
  "III.": 32672,
  "III</w>": 2864,
  "IIIe</w>": 33318,
  "IIe</w>": 32654,
  "IIème</w>": 47323,
  "IK": 40221,
  "IL": 11193,
  "IL</w>": 6900,
  "ILI": 32512,
  "ILL": 16415,
  "ILLE</w>": 19062,
  "ILS</w>": 22591,
  "IM": 10348,
  "IM</w>": 25757,
  "IMM": 30150,
  "IMMO": 49173,
  "IMMOBILI": 32876,
  "IMP": 14077,
  "IMPOR": 46197,
  "IMPORTANT</w>": 46448,
  "IN": 1595,
  "IN</w>": 9717,
  "INA</w>": 34557,
  "INC</w>": 45804,
  "IND": 48188,
  "INDE": 48026,
  "INDEX</w>": 43920,
  "INDI": 24422,
  "INDUS": 50353,
  "INDUSTRI": 25539,
  "INE</w>": 3893,
  "INES</w>": 18322,
  "INF": 34456,
  "INFO</w>": 41214,
  "INFORM": 47250,
  "INFORMATION</w>": 22253,
  "INFORMATIONS</w>": 31904,
  "INFORMATIQUE</w>": 37403,
  "ING</w>": 10015,
  "INNOV": 42753,
  "INS</w>": 9555,
  "INSCRI": 47666,
  "INSCRIPTION</w>": 38292,
  "INSEE</w>": 32785,
  "INSTA": 48921,
  "INSTALL": 48286,
  "INSTALLATION</w>": 33720,
  "INSTITU": 36859,
  "INT</w>": 46245,
  "INTER": 8370,
  "INTERNATIONAL</w>": 36610,
  "INTERNET</w>": 32806,
  "INTRO": 49521,
  "INTRODUCTION</w>": 18944,
  "INTÉ": 28817,
  "INV": 29666,
  "INVES": 30390,
  "IP": 12824,
  "IP</w>": 7032,
  "IQUE</w>": 13236,
  "IQUES</w>": 41654,
  "IR": 10516,
  "IR</w>": 13654,
  "IRA</w>": 45336,
  "IRL</w>": 40443,
  "IRM</w>": 29154,
  "IRSC</w>": 20665,
  "IS": 2323,
  "IS</w>": 7297,
  "ISATION</w>": 29680,
  "ISBN</w>": 17211,
  "ISE</w>": 10157,
  "ISES</w>": 29368,
  "ISF</w>": 24148,
  "ISI": 16220,
  "ISION</w>": 37847,
  "ISME</w>": 33176,
  "ISO</w>": 11503,
  "ISON</w>": 35619,
  "ISS": 15093,
  "ISS</w>": 26510,
  "ISSANCE</w>": 30184,
  "ISSE</w>": 26600,
  "ISSION</w>": 48396,
  "ISSN</w>": 43253,
  "IST": 30650,
  "IST</w>": 42953,
  "IT": 10928,
  "IT</w>": 10530,
  "ITA": 42487,
  "ITE</w>": 25854,
  "ITI": 23444,
  "ITS</w>": 48187,
  "IU": 38543,
  "IUT</w>": 36015,
  "IV": 14026,
  "IV</w>": 4345,
  "IVG</w>": 36222,
  "IVe</w>": 38587,
  "IX</w>": 12707,
  "Ia</w>": 34204,
  "Ian</w>": 20841,
  "Ib": 25530,
  "Ibi": 37937,
  "Ibn</w>": 26298,
  "Ibra": 47906,
  "Ibrahim": 49508,
  "Ibrahim</w>": 24500,
  "Ibrahimovic</w>": 35588,
  "Ice</w>": 39834,
  "Ici</w>": 3374,
  "Id": 23915,
  "Idem</w>": 24826,
  "Identi": 20774,
  "Identification</w>": 37117,
  "Identifier</w>": 17503,
  "Idr": 33825,
  "Idé": 47785,
  "Idéal</w>": 11382,
  "Idéale</w>": 43291,
  "Idéalement</w>": 23087,
  "Idée</w>": 41286,
  "Idées</w>": 45006,
  "Ie</w>": 22185,
  "Ier</w>": 12211,
  "If</w>": 37955,
  "Ifop</w>": 37801,
  "Ig": 39871,
  "Ign": 20001,
  "Igor</w>": 36977,
  "Ik": 46027,
  "Ike": 49177,
  "Ikea</w>": 44496,
  "Il": 9527,
  "Il</w>": 59,
  "Ile-de-France</w>": 12674,
  "Ile</w>": 14611,
  "Iles</w>": 35315,
  "Ili": 33312,
  "Ill": 23242,
  "Ille-et-": 50646,
  "Ille-et-Vilaine</w>": 42312,
  "Illinois</w>": 26679,
  "Illustr": 24925,
  "Ils</w>": 262,
  "Im": 3277,
  "Imag": 18859,
  "Image</w>": 20373,
  "Images</w>": 27450,
  "Imagin": 35935,
  "Imaginez</w>": 19391,
  "Immigration</w>": 33319,
  "Immobilier</w>": 18661,
  "Immédi": 49989,
  "Immédiatement</w>": 43062,
  "Impa": 48333,
  "Impact</w>": 19347,
  "Import": 34455,
  "Impossible</w>": 16502,
  "Impression</w>": 43415,
  "Imprim": 29828,
  "Imprimer</w>": 22388,
  "Impéri": 36204,
  "Impôts</w>": 47151,
  "In": 971,
  "In</w>": 7359,
  "Inc.</w>": 34302,
  "Inc</w>": 15175,
  "Incar": 42374,
  "Incorpor": 40785,
  "Incorporer</w>": 31865,
  "Ind": 24101,
  "Inde</w>": 3416,
  "Independ": 45887,
  "Indes</w>": 22867,
  "Index</w>": 33437,
  "Indi": 9896,
  "India</w>": 29470,
  "Indian</w>": 33816,
  "Indiana</w>": 27594,
  "Indic": 31372,
  "Indice</w>": 29310,
  "Indien</w>": 16368,
  "Indiens</w>": 13073,
  "Indiquez</w>": 36602,
  "Indivi": 41349,
  "Indo": 48544,
  "Indochine</w>": 30895,
  "Indon": 46862,
  "Indonésie</w>": 11315,
  "Indre</w>": 41510,
  "Indus": 50769,
  "Industri": 21584,
  "Industrie</w>": 12477,
  "Industries</w>": 28936,
  "Indépendance</w>": 39869,
  "Indépendant</w>": 44003,
  "Inf": 22626,
  "Infan": 40368,
  "Infin": 37958,
  "Influ": 41981,
  "Info": 39240,
  "Info</w>": 18566,
  "Inform": 34848,
  "Information</w>": 10335,
  "Informations": 50031,
  "Informations</w>": 11217,
  "InformationsCet</w>": 40192,
  "Informatique</w>": 16849,
  "Infos</w>": 15704,
  "Infr": 33222,
  "Infrastruc": 33101,
  "Ing": 29010,
  "Ingrid</w>": 36016,
  "Ingrédi": 49294,
  "Ingrédients</w>": 19671,
  "Ingéni": 46933,
  "Ingénierie</w>": 35432,
  "Ingénieur</w>": 26795,
  "Ini": 39145,
  "Initi": 21661,
  "Initialement</w>": 29339,
  "Initiative</w>": 15621,
  "Inn</w>": 35422,
  "Inno": 27835,
  "Innov": 41883,
  "Innovation</w>": 21510,
  "Ins": 13723,
  "Inscri": 47199,
  "Inscription</w>": 29018,
  "Inscrivez-vous</w>": 32117,
  "Insee</w>": 14938,
  "Inser": 44351,
  "Inspec": 47783,
  "Inspecteur</w>": 42317,
  "Inspection</w>": 26703,
  "Inspi": 29211,
  "Inspiré</w>": 45153,
  "Inst": 17200,
  "Instagram</w>": 12741,
  "Install": 44288,
  "Installation</w>": 16251,
  "Installer</w>": 45507,
  "Installé</w>": 42939,
  "Instance</w>": 34153,
  "Institu": 25769,
  "Institut</w>": 2776,
  "Institute</w>": 17074,
  "Institution</w>": 42061,
  "Institutions</w>": 38757,
  "Instr": 48236,
  "Instruction</w>": 43888,
  "Instruments</w>": 43287,
  "Int": 27555,
  "Inten": 45248,
  "Inter": 3609,
  "Inter</w>": 14117,
  "Interactive</w>": 44587,
  "Interface</w>": 46008,
  "International</w>": 4504,
  "Internationale</w>": 14634,
  "Internationaux</w>": 45136,
  "Internet</w>": 1140,
  "Interprét": 44380,
  "Interro": 28986,
  "Interrogé</w>": 15613,
  "Intervention</w>": 35548,
  "Interview</w>": 39997,
  "Intitu": 48725,
  "Intitulé</w>": 38288,
  "Intro": 44353,
  "Introduction</w>": 9087,
  "Inté": 48624,
  "Intégr": 29251,
  "Intégration</w>": 31183,
  "Intér": 24492,
  "Intéri": 45448,
  "Intérieur</w>": 6297,
  "Inuits</w>": 38843,
  "Inutile</w>": 21540,
  "Inv": 18847,
  "Inventaire</w>": 43039,
  "Inversement</w>": 45195,
  "Investi": 25042,
  "Investissement</w>": 32113,
  "Investissements</w>": 45515,
  "Investment</w>": 43041,
  "Invi": 35287,
  "Invite</w>": 46413,
  "Invité": 41386,
  "Invité</w>": 19053,
  "InvitéInvitéSujet</w>": 21511,
  "InvitéSujet</w>": 49023,
  "Io": 40819,
  "Iowa</w>": 37497,
  "Ip": 34950,
  "Ir": 9735,
  "Ira": 25075,
  "Irak</w>": 4866,
  "Iran</w>": 4003,
  "Irani": 47248,
  "Iraniens</w>": 40332,
  "Iraq</w>": 13498,
  "Iris</w>": 36065,
  "Irlandais</w>": 24690,
  "Irlande</w>": 4198,
  "Iron": 32604,
  "Iron</w>": 30546,
  "Irène</w>": 37508,
  "Is": 4815,
  "Is</w>": 31690,
  "Isa": 48751,
  "Isaac</w>": 23164,
  "Isab": 44961,
  "Isabel</w>": 45375,
  "Isabelle</w>": 7957,
  "Isl": 47524,
  "Islam": 29284,
  "Islam</w>": 10218,
  "Islamic</w>": 40217,
  "Islamique</w>": 40988,
  "Island</w>": 15150,
  "Islande</w>": 13378,
  "Isle</w>": 38628,
  "Iso": 45767,
  "Isol": 32009,
  "Isra": 22068,
  "Israel</w>": 26335,
  "Israéliens</w>": 19740,
  "Israël</w>": 2228,
  "Iss": 18649,
  "Issu</w>": 35527,
  "Istan": 50105,
  "Istanbul</w>": 15460,
  "Isère</w>": 18488,
  "It": 31618,
  "It'</w>": 42411,
  "It</w>": 15769,
  "Itali": 28982,
  "Italia</w>": 41246,
  "Italie</w>": 1523,
  "Italien</w>": 17364,
  "Italienne</w>": 39894,
  "Italiens</w>": 16164,
  "Itinér": 48869,
  "Itinéraire</w>": 27708,
  "Iv": 45470,
  "Ivan": 30193,
  "Ivan</w>": 19096,
  "Ivoi": 32825,
  "Ivoire</w>": 7681,
  "Iz": 23935,
  "Ième</w>": 29431,
  "J": 601,
  "J'</w>": 158,
  "J-": 26691,
  "J.": 9364,
  "J.-": 19262,
  "J.-C.</w>": 14663,
  "J.</w>": 5454,
  "J</w>": 2684,
  "JA</w>": 30906,
  "JAC": 36986,
  "JAM": 47131,
  "JAMAIS</w>": 37394,
  "JAN": 47639,
  "JANVIER</w>": 36238,
  "JAR": 39241,
  "JC</w>": 19373,
  "JD</w>": 44206,
  "JE": 34753,
  "JE</w>": 11146,
  "JEAN": 42908,
  "JEAN</w>": 36575,
  "JET</w>": 46757,
  "JETS</w>": 48278,
  "JEU": 21723,
  "JEU</w>": 32951,
  "JEUX</w>": 38742,
  "JM": 31169,
  "JO": 12586,
  "JO</w>": 3440,
  "JOC</w>": 45504,
  "JOL</w>": 14681,
  "JOU": 26894,
  "JOUR": 42692,
  "JOUR</w>": 20806,
  "JOURN": 42042,
  "JOURS</w>": 28083,
  "JP": 40028,
  "JP</w>": 28520,
  "JS</w>": 38629,
  "JSK</w>": 42357,
  "JT</w>": 27303,
  "JU": 16595,
  "JUI": 48872,
  "JUILLET</w>": 42260,
  "JUIN</w>": 31636,
  "JURIDI": 37128,
  "JUS": 21614,
  "Ja": 18650,
  "Jab": 31008,
  "Jac": 15121,
  "Jack": 27435,
  "Jack</w>": 6615,
  "Jackie</w>": 37230,
  "Jackson</w>": 10996,
  "Jacky</w>": 38033,
  "Jacob": 37962,
  "Jacob</w>": 11875,
  "Jacobs</w>": 41491,
  "Jacqu": 27424,
  "Jacquel": 50411,
  "Jacqueline</w>": 21601,
  "Jacques-": 25116,
  "Jacques</w>": 2182,
  "Jade</w>": 41650,
  "Jag": 35137,
  "Jagu": 49310,
  "Jaguar</w>": 42015,
  "Jah": 33924,
  "Jak": 24176,
  "Jake</w>": 31288,
  "Jal": 26631,
  "Jam": 9530,
  "Jamais</w>": 10056,
  "Jamaïque</w>": 25538,
  "James</w>": 4083,
  "Jamie</w>": 27382,
  "Jan": 9786,
  "Jan</w>": 11605,
  "Jane</w>": 14414,
  "Janeiro</w>": 27177,
  "Janet</w>": 34787,
  "Janu": 40735,
  "Janvier</w>": 13969,
  "Jap": 23117,
  "Japan</w>": 28750,
  "Japon</w>": 2230,
  "Japonais</w>": 13187,
  "Jar": 15273,
  "Jard": 45775,
  "Jardin</w>": 11725,
  "Jardins</w>": 34264,
  "Jas": 22848,
  "Jason</w>": 15488,
  "Jau": 28119,
  "Jaune</w>": 35952,
  "Jaur": 50401,
  "Jaurès</w>": 30553,
  "Jav": 37243,
  "Java": 49345,
  "Java</w>": 17969,
  "JavaScript</w>": 20743,
  "Javascript</w>": 45845,
  "Javier</w>": 32281,
  "Jay</w>": 25245,
  "Jaz": 38072,
  "Jazz</w>": 17963,
  "Je": 8077,
  "Je</w>": 107,
  "Jean": 19638,
  "Jean-": 5130,
  "Jean-Baptiste</w>": 14016,
  "Jean-Charles</w>": 44778,
  "Jean-Christophe</w>": 23949,
  "Jean-Claude</w>": 8731,
  "Jean-François</w>": 7949,
  "Jean-Jacques</w>": 14196,
  "Jean-Louis</w>": 11112,
  "Jean-Luc</w>": 7943,
  "Jean-Marc</w>": 9729,
  "Jean-Marie</w>": 10280,
  "Jean-Michel</w>": 13766,
  "Jean-Paul</w>": 9487,
  "Jean-Philippe</w>": 26188,
  "Jean-Pierre</w>": 6168,
  "Jean-Yves</w>": 21107,
  "Jean</w>": 1175,
  "Jeann": 27072,
  "Jeanne</w>": 8115,
  "Jedi</w>": 36265,
  "Jeff": 33675,
  "Jeff</w>": 15952,
  "Jeffrey</w>": 38103,
  "Jen": 29691,
  "Jenn": 26821,
  "Jennifer</w>": 19031,
  "Jenny</w>": 35423,
  "Jer": 18592,
  "Jeremy</w>": 28219,
  "Jerry</w>": 26805,
  "Jersey</w>": 17922,
  "Jes": 40900,
  "Jesse</w>": 35851,
  "Jessi": 50183,
  "Jessica</w>": 20642,
  "Jesus</w>": 41539,
  "Jet": 24028,
  "Jet</w>": 26748,
  "Jeu": 35799,
  "Jeu</w>": 10407,
  "Jeudi</w>": 8858,
  "Jeun": 48108,
  "Jeune</w>": 13978,
  "Jeunes</w>": 16602,
  "Jeunesse</w>": 15422,
  "Jeux": 46281,
  "Jeux</w>": 2822,
  "JeuxJeux": 48882,
  "JeuxJeuxJeux": 44360,
  "Jeuxjeuxjeux": 35121,
  "Ji": 12035,
  "Jim": 30407,
  "Jim</w>": 12443,
  "Jimmy</w>": 16354,
  "Jin": 30282,
  "Jo": 3993,
  "Jo</w>": 25349,
  "Joach": 49924,
  "Joachim</w>": 30590,
  "Joan</w>": 31832,
  "Job": 42997,
  "Job</w>": 34847,
  "Jobs</w>": 34685,
  "Jocel": 33848,
  "Joe</w>": 9843,
  "Joel</w>": 39841,
  "Joey</w>": 35774,
  "Joh": 21542,
  "Johan": 46279,
  "Johan</w>": 29568,
  "Johann": 49278,
  "Johann</w>": 30339,
  "Johannes": 49505,
  "Johannes</w>": 40922,
  "Johannesburg</w>": 31685,
  "John": 29675,
  "John</w>": 2277,
  "Johnny</w>": 11549,
  "Johnson</w>": 11680,
  "Joint</w>": 37065,
  "Jol": 47367,
  "Joli": 26598,
  "Joli</w>": 41515,
  "Jolie</w>": 23412,
  "Joly</w>": 28497,
  "Jon": 15884,
  "Jon</w>": 26887,
  "Jonas</w>": 30163,
  "Jonathan</w>": 11695,
  "Jones</w>": 8149,
  "Jong-": 38042,
  "Jor": 32776,
  "Jord": 45123,
  "Jordan</w>": 17490,
  "Jordanie</w>": 15717,
  "Jorge</w>": 26086,
  "Jos": 17487,
  "Jose": 28643,
  "Jose</w>": 33946,
  "Joseph": 37438,
  "Joseph</w>": 4062,
  "Josh</w>": 28221,
  "Josi": 45276,
  "Jospin</w>": 20228,
  "José": 48555,
  "José</w>": 7939,
  "Josée</w>": 36444,
  "Joséphine</w>": 33335,
  "Jou": 7166,
  "Joue</w>": 35028,
  "Jouer</w>": 14943,
  "Jour": 25217,
  "Jour</w>": 14491,
  "Jourdain</w>": 36440,
  "Journ": 29273,
  "Journal</w>": 4367,
  "Journée</w>": 11966,
  "Journées</w>": 25600,
  "Jours</w>": 27024,
  "Joy": 28721,
  "Joy</w>": 45639,
  "Joyce</w>": 40880,
  "Joyeux</w>": 42913,
  "Joël</w>": 21662,
  "Joëlle</w>": 40619,
  "Jr</w>": 30181,
  "Ju": 3245,
  "Juan</w>": 10354,
  "Judi": 47701,
  "Judith</w>": 33941,
  "Juge</w>": 39531,
  "Jui": 44252,
  "Juif</w>": 28798,
  "Juifs</w>": 7043,
  "Juil</w>": 34089,
  "Juillet</w>": 11838,
  "Juin</w>": 10877,
  "Jul": 29049,
  "Jules</w>": 8624,
  "Juli": 17318,
  "Julia</w>": 20058,
  "Julian</w>": 24711,
  "Julie</w>": 9805,
  "Julien</w>": 6083,
  "Juliette</w>": 17892,
  "Julius</w>": 45474,
  "July</w>": 41249,
  "Jum": 28387,
  "Jun": 13483,
  "Juncker</w>": 31833,
  "June</w>": 31600,
  "Jung</w>": 37938,
  "Juni": 45385,
  "Junior</w>": 23212,
  "Jupiter</w>": 20553,
  "Juppé</w>": 13070,
  "Jur": 20942,
  "Jura</w>": 17045,
  "Juridi": 40981,
  "Jury</w>": 43389,
  "Jus": 21145,
  "Jusqu'</w>": 3865,
  "Jusqu</w>": 39002,
  "Jusque</w>": 45543,
  "Just": 47664,
  "Just</w>": 28821,
  "Juste</w>": 7816,
  "Justement</w>": 32999,
  "Justi": 36326,
  "Justice</w>": 5953,
  "Justin</w>": 10735,
  "Justine</w>": 31441,
  "Juventu": 50001,
  "Juventus</w>": 26753,
  "Jé": 31558,
  "Jér": 47417,
  "Jérusal": 50166,
  "Jérusalem-": 49799,
  "Jérusalem-Est</w>": 40911,
  "Jérusalem</w>": 7724,
  "Jéré": 49962,
  "Jérémie</w>": 26038,
  "Jérémy</w>": 24603,
  "Jérôme</w>": 7769,
  "Jésuites</w>": 41933,
  "Jésus-": 49663,
  "Jésus-Christ</w>": 13283,
  "Jésus</w>": 3185,
  "K": 365,
  "K-": 26846,
  "K.": 33854,
  "K.</w>": 14992,
  "K</w>": 2527,
  "KA</w>": 23280,
  "KAR": 44539,
  "KE": 28041,
  "KE</w>": 26189,
  "KI": 28594,
  "KLM</w>": 35075,
  "KM</w>": 33743,
  "KO": 19702,
  "KO</w>": 24025,
  "KS</w>": 33254,
  "Ka": 12861,
  "Kab": 31424,
  "Kabila</w>": 27158,
  "Kaboul</w>": 26556,
  "Kabu": 43439,
  "Kaby": 48662,
  "Kabylie</w>": 42693,
  "Kad": 32230,
  "Kadh": 50428,
  "Kadhafi</w>": 14752,
  "Kaf": 42364,
  "Kag": 33653,
  "Kah": 39564,
  "Kai": 25499,
  "Kak": 40728,
  "Kal": 11929,
  "Kam": 9431,
  "Kan": 12680,
  "Kand": 40970,
  "Kane</w>": 31816,
  "Kansas</w>": 31213,
  "Kant</w>": 35311,
  "Kanye</w>": 42182,
  "Kap": 45531,
  "Kar": 4442,
  "Karab": 39173,
  "Kard": 49174,
  "Kardashi": 50267,
  "Kardashian</w>": 33564,
  "Karen</w>": 31546,
  "Kari": 48660,
  "Karim</w>": 17838,
  "Karine</w>": 26214,
  "Karl</w>": 14054,
  "Kas": 19381,
  "Kat": 10030,
  "Kate</w>": 15813,
  "Kath": 26489,
  "Katherine</w>": 41401,
  "Katie</w>": 43007,
  "Kau": 29747,
  "Kaw": 28849,
  "Kay": 23692,
  "Kay</w>": 35575,
  "Kaz": 19264,
  "Kazakh": 49314,
  "Kazakhstan</w>": 21666,
  "Ke": 6017,
  "Keith</w>": 29491,
  "Kel": 21550,
  "Keller</w>": 41331,
  "Kelly</w>": 19146,
  "Kem": 43328,
  "Ken": 20826,
  "Ken</w>": 23609,
  "Kend": 46458,
  "Kenn": 38233,
  "Kennedy</w>": 18148,
  "Kenneth</w>": 42737,
  "Kenny</w>": 43171,
  "Kent</w>": 30326,
  "Kentu": 50684,
  "Kentucky</w>": 44653,
  "Kenya</w>": 13733,
  "Ker": 7492,
  "Kerry</w>": 22365,
  "Kevin</w>": 10243,
  "Key": 24481,
  "Key</w>": 43134,
  "Kg</w>": 45471,
  "Kh": 7049,
  "Khal": 46632,
  "Khaled</w>": 45785,
  "Khali": 31118,
  "Khalifa</w>": 43738,
  "Khan</w>": 20738,
  "Khar": 30727,
  "Khom": 34789,
  "Ki": 4348,
  "Ki-moon</w>": 39243,
  "Kicherchekoi</w>": 45967,
  "Kid": 25914,
  "Kid</w>": 39396,
  "Kids</w>": 42106,
  "Kiev</w>": 15239,
  "Kig": 44657,
  "Kil": 26486,
  "Kill": 38452,
  "Kim": 21281,
  "Kim</w>": 8935,
  "Kin": 14072,
  "Kind": 40686,
  "King": 24389,
  "King</w>": 9411,
  "Kingdom</w>": 45253,
  "Kings</w>": 34129,
  "Kingston</w>": 41341,
  "Kins": 48722,
  "Kinshasa</w>": 23537,
  "Kinésithérapeute</w>": 24941,
  "Kir": 10749,
  "Kirghi": 49897,
  "Kirghiz": 42413,
  "Kis": 36355,
  "Kit": 14069,
  "Kit</w>": 20517,
  "Kivu</w>": 40596,
  "Kl": 26754,
  "Klaus</w>": 34064,
  "Kle": 26628,
  "Klein</w>": 26248,
  "Km": 50095,
  "Km</w>": 17529,
  "KmDurée</w>": 19327,
  "Kn": 39549,
  "Kni": 29125,
  "Knight</w>": 36718,
  "Kno": 30071,
  "Ko": 4805,
  "Ko</w>": 35260,
  "Kob": 28063,
  "Kod": 44850,
  "Kok": 42975,
  "Kol": 21428,
  "Kom": 23469,
  "Kon": 10560,
  "Kong</w>": 10232,
  "Kor": 11939,
  "Kos": 31099,
  "Kosci": 49190,
  "Koscius": 50050,
  "Kosciusko-Morizet</w>": 44645,
  "Koso": 48220,
  "Kosovo</w>": 11581,
  "Kou": 10887,
  "Kour": 39974,
  "Koweï": 49963,
  "Koweït</w>": 20171,
  "Kr": 19060,
  "Kra": 40450,
  "Kre": 41616,
  "Krem": 48149,
  "Kremlin</w>": 23504,
  "Kri": 26836,
  "Kris": 24674,
  "Krist": 36822,
  "Kro": 35436,
  "Kru": 27670,
  "Kry": 44795,
  "Ku": 6754,
  "Kum": 40656,
  "Kun": 21563,
  "Kur": 19400,
  "Kurdes</w>": 29541,
  "Kurdistan</w>": 34241,
  "Kurt</w>": 28090,
  "Kw": 37434,
  "Ky": 11779,
  "Kyle</w>": 31765,
  "Kyoto</w>": 19459,
  "Kö": 32047,
  "L": 306,
  "L'</w>": 84,
  "L-": 18949,
  "L.": 6203,
  "L.</w>": 2623,
  "L1</w>": 21159,
  "L2</w>": 29236,
  "L</w>": 399,
  "LA": 6887,
  "LA</w>": 664,
  "LAB": 32637,
  "LAM": 30366,
  "LAN": 12084,
  "LAN</w>": 21155,
  "LAND</w>": 42441,
  "LAR": 25701,
  "LAU": 34857,
  "LAV": 45586,
  "LB</w>": 44207,
  "LC</w>": 22634,
  "LCD</w>": 22752,
  "LCI</w>": 26163,
  "LD": 46430,
  "LD</w>": 19801,
  "LE": 3377,
  "LE-": 42358,
  "LE</w>": 935,
  "LEC": 32885,
  "LED</w>": 11798,
  "LEGO</w>": 42593,
  "LEM": 39114,
  "LEMENT</w>": 23090,
  "LER": 41839,
  "LER</w>": 35290,
  "LES": 31114,
  "LES</w>": 1262,
  "LET": 28314,
  "LET</w>": 31352,
  "LEUR</w>": 26133,
  "LEURS</w>": 40588,
  "LEV": 37246,
  "LF</w>": 29408,
  "LG": 24846,
  "LG</w>": 21750,
  "LGBT</w>": 31944,
  "LH": 29389,
  "LI": 2249,
  "LI</w>": 8421,
  "LIA</w>": 42418,
  "LIBER": 37809,
  "LIBRE</w>": 44421,
  "LIC": 44011,
  "LIE</w>": 31042,
  "LIER</w>": 18350,
  "LIEU</w>": 35836,
  "LIGNE</w>": 30672,
  "LIMI": 41212,
  "LIN": 17979,
  "LIN</w>": 9493,
  "LINE</w>": 6287,
  "LIRE</w>": 12046,
  "LIS": 18740,
  "LIS</w>": 41828,
  "LISATION</w>": 40977,
  "LISS": 49710,
  "LISTE</w>": 38631,
  "LITÉ</w>": 43000,
  "LIV": 32627,
  "LIVRAISON</w>": 41678,
  "LIVRE</w>": 42043,
  "LIVRES</w>": 44780,
  "LL": 7487,
  "LL</w>": 28799,
  "LLE": 23228,
  "LLE</w>": 16190,
  "LLES</w>": 27311,
  "LLET</w>": 48477,
  "LLI": 32790,
  "LM": 38776,
  "LM</w>": 25467,
  "LN": 24174,
  "LNH</w>": 13681,
  "LO": 4220,
  "LO</w>": 25246,
  "LOCA": 31675,
  "LOCATION</w>": 37510,
  "LOG": 19768,
  "LOGI": 27288,
  "LOGICIEL</w>": 37557,
  "LOGIE</w>": 22790,
  "LOGIQUE</w>": 46195,
  "LOI</w>": 22363,
  "LON": 18088,
  "LOR": 39538,
  "LOT</w>": 31606,
  "LOU": 20640,
  "LP</w>": 22492,
  "LR</w>": 14060,
  "LS</w>": 12584,
  "LT</w>": 31998,
  "LU": 9105,
  "LU</w>": 46353,
  "LUI</w>": 37241,
  "LV": 33414,
  "LV</w>": 43731,
  "LVMH</w>": 39086,
  "LY": 22005,
  "LY</w>": 45273,
  "LYON</w>": 39949,
  "La": 3927,
  "La</w>": 60,
  "Lab": 6710,
  "Lab</w>": 31149,
  "Labeaume</w>": 29871,
  "Labor": 34579,
  "Laboratoire</w>": 21682,
  "Labrador</w>": 27068,
  "Lac": 9453,
  "Lac-": 47172,
  "Lac-Saint-Jean</w>": 43906,
  "Lac</w>": 13401,
  "Lacan</w>": 45931,
  "Lach": 19212,
  "Lacoste</w>": 46123,
  "Lacroix</w>": 28152,
  "Lacs</w>": 27181,
  "Lad": 23542,
  "Laden</w>": 24832,
  "Lady</w>": 15709,
  "Laeti": 48475,
  "Laetitia</w>": 44858,
  "Laf": 21616,
  "Lafayette</w>": 37503,
  "Laff": 42547,
  "Lag": 10666,
  "Lagard": 50612,
  "Lagarde</w>": 21524,
  "Lagardère</w>": 36104,
  "Lah": 27079,
  "Lai": 32292,
  "Laiss": 14895,
  "Laisser</w>": 11039,
  "Laissez-vous</w>": 35282,
  "Laissez</w>": 14040,
  "Lait</w>": 28134,
  "Lak": 22006,
  "Lake</w>": 18222,
  "Lal": 21204,
  "Lam": 5201,
  "Lamb": 39020,
  "Lambert</w>": 15803,
  "Lamy</w>": 42148,
  "Lan": 6328,
  "Lanc": 22922,
  "Lance</w>": 35047,
  "Lancé</w>": 37202,
  "Land": 11490,
  "Land</w>": 17623,
  "Landes</w>": 16943,
  "Landry</w>": 34942,
  "Lane</w>": 39875,
  "Lang": 10571,
  "Lang</w>": 25000,
  "Langue": 50079,
  "Langue</w>": 26617,
  "Languedoc": 50384,
  "Languedoc-": 49899,
  "Languedoc-Roussillon</w>": 29945,
  "Languedoc</w>": 25632,
  "Langues</w>": 33809,
  "Lanka</w>": 22407,
  "Laos</w>": 36620,
  "Lap": 19578,
  "Lapi": 40164,
  "Lapointe</w>": 35035,
  "Laporte</w>": 39143,
  "Lar": 6938,
  "Lara</w>": 33148,
  "Larg": 45405,
  "Large</w>": 43131,
  "Largeur</w>": 30923,
  "Larry</w>": 25898,
  "Lars</w>": 42615,
  "Las": 17509,
  "Las</w>": 12762,
  "Lass": 29515,
  "Last</w>": 29141,
  "Lat": 17564,
  "Lati": 18081,
  "Latine</w>": 36847,
  "Latitude</w>": 31694,
  "Lau": 6598,
  "Laur": 18287,
  "Laura</w>": 16113,
  "Laure</w>": 20528,
  "Lauren</w>": 39616,
  "Laurence</w>": 14224,
  "Laurent</w>": 3233,
  "Laurenti": 47819,
  "Laurentides</w>": 41001,
  "Laurier</w>": 46356,
  "Lausanne</w>": 16086,
  "Lav": 7017,
  "Laval</w>": 9140,
  "Lave-": 46789,
  "Lave-linge</w>": 42816,
  "Lavi": 42689,
  "Lavoie</w>": 42671,
  "Law": 31869,
  "Law</w>": 26071,
  "Lawrence</w>": 24745,
  "Lay": 26979,
  "Laz": 22727,
  "Lazare</w>": 29223,
  "Le": 1353,
  "Le</w>": 55,
  "Leader</w>": 30631,
  "Leafs</w>": 41204,
  "League</w>": 8954,
  "Leaks</w>": 38822,
  "Lean</w>": 42730,
  "Leblanc</w>": 36183,
  "Lec": 13101,
  "Lecler": 48246,
  "Leclerc</w>": 15404,
  "Lecture</w>": 28042,
  "Lee</w>": 9968,
  "Lef": 36312,
  "Lefebvre</w>": 24164,
  "Leg": 32646,
  "Legault</w>": 28466,
  "Lego</w>": 38040,
  "Legrand</w>": 35304,
  "Leh": 27256,
  "Lei": 13658,
  "Leicester</w>": 38711,
  "Leip": 49850,
  "Leipzig</w>": 32329,
  "Lel": 34761,
  "Lem": 8811,
  "Lemi": 49919,
  "Lemieux</w>": 44004,
  "Len": 11406,
  "Lens</w>": 20651,
  "Leo</w>": 32939,
  "Leon": 31593,
  "Leon</w>": 31708,
  "Leonard</w>": 31551,
  "Leonardo</w>": 25775,
  "Leone</w>": 18512,
  "Lepage</w>": 34007,
  "Lequel</w>": 42488,
  "Ler": 22075,
  "Leroy</w>": 29856,
  "Les": 7986,
  "Les</w>": 64,
  "Leslie</w>": 40631,
  "Less": 35839,
  "Let": 15622,
  "Lettonie</w>": 18628,
  "Lettre</w>": 12540,
  "Lettres</w>": 13679,
  "Leu": 21498,
  "Leur</w>": 2466,
  "Leurs</w>": 6221,
  "Lev": 9284,
  "Levant</w>": 36789,
  "Levy</w>": 44443,
  "Lew": 42528,
  "Lewis</w>": 16227,
  "Lex": 33427,
  "Ley": 31015,
  "Li": 1663,
  "Li</w>": 20503,
  "Liam</w>": 34224,
  "Lib": 12260,
  "Liban": 41949,
  "Liban</w>": 7559,
  "Liber": 16896,
  "Liberia</w>": 39057,
  "Liberty</w>": 38082,
  "Liberté</w>": 15569,
  "Libr": 30733,
  "Librairie</w>": 38652,
  "Libre": 48466,
  "Libre</w>": 11501,
  "Libreville</w>": 44581,
  "Libye</w>": 7849,
  "Libér": 33688,
  "Libération</w>": 9709,
  "Libéria</w>": 32312,
  "Licence</w>": 26273,
  "Lid": 36354,
  "Lie": 37359,
  "Liech": 50291,
  "Liechtenstein</w>": 30886,
  "Lien</w>": 30284,
  "Liens</w>": 31703,
  "Lieu": 47428,
  "Lieu</w>": 18656,
  "Lieutenant</w>": 41931,
  "Lieux</w>": 37038,
  "Life</w>": 13709,
  "Liga</w>": 28005,
  "Ligh": 43300,
  "Light": 41758,
  "Light</w>": 27249,
  "Lightning</w>": 35913,
  "Lign": 43401,
  "Ligne</w>": 16539,
  "Lignes</w>": 35169,
  "Ligue</w>": 2450,
  "Like</w>": 43297,
  "Lil": 21216,
  "Lili": 34644,
  "Liliane</w>": 42956,
  "Lill": 30644,
  "Lille</w>": 5864,
  "Lily</w>": 28778,
  "Lim": 9538,
  "Lima</w>": 31336,
  "Limi": 48321,
  "Limited</w>": 35167,
  "Limo": 48955,
  "Limoges</w>": 18187,
  "Limou": 47995,
  "Limousin</w>": 27260,
  "Lin": 7965,
  "Lin</w>": 44575,
  "Lincol": 49680,
  "Lincoln</w>": 23196,
  "Lind": 16063,
  "Linda</w>": 29742,
  "Line</w>": 20813,
  "Ling": 38245,
  "Link</w>": 27761,
  "Linke": 48689,
  "Linked": 50392,
  "LinkedIn</w>": 41069,
  "Linux</w>": 12005,
  "Lion</w>": 20300,
  "Lionel</w>": 12144,
  "Lions</w>": 23514,
  "Liqui": 33178,
  "Lire</w>": 2876,
  "Lis": 11517,
  "Lisa</w>": 20214,
  "Lisbonne</w>": 10593,
  "Lise</w>": 29667,
  "Lisez</w>": 28943,
  "Liste</w>": 8312,
  "Lit": 23235,
  "Lit</w>": 29449,
  "Litt": 33060,
  "Little</w>": 18782,
  "Littérature</w>": 33137,
  "Litu": 48974,
  "Lituanie</w>": 16767,
  "Liu</w>": 34628,
  "Liv": 26192,
  "Live": 46075,
  "Live</w>": 12695,
  "Liver": 49154,
  "Liverpool</w>": 18225,
  "Livr": 38777,
  "Livraison</w>": 6144,
  "Livre</w>": 7323,
  "Livres</w>": 19628,
  "Livret</w>": 31634,
  "Livré</w>": 36729,
  "Liège</w>": 10086,
  "Lloyd</w>": 39387,
  "Lo": 2745,
  "Lo</w>": 44396,
  "Lob": 29637,
  "Loc": 16978,
  "Local</w>": 34248,
  "Localisation</w>": 34038,
  "Location</w>": 11373,
  "Locations</w>": 43340,
  "Lock": 22930,
  "Log": 15788,
  "Logan</w>": 35073,
  "Logement</w>": 13597,
  "Logi": 21472,
  "Logiciel</w>": 30067,
  "Loi": 41403,
  "Loi</w>": 2904,
  "Loin</w>": 11863,
  "Loir</w>": 34525,
  "Loire-": 48728,
  "Loire-Atlantique</w>": 30901,
  "Loire</w>": 5622,
  "Loiret</w>": 33630,
  "Lois</w>": 31665,
  "Loisi": 49740,
  "Loisirs</w>": 25720,
  "Lok": 43890,
  "Lola</w>": 38108,
  "Lom": 38787,
  "Lomb": 22894,
  "Lombardie</w>": 46065,
  "Lomé</w>": 25619,
  "Lon": 12922,
  "Lond": 48109,
  "London</w>": 15678,
  "Londres</w>": 2218,
  "Long": 16583,
  "Long</w>": 18306,
  "Longi": 50239,
  "Longitude</w>": 49591,
  "Longtemps</w>": 25547,
  "Longu": 48234,
  "Longue</w>": 39671,
  "Longueuil</w>": 35874,
  "Longueur</w>": 24510,
  "Loo": 22403,
  "Lop": 48763,
  "Lopez</w>": 22435,
  "Lor": 7680,
  "Lord</w>": 17302,
  "Lorenzo</w>": 29432,
  "Lorient</w>": 21278,
  "Lorraine</w>": 9179,
  "Lors": 46832,
  "Lors</w>": 1812,
  "Lorsqu'</w>": 4201,
  "Lorsque</w>": 1826,
  "Los</w>": 6058,
  "Lost</w>": 36780,
  "Lot": 31136,
  "Lot-et-": 44969,
  "Lot</w>": 17863,
  "Lotus</w>": 29745,
  "Lou": 5356,
  "Lou</w>": 23667,
  "Louis": 34425,
  "Louis-": 14440,
  "Louis-Philippe</w>": 41146,
  "Louis</w>": 1942,
  "Louise</w>": 9470,
  "Louisi": 49085,
  "Louisiane</w>": 28586,
  "Loup</w>": 18865,
  "Lour": 41450,
  "Lourdes</w>": 30954,
  "Louv": 25549,
  "Louvain</w>": 31670,
  "Louvre</w>": 13866,
  "Love</w>": 12636,
  "Loy": 34203,
  "Loz": 48337,
  "Lozère</w>": 43103,
  "Loï": 47998,
  "Loïc</w>": 27912,
  "Lt": 48061,
  "Ltd</w>": 25340,
  "Lu": 1872,
  "Lu</w>": 37995,
  "Luc": 40877,
  "Luc</w>": 7958,
  "Luca</w>": 35369,
  "Lucas</w>": 13048,
  "Luci": 16134,
  "Lucie</w>": 17298,
  "Lucien</w>": 16007,
  "Lucky</w>": 42482,
  "Lucy</w>": 29146,
  "Lud": 41825,
  "Ludo": 47542,
  "Ludovic</w>": 31717,
  "Ludwig</w>": 41462,
  "Luf": 47645,
  "Lufthansa</w>": 45225,
  "Lui": 37015,
  "Lui-même</w>": 35168,
  "Lui</w>": 6577,
  "Luigi</w>": 34419,
  "Luis</w>": 14529,
  "Luk": 41474,
  "Luke</w>": 23345,
  "Lula</w>": 40021,
  "Lum": 24427,
  "Lumière</w>": 16281,
  "Lumières</w>": 21944,
  "Lun": 13342,
  "Lun</w>": 22114,
  "Luna</w>": 42414,
  "Lundi</w>": 9244,
  "Lune</w>": 11411,
  "Lus": 30632,
  "Luther</w>": 27992,
  "Lutte</w>": 30441,
  "Lux": 31040,
  "Luxembour": 46321,
  "Luxembourg</w>": 4835,
  "Ly": 5838,
  "Lycée</w>": 20869,
  "Lyn": 19150,
  "Lynch</w>": 33370,
  "Lyon-": 42770,
  "Lyon</w>": 2664,
  "Lyonnais</w>": 20885,
  "Lys</w>": 43465,
  "LÉ": 13918,
  "Là-": 46759,
  "Là-bas</w>": 36231,
  "Là</w>": 3403,
  "Länder</w>": 41387,
  "Lé": 11198,
  "Léa</w>": 23917,
  "Lég": 16444,
  "Légende</w>": 20055,
  "Léger</w>": 24803,
  "Légion</w>": 16112,
  "Législ": 36461,
  "Lém": 49705,
  "Léman</w>": 43559,
  "Lénine</w>": 33259,
  "Léo</w>": 22179,
  "Léon": 33702,
  "Léon</w>": 10279,
  "Léonard</w>": 21735,
  "Léopold</w>": 25858,
  "Lév": 44387,
  "Lévesque</w>": 30846,
  "Lévi": 41444,
  "Lévis</w>": 30503,
  "Lévy</w>": 30351,
  "M": 312,
  "M'</w>": 12934,
  "M-": 16660,
  "M.": 7571,
  "M.</w>": 219,
  "M1</w>": 33784,
  "M2</w>": 28145,
  "M6</w>": 16673,
  "M</w>": 789,
  "MA": 4163,
  "MA</w>": 6278,
  "MAC": 30582,
  "MAC</w>": 25907,
  "MAD": 31851,
  "MAG": 20220,
  "MAI": 26164,
  "MAI</w>": 30424,
  "MAIN": 47482,
  "MAINTEN": 45391,
  "MAIS</w>": 19847,
  "MAISON</w>": 28467,
  "MAL": 19270,
  "MAN": 7796,
  "MAN</w>": 25407,
  "MANAGEMENT</w>": 40057,
  "MANI": 46557,
  "MANUEL</w>": 34443,
  "MAP</w>": 37690,
  "MAR": 4708,
  "MARCH": 30657,
  "MARCHE</w>": 28235,
  "MARI": 40281,
  "MARQUE</w>": 42813,
  "MARS</w>": 32272,
  "MAS": 25880,
  "MAS</w>": 38269,
  "MASTER</w>": 33950,
  "MAT": 15443,
  "MATI": 15662,
  "MATIÈRES</w>": 27490,
  "MAU": 34683,
  "MAX</w>": 37795,
  "MB": 19140,
  "MB</w>": 26373,
  "MBA</w>": 29850,
  "MC</w>": 7883,
  "MD": 22404,
  "MD</w>": 19159,
  "ME": 5729,
  "ME</w>": 4101,
  "MED": 41274,
  "MEDI": 19348,
  "MEILL": 42968,
  "MEM": 27026,
  "MEN": 16383,
  "MENT": 39640,
  "MENT</w>": 18342,
  "MER": 13377,
  "MER</w>": 26259,
  "MERCI</w>": 30058,
  "MES": 18497,
  "MES</w>": 9177,
  "MESS": 34755,
  "MET": 19422,
  "MF</w>": 27722,
  "MG</w>": 34785,
  "MH": 33226,
  "MH</w>": 44944,
  "MHz</w>": 29924,
  "MI": 3444,
  "MI</w>": 11782,
  "MICH": 45094,
  "MIN": 8087,
  "MINIS": 25047,
  "MINISTRE</w>": 45491,
  "MINU": 33157,
  "MIS": 24879,
  "MIS</w>": 36794,
  "MISE</w>": 22541,
  "MISSION</w>": 40729,
  "MIT</w>": 44446,
  "MK": 39500,
  "ML</w>": 34655,
  "MLS</w>": 44744,
  "MM": 8197,
  "MM.</w>": 15286,
  "MM</w>": 16534,
  "MMA</w>": 39425,
  "MME</w>": 39066,
  "MMES</w>": 34207,
  "MN": 24129,
  "MO": 3324,
  "MO</w>": 20432,
  "MOBI": 46773,
  "MOBILE</w>": 39968,
  "MODE</w>": 38375,
  "MOI</w>": 37442,
  "MON": 6489,
  "MON</w>": 18127,
  "MONDE</w>": 27306,
  "MONDI": 43125,
  "MONT</w>": 44852,
  "MONTRÉ": 50687,
  "MONTRÉAL</w>": 24273,
  "MOR": 24533,
  "MOS</w>": 37368,
  "MOU": 23534,
  "MOY": 37719,
  "MP": 6796,
  "MP3</w>": 22645,
  "MP</w>": 12445,
  "MPI</w>": 49458,
  "MPO</w>": 37435,
  "MR</w>": 17807,
  "MRC</w>": 22844,
  "MS": 16071,
  "MS</w>": 8673,
  "MSF</w>": 37131,
  "MSN</w>": 34266,
  "MT": 29504,
  "MT</w>": 22728,
  "MTV</w>": 41505,
  "MU": 11106,
  "MUL": 48339,
  "MULTI": 44273,
  "MUNI": 49898,
  "MUNICIPA": 46965,
  "MUNICIPAL</w>": 43072,
  "MUS": 39645,
  "MUTU": 36300,
  "MW</w>": 25532,
  "MY": 38525,
  "Ma": 3818,
  "Ma</w>": 2730,
  "Maastri": 50234,
  "Maastricht</w>": 24756,
  "Mab": 45647,
  "Mac": 4487,
  "Mac</w>": 8616,
  "Mach": 13847,
  "Machine</w>": 21528,
  "Machines</w>": 27935,
  "Mack": 37579,
  "Macky</w>": 22330,
  "Macron</w>": 4252,
  "Macé": 48699,
  "Macédoine</w>": 17798,
  "Mad": 7765,
  "Mad</w>": 36190,
  "Madagas": 50186,
  "Madagascar</w>": 11679,
  "Madame</w>": 3895,
  "Made": 42743,
  "Made</w>": 31923,
  "Madel": 47526,
  "Madeleine</w>": 11831,
  "Mademoiselle</w>": 21845,
  "Madison</w>": 37059,
  "Madonna</w>": 28458,
  "Madri": 46703,
  "Madrid</w>": 5354,
  "Maduro</w>": 39633,
  "Mag": 4419,
  "Mag</w>": 39522,
  "Magasin</w>": 39036,
  "Magazine</w>": 17137,
  "Magd": 42780,
  "Maggie</w>": 42030,
  "Magh": 46952,
  "Maghreb</w>": 17402,
  "Magi": 36393,
  "Magic</w>": 27608,
  "Magn": 34301,
  "Magni": 44192,
  "Magnifique</w>": 30086,
  "Magnus</w>": 44584,
  "Mah": 8009,
  "Mahmoud</w>": 23100,
  "Mahom": 49942,
  "Mahomet</w>": 25570,
  "Mai": 10514,
  "Mai</w>": 8762,
  "Mail": 45064,
  "Mail</w>": 22214,
  "Maill": 44013,
  "Maillot</w>": 42879,
  "Main": 15990,
  "Main</w>": 23921,
  "Maine-et-": 50955,
  "Maine-et-Loire</w>": 43412,
  "Maine</w>": 23025,
  "Maintenance</w>": 45975,
  "Maintenant</w>": 3348,
  "Maire</w>": 10567,
  "Mairie</w>": 16825,
  "Mais": 27874,
  "Mais</w>": 123,
  "Maison-": 49084,
  "Maison-Blanche</w>": 22393,
  "Maison</w>": 2697,
  "Maisonn": 49825,
  "Maisonneuve</w>": 43636,
  "Maisons</w>": 19586,
  "Maj": 17575,
  "Majesté</w>": 15619,
  "Major": 47406,
  "Major</w>": 24761,
  "Majorque</w>": 45628,
  "Mak": 10159,
  "Mal": 2467,
  "Mal</w>": 22633,
  "Maladie</w>": 36818,
  "Malaga</w>": 42869,
  "Malaisie</w>": 16364,
  "Malawi</w>": 38732,
  "Malcol": 50967,
  "Malcolm</w>": 41384,
  "Malgré</w>": 2216,
  "Malheureusement</w>": 4877,
  "Mali": 13697,
  "Mali</w>": 6839,
  "Malik</w>": 43454,
  "Mall": 21236,
  "Malo</w>": 46624,
  "Malraux</w>": 44338,
  "Malte</w>": 14580,
  "Mam": 12283,
  "Mamadou</w>": 35989,
  "Maman</w>": 16690,
  "Man": 2719,
  "Man</w>": 12703,
  "Management</w>": 10528,
  "Manager</w>": 20697,
  "Manche</w>": 13014,
  "Manchester</w>": 10400,
  "Mand": 10067,
  "Mandela</w>": 23872,
  "Mang": 23123,
  "Manhatt": 50440,
  "Manhattan</w>": 21585,
  "Mani": 13146,
  "Manifes": 20372,
  "Manit": 48989,
  "Manitoba</w>": 18535,
  "Mann": 28121,
  "Mann</w>": 42695,
  "Manon</w>": 28795,
  "Manque</w>": 38099,
  "Mans</w>": 14897,
  "Mansour</w>": 45322,
  "Mant": 39685,
  "Manu": 22310,
  "Manu</w>": 32784,
  "Manuel</w>": 4900,
  "Mao</w>": 36129,
  "Map": 38400,
  "Maple</w>": 40786,
  "Maps</w>": 43383,
  "Maqu": 41957,
  "Mar": 1005,
  "Mar</w>": 12422,
  "Marais</w>": 26838,
  "Marandet</w>": 43657,
  "Marathon</w>": 45239,
  "Marc-": 22787,
  "Marc</w>": 3880,
  "Marceau</w>": 42792,
  "Marcel": 19623,
  "Marcel</w>": 7584,
  "March": 25471,
  "March</w>": 33781,
  "Marchand</w>": 29884,
  "Marche</w>": 16879,
  "Marché</w>": 6946,
  "Marchés</w>": 27078,
  "Marco</w>": 14874,
  "Marcus</w>": 25972,
  "Mardi</w>": 9008,
  "Marg": 15761,
  "Margar": 47191,
  "Margaret</w>": 26647,
  "Marguer": 47842,
  "Marguerite</w>": 12686,
  "Mari": 5526,
  "Maria</w>": 7085,
  "Mariage</w>": 30832,
  "Marianne</w>": 18404,
  "Mariano</w>": 38361,
  "Marie-": 4471,
  "Marie-Antoinette</w>": 44925,
  "Marie-Thérèse</w>": 42155,
  "Marie</w>": 2528,
  "Maril": 48289,
  "Marilyn</w>": 36345,
  "Marin": 40471,
  "Marin</w>": 21462,
  "Marina</w>": 24063,
  "Marine</w>": 4326,
  "Marines</w>": 40999,
  "Mario</w>": 8178,
  "Marion</w>": 14764,
  "Marisol</w>": 40271,
  "Maritime</w>": 43523,
  "Maritimes</w>": 41207,
  "Marius</w>": 33230,
  "Mark": 16256,
  "Mark</w>": 8026,
  "Market</w>": 30151,
  "Marketing</w>": 20213,
  "Marl": 28665,
  "Marne</w>": 11935,
  "Maroc": 32476,
  "Maroc</w>": 3687,
  "Marocains</w>": 40000,
  "Marois</w>": 21345,
  "Marque</w>": 22225,
  "Marquis</w>": 41492,
  "Marrak": 50407,
  "Marrakech</w>": 21026,
  "Mars</w>": 6601,
  "Marse": 50359,
  "Marseill": 41420,
  "Marseillais</w>": 34187,
  "Marseillaise</w>": 36632,
  "Marseille</w>": 3207,
  "Marsh": 47967,
  "Marshall</w>": 23608,
  "Mart": 38290,
  "Martha</w>": 42215,
  "Marthe</w>": 32383,
  "Marti": 19981,
  "Martial</w>": 31875,
  "Martin": 15243,
  "Martin</w>": 3133,
  "Martine</w>": 10834,
  "Martinez</w>": 26549,
  "Martinique</w>": 18374,
  "Marty": 39158,
  "Marty</w>": 40939,
  "Marvel</w>": 23289,
  "Marx</w>": 18030,
  "Mary": 24871,
  "Mary</w>": 11988,
  "Maryland</w>": 41820,
  "Maréchal</w>": 32037,
  "Mas": 5981,
  "Mas</w>": 31481,
  "Mason</w>": 41877,
  "Masque</w>": 46472,
  "Mass": 9216,
  "Massach": 49626,
  "Massachus": 50596,
  "Massachusetts</w>": 26983,
  "Massage</w>": 39723,
  "Massi": 34606,
  "Massif</w>": 29857,
  "Masson</w>": 42699,
  "Master": 29669,
  "Master</w>": 9231,
  "Mastercard</w>": 38717,
  "Masters</w>": 20519,
  "Mat": 5071,
  "Match</w>": 20281,
  "Materi": 41636,
  "Math": 15796,
  "Mathi": 48212,
  "Mathias</w>": 36021,
  "Mathieu</w>": 8679,
  "Mathilde</w>": 23636,
  "Mathématiques</w>": 37840,
  "Mati": 21013,
  "Matignon</w>": 21101,
  "Matin</w>": 11452,
  "Matière</w>": 29281,
  "Matières</w>": 33530,
  "Matt</w>": 15281,
  "Matte": 48429,
  "Matteo</w>": 36022,
  "Matthe": 47554,
  "Matthew</w>": 23570,
  "Matthi": 49909,
  "Matthias</w>": 42915,
  "Matthieu</w>": 16567,
  "Matéri": 45814,
  "Matériaux</w>": 45379,
  "Matériel</w>": 21450,
  "Mau": 5103,
  "Maur": 22307,
  "Mauri": 16819,
  "Maurice</w>": 5489,
  "Mauricie</w>": 34607,
  "Maurit": 48718,
  "Mauritanie</w>": 20903,
  "Max": 17644,
  "Max</w>": 7238,
  "Maxi": 49028,
  "Maxim": 23251,
  "Maxime</w>": 12128,
  "Maximi": 50328,
  "Maximilien</w>": 45960,
  "Maxwell</w>": 46091,
  "May": 9977,
  "May</w>": 15867,
  "Maya</w>": 34569,
  "Mayence</w>": 43073,
  "Mayenne</w>": 33656,
  "Mayer</w>": 38387,
  "Mayotte</w>": 26185,
  "Maz": 8509,
  "Maî": 49247,
  "Maîtr": 31192,
  "Maître</w>": 7667,
  "Maîtres</w>": 36513,
  "Maîtrise</w>": 33899,
  "Maï": 26106,
  "Mb": 21994,
  "Mc": 3485,
  "Mc</w>": 31880,
  "McC": 46947,
  "McCain</w>": 36623,
  "McDonald'</w>": 42511,
  "McG": 47439,
  "McGill</w>": 28979,
  "McLar": 49578,
  "McLaren</w>": 36178,
  "Me": 2823,
  "Me</w>": 4158,
  "Meaux</w>": 38735,
  "Mec": 47204,
  "Mecque</w>": 32668,
  "Med": 21173,
  "Med</w>": 38285,
  "Medef</w>": 22921,
  "Medi": 17931,
  "Media": 47458,
  "Media</w>": 17227,
  "Mediapart</w>": 35097,
  "Medic": 45922,
  "Medical</w>": 41087,
  "Medve": 49785,
  "Medvedev</w>": 44285,
  "Mee": 38221,
  "Meh": 37177,
  "Mehdi</w>": 36159,
  "Mei": 28718,
  "Meill": 44994,
  "Meilleur</w>": 13776,
  "Meilleure</w>": 38296,
  "Meilleurs</w>": 44414,
  "Mel": 6557,
  "Melbourne</w>": 27051,
  "Mem": 26522,
  "Memb": 47833,
  "Membre</w>": 12552,
  "Membres</w>": 7226,
  "Memorial</w>": 41871,
  "Memp": 50874,
  "Memphis</w>": 39884,
  "Men": 6425,
  "Men</w>": 35678,
  "Mend": 19374,
  "Mens": 45012,
  "Ment": 20821,
  "Mention</w>": 30513,
  "Menu": 40401,
  "Menu</w>": 32195,
  "Mer": 3258,
  "Mer</w>": 7740,
  "Merah</w>": 37956,
  "Merce": 49731,
  "Mercedes-": 42998,
  "Mercedes</w>": 16841,
  "Merci": 42343,
  "Merci</w>": 1983,
  "Mercier</w>": 26652,
  "Mercredi</w>": 9336,
  "Mercure</w>": 28228,
  "Merkel</w>": 11130,
  "Merlin</w>": 32864,
  "Mes": 9913,
  "Mes</w>": 4274,
  "Mesdames</w>": 19287,
  "Mess": 14745,
  "Message</w>": 26402,
  "Messages</w>": 23855,
  "Messe</w>": 44855,
  "Messenger</w>": 34342,
  "Messi": 44650,
  "Messi</w>": 20693,
  "Messie</w>": 36133,
  "Messieurs</w>": 13543,
  "Mesure</w>": 36195,
  "Mesures</w>": 20434,
  "Met": 8161,
  "Metal</w>": 26503,
  "Metro": 34243,
  "Metro</w>": 31709,
  "Mettez</w>": 20790,
  "Mettre</w>": 9525,
  "Metz</w>": 11255,
  "Meu": 16520,
  "Meunier</w>": 42281,
  "Meur": 23126,
  "Meuse</w>": 20309,
  "Mexi": 47627,
  "Mexic": 34039,
  "Mexico</w>": 20615,
  "Mexique</w>": 5024,
  "Mey": 32532,
  "Meyer</w>": 23842,
  "Mgr</w>": 11631,
  "Mi": 2677,
  "Mi-": 39493,
  "Mi</w>": 43352,
  "Mia</w>": 42307,
  "Miami</w>": 14607,
  "Mich": 12009,
  "Micha": 44885,
  "Michael</w>": 4061,
  "Michaud</w>": 44893,
  "Michaël</w>": 33432,
  "Miche": 40100,
  "Michel": 40114,
  "Michel-": 33491,
  "Michel</w>": 1792,
  "Michelin</w>": 21330,
  "Michelle</w>": 18985,
  "Michi": 48427,
  "Michigan</w>": 25377,
  "Michèle</w>": 17689,
  "Mick": 39512,
  "Mick</w>": 45713,
  "Mickaël</w>": 44234,
  "Mickey</w>": 26315,
  "Micr": 40661,
  "Micro": 15828,
  "Micro</w>": 29860,
  "Microsoft</w>": 5386,
  "Mid": 14790,
  "Midd": 34734,
  "Midi-": 49450,
  "Midi-Pyrénées</w>": 23728,
  "Midi</w>": 14870,
  "Mieux</w>": 11287,
  "Mign": 34013,
  "Migr": 36000,
  "Miguel</w>": 22765,
  "Mik": 18701,
  "Mike</w>": 9572,
  "Mikh": 47565,
  "Mikhaï": 41243,
  "Mil": 5498,
  "Milan</w>": 7582,
  "Miles</w>": 31457,
  "Mili": 19864,
  "Milieu</w>": 38709,
  "Mill": 10212,
  "Mille</w>": 24523,
  "Miller</w>": 17294,
  "Milli": 27263,
  "Millions</w>": 45480,
  "Millénaire</w>": 16197,
  "Mim": 25442,
  "Min": 3276,
  "Min</w>": 41710,
  "Mine</w>": 45933,
  "Mines</w>": 23729,
  "Mini": 23464,
  "Mini</w>": 17197,
  "Minim": 41795,
  "Minister</w>": 34461,
  "Ministre</w>": 5330,
  "Ministres</w>": 25430,
  "Ministère</w>": 3831,
  "Minnes": 50268,
  "Minnesota</w>": 28052,
  "Minsk</w>": 41903,
  "Mir": 7567,
  "Mirab": 40702,
  "Miran": 48485,
  "Miranda</w>": 40698,
  "Mire": 48436,
  "Mireille</w>": 32980,
  "Mis": 9697,
  "Mis</w>": 13575,
  "Mise</w>": 6931,
  "Mises</w>": 44751,
  "Miss": 29714,
  "Miss</w>": 10501,
  "Mission</w>": 7284,
  "Missions</w>": 38937,
  "Mississi": 48720,
  "Mississippi</w>": 36969,
  "Missouri</w>": 32070,
  "Mister</w>": 38645,
  "Mistral</w>": 43807,
  "Miséri": 45133,
  "Mit": 13360,
  "Mitch": 49350,
  "Mitchell</w>": 26589,
  "Mitsub": 50914,
  "Mitsubishi</w>": 43071,
  "Mittal</w>": 34620,
  "Mitterran": 50240,
  "Mitterrand</w>": 11915,
  "Mix": 23942,
  "Miy": 35161,
  "Mlle</w>": 14066,
  "Mme</w>": 1188,
  "Mo": 1779,
  "Mo</w>": 14635,
  "MoDem</w>": 33091,
  "Mob": 32386,
  "Mobi": 34618,
  "Mobil": 33295,
  "Mobile</w>": 15118,
  "Mobilité</w>": 39687,
  "Mod": 24570,
  "Modalités</w>": 34033,
  "Mode</w>": 12354,
  "Model</w>": 39083,
  "Modem</w>": 44223,
  "Moder": 25091,
  "Modern</w>": 42984,
  "Modi": 20916,
  "Modification</w>": 34506,
  "Modifier</w>": 33345,
  "Module</w>": 31387,
  "Modèle</w>": 16830,
  "Modèles</w>": 46385,
  "Moham": 47269,
  "Mohamed</w>": 8142,
  "Mohammad</w>": 34602,
  "Mohammed</w>": 13990,
  "Moi": 33685,
  "Moi</w>": 3148,
  "Moins</w>": 12185,
  "Mol": 8664,
  "Mold": 49409,
  "Moldavie</w>": 38147,
  "Moldova</w>": 44723,
  "Moli": 47513,
  "Molière</w>": 19445,
  "Mom": 22857,
  "Mon": 1728,
  "Mon</w>": 1397,
  "Monaco</w>": 7726,
  "Moncton</w>": 42334,
  "Monday</w>": 30425,
  "Monde": 35834,
  "Monde</w>": 3037,
  "Mondi": 32941,
  "Mondial</w>": 9980,
  "Mondiale</w>": 17738,
  "Mondiaux</w>": 32595,
  "Monet</w>": 42716,
  "Mongo": 48627,
  "Mongolie</w>": 29151,
  "Moni": 36077,
  "Monica</w>": 32630,
  "Monique</w>": 21360,
  "Moniteur</w>": 41265,
  "Monn": 47225,
  "Monnaie</w>": 44019,
  "Mono": 31820,
  "Monro": 48705,
  "Monroe</w>": 43188,
  "Mons</w>": 22456,
  "Monsanto</w>": 37079,
  "Monseigneur</w>": 28388,
  "Monsieur</w>": 1902,
  "Monster</w>": 42892,
  "Mont": 3426,
  "Mont-": 12742,
  "Mont-Blanc</w>": 41943,
  "Mont</w>": 10068,
  "Montage</w>": 41013,
  "Montagne</w>": 18629,
  "Montaigne</w>": 30129,
  "Montana</w>": 37500,
  "Montant</w>": 23778,
  "Montau": 48893,
  "Montauban</w>": 36502,
  "Monte": 21212,
  "Monte-": 48673,
  "Monte-Carlo</w>": 42480,
  "Monte</w>": 28455,
  "Montebourg</w>": 19434,
  "Monter": 32578,
  "Montes": 48936,
  "Montesqui": 49379,
  "Montesquieu</w>": 44931,
  "Monti": 28254,
  "Montmar": 49644,
  "Montmartre</w>": 30569,
  "Montmor": 49046,
  "Montmorency</w>": 42914,
  "Montpar": 50490,
  "Montparnasse</w>": 38324,
  "Montpel": 47135,
  "Montpellier</w>": 6418,
  "Montr": 21356,
  "Montre": 40953,
  "Montreuil</w>": 30572,
  "Montré": 41666,
  "Montréal": 48388,
  "Montréal</w>": 1597,
  "Montréalais</w>": 37724,
  "Monts</w>": 30791,
  "Monté": 49771,
  "Monténé": 49969,
  "Monténégro</w>": 24099,
  "Montérégie</w>": 46107,
  "Monument</w>": 39268,
  "Monuments</w>": 39477,
  "Moo": 29638,
  "Moody'</w>": 45082,
  "Moon</w>": 27674,
  "Moore</w>": 20050,
  "Mor": 2250,
  "Morbi": 49360,
  "Morbihan</w>": 27661,
  "More</w>": 27801,
  "Moreau</w>": 21631,
  "Morel</w>": 37251,
  "Morgan</w>": 13246,
  "Mori": 25635,
  "Morin</w>": 21091,
  "Morning</w>": 46449,
  "Morris</w>": 31380,
  "Morsi</w>": 25733,
  "Mort</w>": 16413,
  "Morvan</w>": 44803,
  "Mos": 9550,
  "Mosco": 46600,
  "Moscou</w>": 5053,
  "Moscovici</w>": 33199,
  "Moselle</w>": 15357,
  "Moss": 38993,
  "Mossoul</w>": 29910,
  "Mot": 15935,
  "Mot</w>": 13728,
  "Moteur</w>": 35890,
  "Motion</w>": 41443,
  "Moto": 31171,
  "Moto</w>": 30584,
  "Motor": 38623,
  "Motors</w>": 29052,
  "Mots</w>": 24469,
  "Mou": 3801,
  "Mouammar</w>": 39249,
  "Moubarak</w>": 25280,
  "Moul": 14506,
  "Moulin</w>": 18993,
  "Moulins</w>": 40600,
  "Moun": 44107,
  "Mountain</w>": 26000,
  "Mour": 25268,
  "Mourinho</w>": 36301,
  "Mouscr": 46315,
  "Mouss": 33655,
  "Moussa</w>": 28569,
  "Moust": 39389,
  "Mouv": 47857,
  "Mouvement</w>": 9256,
  "Moy": 18571,
  "Moyen-": 25148,
  "Moyen-Orient</w>": 7963,
  "Moyen</w>": 8645,
  "Moyenne</w>": 33420,
  "Moz": 47584,
  "Mozambique</w>": 27978,
  "Mozart</w>": 21471,
  "Mozilla</w>": 29737,
  "Moïse</w>": 17609,
  "Mr</w>": 7974,
  "Mrs</w>": 37319,
  "Mt</w>": 34299,
  "Mu": 3462,
  "Muham": 48933,
  "Muhammad</w>": 40211,
  "Mul": 11956,
  "Mulhouse</w>": 14861,
  "Muller</w>": 28771,
  "Multi": 13024,
  "Mum": 41582,
  "Mun": 12040,
  "Muni": 46816,
  "Munich</w>": 12006,
  "Munici": 47522,
  "Municipa": 49754,
  "Municipal</w>": 27074,
  "Municipalité</w>": 42690,
  "Munster</w>": 39007,
  "Mur": 11113,
  "Mur</w>": 31490,
  "Murat</w>": 40803,
  "Muriel</w>": 34021,
  "Murphy</w>": 34647,
  "Murray</w>": 16193,
  "Mus": 8339,
  "Museum</w>": 20229,
  "Musi": 14086,
  "Music</w>": 12571,
  "Musique</w>": 11749,
  "Muss": 24722,
  "Must": 20312,
  "Musul": 47877,
  "Musulmans</w>": 27799,
  "Musée</w>": 5360,
  "Muséum</w>": 41083,
  "Mutu": 22033,
  "Mutuelle</w>": 36111,
  "My": 5717,
  "My</w>": 13929,
  "Myan": 50416,
  "Myanmar</w>": 30805,
  "Myr": 43678,
  "Myriam</w>": 29835,
  "Mystère</w>": 45345,
  "MÉ": 13469,
  "MÉ</w>": 41160,
  "MÉDI": 33934,
  "Mâ": 27617,
  "Mère</w>": 12942,
  "Mé": 7334,
  "Méc": 40894,
  "Mécanique</w>": 41215,
  "Mécanisme</w>": 40069,
  "Méd": 23613,
  "Médaille</w>": 42503,
  "Médec": 49698,
  "Médecin</w>": 30364,
  "Médecine</w>": 23676,
  "Médecins</w>": 25920,
  "Médi": 10809,
  "Média</w>": 41529,
  "Médias</w>": 29534,
  "Médiateur</w>": 31656,
  "Médiathèque</w>": 44343,
  "Médicis</w>": 30078,
  "Méditerran": 46928,
  "Méditerranée</w>": 6448,
  "Médoc</w>": 45941,
  "Még": 24252,
  "Mél": 13457,
  "Mélang": 48632,
  "Mélanger</w>": 19795,
  "Mélangez</w>": 27843,
  "Mélanie</w>": 23483,
  "Mélenchon</w>": 9602,
  "Mém": 40687,
  "Mémoire</w>": 20694,
  "Mémoires</w>": 19338,
  "Mémorial</w>": 42960,
  "Mén": 20100,
  "Ménard</w>": 34478,
  "Mér": 45760,
  "Méri": 16396,
  "Méso": 44286,
  "Mét": 17911,
  "Métho": 42221,
  "Méthode</w>": 28111,
  "Méthodes</w>": 42104,
  "Méti": 43507,
  "Métiers</w>": 28535,
  "Métr": 48268,
  "Métro": 30771,
  "Métro</w>": 36731,
  "Métropole</w>": 20270,
  "Mété": 37205,
  "Météo</w>": 16066,
  "Même</w>": 1337,
  "Mü": 47418,
  "Müller</w>": 36677,
  "Mün": 46311,
  "N": 392,
  "N'</w>": 1476,
  "N-": 30537,
  "N-VA</w>": 37475,
  "N.": 9161,
  "N.</w>": 12168,
  "N1</w>": 29217,
  "N2</w>": 44576,
  "N</w>": 1240,
  "NA": 12697,
  "NA</w>": 27996,
  "NACE</w>": 38035,
  "NAN": 35651,
  "NANT</w>": 49530,
  "NAS": 41022,
  "NAS</w>": 45556,
  "NASA</w>": 25214,
  "NAT": 22458,
  "NATION": 38334,
  "NATIONAL</w>": 44039,
  "NATIONALE</w>": 28302,
  "NB</w>": 15435,
  "NBA</w>": 15899,
  "NBC</w>": 32729,
  "NC</w>": 22437,
  "ND": 46981,
  "NDLR</w>": 21975,
  "NE": 6531,
  "NE</w>": 3525,
  "NEE</w>": 47657,
  "NER</w>": 37317,
  "NES": 40313,
  "NES</w>": 17988,
  "NET": 35079,
  "NET</w>": 26390,
  "NEU": 30123,
  "NEW</w>": 26675,
  "NF</w>": 26102,
  "NFL</w>": 28571,
  "NH": 41326,
  "NI": 5695,
  "NI</w>": 23519,
  "NIE</w>": 43547,
  "NIS</w>": 45907,
  "NIVEAU</w>": 44031,
  "NL</w>": 22108,
  "NO": 5146,
  "NO</w>": 26031,
  "NOM</w>": 30289,
  "NON</w>": 15444,
  "NOR": 15648,
  "NOS</w>": 23916,
  "NOTE</w>": 26042,
  "NOTICE</w>": 34096,
  "NOTRE</w>": 24229,
  "NOU": 47834,
  "NOUS</w>": 14675,
  "NOUV": 39276,
  "NOUVE": 40957,
  "NOUVEAU</w>": 28488,
  "NOUVELLE</w>": 36527,
  "NOV": 48430,
  "NOVEMBRE</w>": 46338,
  "NPA</w>": 41645,
  "NPAPI</w>": 34813,
  "NPD</w>": 23868,
  "NR": 32963,
  "NRJ</w>": 32536,
  "NS</w>": 38409,
  "NSA</w>": 29595,
  "NT": 44077,
  "NT</w>": 35563,
  "NU": 24525,
  "NUM": 23937,
  "NY": 27416,
  "NY</w>": 36896,
  "Na": 8137,
  "Na</w>": 46291,
  "Nab": 23871,
  "Nad": 25879,
  "Nadal</w>": 20629,
  "Nadia</w>": 32908,
  "Nadine</w>": 30869,
  "Nag": 19625,
  "Nah": 37725,
  "Nai": 46724,
  "Nairobi</w>": 29741,
  "Naissance</w>": 36450,
  "Naj": 47214,
  "Najat</w>": 43681,
  "Nak": 24008,
  "Nam": 24601,
  "Nam</w>": 22063,
  "Nami": 49021,
  "Namibie</w>": 31084,
  "Namur</w>": 22702,
  "Nan": 19250,
  "Nancy</w>": 9452,
  "Nant": 32157,
  "Nanterre</w>": 19970,
  "Nantes</w>": 5810,
  "Naomi</w>": 45461,
  "Nap": 47811,
  "Naples</w>": 13028,
  "Napol": 39964,
  "Napoléon</w>": 7134,
  "Nar": 13904,
  "Narbonne</w>": 28074,
  "Naruto</w>": 38049,
  "Nas": 21562,
  "Nasa</w>": 43084,
  "Nasda": 50734,
  "Nasdaq</w>": 25058,
  "Nash": 49609,
  "Nashville</w>": 45691,
  "Nass": 42941,
  "Nasser</w>": 38208,
  "Nat": 11170,
  "Natalie</w>": 42217,
  "Nath": 45025,
  "Nathalie</w>": 9878,
  "Nathan</w>": 20755,
  "Nati": 48964,
  "Nation": 18329,
  "Nation</w>": 13506,
  "National</w>": 4285,
  "Nationale</w>": 6695,
  "Nations</w>": 1113,
  "Natixis</w>": 41651,
  "Natu": 48107,
  "Natur": 19811,
  "Natura</w>": 41261,
  "Nature</w>": 9650,
  "Naturel</w>": 38838,
  "Naturellement</w>": 29209,
  "Nau": 22684,
  "Nav": 14354,
  "Navarre</w>": 25674,
  "Navi": 20419,
  "Navy</w>": 26871,
  "Naz": 26365,
  "Nazaire</w>": 48952,
  "Nazar": 39731,
  "Nd": 24342,
  "Ndi": 48277,
  "Ndiaye</w>": 41499,
  "Ne": 3785,
  "Ne</w>": 1593,
  "Nec": 36060,
  "Nei": 32045,
  "Neige</w>": 33625,
  "Neil</w>": 23192,
  "Nelson</w>": 17096,
  "Nem": 21707,
  "Neptune</w>": 39891,
  "Ner": 25126,
  "Nes": 20854,
  "Nest": 49376,
  "Nestlé</w>": 43156,
  "Net": 12399,
  "Net</w>": 14053,
  "Netanyah": 47625,
  "Netanyahu</w>": 30989,
  "Netflix</w>": 22648,
  "Nettoy": 22996,
  "Nettoyage</w>": 39823,
  "Network</w>": 20820,
  "Neu": 7683,
  "Neuf</w>": 13827,
  "Neuilly</w>": 37387,
  "Neuve-": 43760,
  "Neuve</w>": 41267,
  "Nev": 42256,
  "Nevada</w>": 36764,
  "Nevers</w>": 40906,
  "New": 10940,
  "New-": 42062,
  "New-York</w>": 19593,
  "New</w>": 1427,
  "Newcastle</w>": 38001,
  "News</w>": 9077,
  "Newslet": 49978,
  "Newsletter</w>": 44802,
  "Newton</w>": 30839,
  "Nex": 45238,
  "Next": 45148,
  "Next</w>": 39619,
  "Nexus</w>": 42563,
  "Ney": 48406,
  "Neymar</w>": 31210,
  "Ngu": 27573,
  "Ni": 2330,
  "Ni</w>": 9984,
  "Nicar": 50137,
  "Nicaragua</w>": 29162,
  "Nice-": 46431,
  "Nice</w>": 5013,
  "Nichol": 47352,
  "Nicholas</w>": 38077,
  "Nick": 31200,
  "Nick</w>": 14125,
  "Nico": 25872,
  "Nico</w>": 30422,
  "Nicol": 18123,
  "Nicolas</w>": 1780,
  "Nicole</w>": 13587,
  "Nieder": 35609,
  "Nietz": 50269,
  "Nietzsche</w>": 30618,
  "Nieu": 44151,
  "Niger": 49060,
  "Niger</w>": 13944,
  "Nigeria</w>": 13503,
  "Night</w>": 24891,
  "Nigéri": 46897,
  "Nigéria</w>": 22764,
  "Nik": 14459,
  "Nike</w>": 18815,
  "Nikol": 31165,
  "Nikon</w>": 36949,
  "Nil</w>": 24837,
  "Nim": 34582,
  "Nin": 23213,
  "Nina</w>": 25950,
  "Nintendo</w>": 12028,
  "Niort</w>": 44179,
  "Nis": 30484,
  "Nissan</w>": 20209,
  "Niveau</w>": 13438,
  "Nixon</w>": 44985,
  "Nm</w>": 42843,
  "No": 3091,
  "No</w>": 8885,
  "Noah</w>": 29791,
  "Nob": 36834,
  "Nobel</w>": 12457,
  "Noel</w>": 31128,
  "Noir": 45915,
  "Noir</w>": 9239,
  "Noire</w>": 12800,
  "Noirs</w>": 15847,
  "Nois": 42193,
  "Nokia</w>": 26200,
  "Nol": 46867,
  "Nolan</w>": 46283,
  "Nom": 17414,
  "Nom</w>": 8718,
  "Nomb": 49670,
  "Nombre</w>": 8829,
  "Nombreuses</w>": 39426,
  "Nombreux</w>": 27036,
  "Nommé</w>": 33088,
  "Non": 24242,
  "Non-": 35092,
  "Non</w>": 1447,
  "Nor": 5478,
  "Nora</w>": 42504,
  "Norbert</w>": 36950,
  "Nord": 24838,
  "Nord-": 14281,
  "Nord-Est</w>": 29488,
  "Nord-Ouest</w>": 21382,
  "Nord-Pas-de-Calais</w>": 34479,
  "Nord</w>": 1190,
  "Normal</w>": 39352,
  "Normalement</w>": 24715,
  "Norman": 34772,
  "Norman</w>": 30721,
  "Normand</w>": 34058,
  "Normandie</w>": 8937,
  "Normands</w>": 45506,
  "Normes</w>": 45373,
  "North": 26250,
  "North</w>": 15408,
  "Norv": 50107,
  "Norvège</w>": 7394,
  "Norvégi": 33423,
  "Nos": 22610,
  "Nos</w>": 2552,
  "Not": 18319,
  "Notamment</w>": 17936,
  "Notant</w>": 45042,
  "Note</w>": 5928,
  "Notes</w>": 22102,
  "Notez</w>": 15618,
  "Notice</w>": 18019,
  "Notons</w>": 16617,
  "Notre-": 47825,
  "Notre-Dam": 50540,
  "Notre-Dame-": 47966,
  "Notre-Dame-de-": 41511,
  "Notre-Dame-des-": 41660,
  "Notre-Dame</w>": 10726,
  "Notre</w>": 1160,
  "Noté</w>": 26563,
  "Nou": 12557,
  "Nour": 24287,
  "Nous</w>": 150,
  "Nouv": 40707,
  "Nouveau": 32684,
  "Nouveau-": 49012,
  "Nouveau-Brunswick</w>": 16582,
  "Nouveau-Mexique</w>": 37295,
  "Nouveau</w>": 5706,
  "Nouveaux</w>": 22607,
  "Nouvel</w>": 13547,
  "Nouvelle-": 19639,
  "Nouvelle-Calédonie</w>": 22810,
  "Nouvelle-France</w>": 43416,
  "Nouvelle-Guinée</w>": 40984,
  "Nouvelle-Orléans</w>": 34921,
  "Nouvelle-Zélande</w>": 11019,
  "Nouvelle-Écosse</w>": 24038,
  "Nouvelle</w>": 6622,
  "Nouvelles</w>": 13250,
  "Nov": 14649,
  "Nov</w>": 26336,
  "Nova</w>": 29070,
  "Novak</w>": 35672,
  "Novembre</w>": 15562,
  "Novo": 43463,
  "Now</w>": 39422,
  "Noy": 35616,
  "Noé</w>": 35940,
  "Noël</w>": 2400,
  "Nu": 7096,
  "Nuit</w>": 16030,
  "Nuits</w>": 34807,
  "Nul</w>": 14064,
  "Num": 16222,
  "Numérique</w>": 31678,
  "Numéro</w>": 18704,
  "Nun": 37057,
  "Nunavut</w>": 42051,
  "Nur": 46716,
  "Nuremberg</w>": 41992,
  "Nutri": 38410,
  "Nutrithérapie</w>": 40657,
  "Ny": 15192,
  "Né": 13281,
  "Né</w>": 11304,
  "Néanmoins</w>": 4517,
  "Néc": 34916,
  "Née</w>": 26882,
  "Néer": 48577,
  "Néerlandais</w>": 27828,
  "Néo-": 39923,
  "Népal</w>": 22450,
  "Nîmes</w>": 18750,
  "O": 452,
  "O'</w>": 10249,
  "O-": 28348,
  "O.": 16264,
  "O.</w>": 14578,
  "O2</w>": 39190,
  "O</w>": 1269,
  "OA</w>": 37627,
  "OB": 17872,
  "OBJ": 50275,
  "OBJECTI": 46781,
  "OBJECTIFS</w>": 34737,
  "OBJET</w>": 26576,
  "OBLI": 38152,
  "OC": 11491,
  "OC</w>": 19452,
  "OCDE</w>": 9457,
  "OCTO": 50500,
  "OCTOBRE</w>": 41784,
  "OD</w>": 42237,
  "OF": 29256,
  "OF</w>": 33000,
  "OFF": 26165,
  "OFFI": 35612,
  "OFFICE</w>": 30300,
  "OFFRE</w>": 32960,
  "OG": 16012,
  "OGM</w>": 15265,
  "OH</w>": 41681,
  "OI": 7762,
  "OIN</w>": 42393,
  "OIR</w>": 20938,
  "OIRE</w>": 14606,
  "OIRES</w>": 41280,
  "OIS</w>": 14853,
  "OIT</w>": 17210,
  "OK": 44761,
  "OK</w>": 11477,
  "OL": 14568,
  "OL</w>": 14624,
  "OM": 15410,
  "OM</w>": 9461,
  "OMC</w>": 13666,
  "OMD</w>": 37164,
  "OMI": 46748,
  "OMPI</w>": 20347,
  "OMS</w>": 11849,
  "ON": 3070,
  "ON</w>": 3067,
  "ONE</w>": 15869,
  "ONF</w>": 45419,
  "ONG</w>": 4941,
  "ONN": 10286,
  "ONNE</w>": 22452,
  "ONNEMENT</w>": 30645,
  "ONS</w>": 7953,
  "ONT</w>": 15473,
  "ONU": 21953,
  "ONU</w>": 2687,
  "ONUDI</w>": 42803,
  "OO": 28529,
  "OP": 9720,
  "OP</w>": 27257,
  "OPA</w>": 41149,
  "OPC": 50541,
  "OPCVM</w>": 45796,
  "OPER": 32142,
  "OPP": 48670,
  "OPÉR": 46428,
  "OR": 3463,
  "OR</w>": 18315,
  "ORDIN": 32158,
  "ORGAN": 47435,
  "ORGANIS": 41904,
  "ORGANISATION</w>": 34167,
  "ORI": 10207,
  "ORIG": 47845,
  "ORIGINE</w>": 38852,
  "ORK</w>": 49406,
  "ORPI</w>": 41157,
  "ORS</w>": 21210,
  "ORT</w>": 30101,
  "OS": 12982,
  "OS</w>": 5486,
  "OSCE</w>": 28894,
  "OSDH</w>": 33167,
  "OSI": 48216,
  "OSITION</w>": 41305,
  "OT": 27015,
  "OT</w>": 16459,
  "OTAN</w>": 9647,
  "OTTA": 50737,
  "OTTAWA</w>": 38887,
  "OU": 4570,
  "OU</w>": 6351,
  "OUI</w>": 25376,
  "OUR": 21788,
  "OUR</w>": 17965,
  "OURCES</w>": 48873,
  "OUS</w>": 40684,
  "OUT</w>": 45956,
  "OUTI": 38102,
  "OUV": 15563,
  "OUVER": 39726,
  "OUVERTURE</w>": 45621,
  "OV": 23124,
  "Oak": 35870,
  "Ob": 7803,
  "Obama</w>": 3590,
  "Ober": 14205,
  "Objecti": 48382,
  "Objectif</w>": 11365,
  "Objectifs</w>": 14958,
  "Objet</w>": 16124,
  "Objets</w>": 40354,
  "Obli": 22893,
  "Obs</w>": 41512,
  "Observ": 16609,
  "Observateur</w>": 31206,
  "Observatoire</w>": 11547,
  "Obtenez</w>": 14718,
  "Oc": 19472,
  "Occi": 48667,
  "Occident": 46819,
  "Occident</w>": 7674,
  "Occidentale</w>": 40369,
  "Occidentaux</w>": 23999,
  "Occitanie</w>": 43359,
  "Occu": 46811,
  "Occupation</w>": 38559,
  "Oce": 46812,
  "Ocean</w>": 39184,
  "Oct": 27892,
  "Oct</w>": 26973,
  "Octave</w>": 38710,
  "Octobre</w>": 14787,
  "Océ": 34555,
  "Océan</w>": 17541,
  "Océanie</w>": 37247,
  "Océans</w>": 41143,
  "Od": 32703,
  "Odi": 48072,
  "Odile</w>": 30387,
  "Ody": 47679,
  "Odyssée</w>": 45015,
  "Of</w>": 17921,
  "Off": 12072,
  "Off</w>": 44558,
  "Offi": 29081,
  "Office</w>": 3693,
  "Offici": 27478,
  "Officiel</w>": 39347,
  "Officiellement</w>": 38612,
  "Offre</w>": 18298,
  "Offres</w>": 42800,
  "Oh": 35621,
  "Oh</w>": 9210,
  "Ohio</w>": 24097,
  "Oil</w>": 38684,
  "Ois": 26244,
  "Oise</w>": 13340,
  "Ok": 18373,
  "Ok</w>": 20037,
  "Okla": 50549,
  "Oklahoma</w>": 37356,
  "Ol": 8537,
  "Old</w>": 25537,
  "Ole": 45026,
  "Olga</w>": 40925,
  "Oli": 14767,
  "Oliver</w>": 21860,
  "Olivia</w>": 28899,
  "Olivier</w>": 4283,
  "Olym": 33182,
  "Olympe</w>": 44085,
  "Olympi": 29567,
  "Olympia</w>": 33362,
  "Olympique</w>": 17186,
  "Olympiques</w>": 16167,
  "Om": 11367,
  "Oman</w>": 36963,
  "Omar</w>": 16161,
  "Ome": 33558,
  "Omer</w>": 46479,
  "On": 6560,
  "On</w>": 141,
  "Oncle</w>": 46521,
  "One": 38360,
  "One</w>": 7837,
  "Online</w>": 19655,
  "Ont</w>": 30870,
  "Ontari": 46637,
  "Ontario</w>": 5474,
  "Onu</w>": 43353,
  "Onze</w>": 38891,
  "Op": 10075,
  "Opel</w>": 30955,
  "Open": 17410,
  "Open</w>": 8423,
  "Oper": 41044,
  "Opera</w>": 39398,
  "Oph": 35344,
  "Opini": 33647,
  "Optez</w>": 28631,
  "Opti": 31543,
  "Optim": 29656,
  "Option</w>": 30793,
  "Options</w>": 36526,
  "Opér": 30548,
  "Opéra</w>": 13075,
  "Opération</w>": 22694,
  "Opérations</w>": 37275,
  "Or": 2513,
  "Or</w>": 1315,
  "Oracle</w>": 29574,
  "Oran": 30079,
  "Oran</w>": 27647,
  "Orange</w>": 8444,
  "Orch": 37424,
  "Orchestre</w>": 21342,
  "Ordin": 28023,
  "Ordonn": 41919,
  "Ordre</w>": 7799,
  "Ore": 45004,
  "Oreg": 50499,
  "Oregon</w>": 37488,
  "Organ": 9956,
  "Organe</w>": 37611,
  "Organisation</w>": 2446,
  "Organisme</w>": 43268,
  "Organismes</w>": 30949,
  "Ori": 13272,
  "Orient": 21337,
  "Orient</w>": 8413,
  "Orientales</w>": 48684,
  "Orientation</w>": 44388,
  "Orig": 48025,
  "Origin": 37580,
  "Originaire</w>": 30970,
  "Original</w>": 40385,
  "Origine</w>": 33436,
  "Orland": 49905,
  "Orlando</w>": 29025,
  "Orly</w>": 35808,
  "Orlé": 47238,
  "Orléans</w>": 10045,
  "Orne</w>": 33277,
  "Orph": 45856,
  "Orsay</w>": 25050,
  "Orth": 43628,
  "Oréal</w>": 31924,
  "Os": 8453,
  "Osaka</w>": 46432,
  "Oscar</w>": 13269,
  "Oscars</w>": 25719,
  "Oslo</w>": 26385,
  "Oss": 30707,
  "Ost": 39039,
  "Ostende</w>": 45928,
  "Ot": 20703,
  "Otan</w>": 19500,
  "Ott": 30433,
  "Otta": 48754,
  "Ottawa</w>": 5661,
  "Otto</w>": 30845,
  "Ou": 3708,
  "Ou</w>": 3167,
  "Ouag": 50330,
  "Ouagadougou</w>": 36811,
  "Ouais</w>": 20044,
  "Ouattara</w>": 19974,
  "Oubli": 26567,
  "Ouellet</w>": 36521,
  "Ouest-": 45603,
  "Ouest</w>": 3132,
  "Oug": 49096,
  "Ouganda</w>": 20187,
  "Oui": 28742,
  "Oui</w>": 2062,
  "Oul": 41409,
  "Ould</w>": 40797,
  "Oum": 42534,
  "Our": 23458,
  "Ours</w>": 36961,
  "Ous": 40528,
  "Ouss": 48715,
  "Oussama</w>": 42467,
  "Out": 24515,
  "Out</w>": 31198,
  "Outa": 50605,
  "Outaouais</w>": 27117,
  "Outi": 47561,
  "Outil</w>": 44976,
  "Outils</w>": 21646,
  "Outlook</w>": 43857,
  "Outre-": 35694,
  "Outre-mer</w>": 42963,
  "Outre</w>": 4479,
  "Ouv": 33918,
  "Ouver": 49410,
  "Ouvert</w>": 25633,
  "Ouverture</w>": 21020,
  "Ouvr": 47163,
  "Ouvrage</w>": 45970,
  "Ouvrages</w>": 46347,
  "Ouvrez</w>": 35170,
  "Ouvrir</w>": 32481,
  "Ouz": 43676,
  "Ouzbé": 51103,
  "Ouzbékistan</w>": 33898,
  "Over": 24509,
  "Ow": 35479,
  "Owen</w>": 36678,
  "Ox": 26329,
  "Oxford</w>": 22537,
  "Oy": 35135,
  "Oz": 33893,
  "Où</w>": 7148,
  "P": 290,
  "P'</w>": 35163,
  "P-": 7879,
  "P.": 6919,
  "P.</w>": 4594,
  "P</w>": 1010,
  "PA": 2921,
  "PA</w>": 6729,
  "PAC</w>": 14147,
  "PACA</w>": 37335,
  "PACE</w>": 48174,
  "PAD</w>": 25326,
  "PAG": 23910,
  "PAGE": 13736,
  "PAGE</w>": 28133,
  "PAGEC": 46237,
  "PAGES</w>": 48585,
  "PAGNE</w>": 44067,
  "PAI": 27302,
  "PAL</w>": 40948,
  "PAM</w>": 22944,
  "PAN": 21413,
  "PAPI</w>": 50395,
  "PAR": 4934,
  "PAR</w>": 6992,
  "PARATION</w>": 42185,
  "PARENTS</w>": 30431,
  "PARIS</w>": 8409,
  "PART</w>": 45702,
  "PARTEN": 31915,
  "PARTI": 26752,
  "PARTICI": 42654,
  "PARTICU": 48640,
  "PARTICULI": 28106,
  "PARTIE</w>": 25545,
  "PAS": 42004,
  "PAS</w>": 7512,
  "PASS": 37487,
  "PATRI": 34211,
  "PAY": 33550,
  "PAYS</w>": 25161,
  "PB</w>": 43854,
  "PC": 14182,
  "PC</w>": 2234,
  "PCC</w>": 40881,
  "PCF</w>": 17773,
  "PCI</w>": 44784,
  "PCR</w>": 39068,
  "PCT</w>": 32879,
  "PD": 9477,
  "PD</w>": 24705,
  "PDF</w>": 11085,
  "PDG</w>": 7991,
  "PE": 5391,
  "PE</w>": 5933,
  "PEN": 18390,
  "PEN</w>": 45033,
  "PEND": 47853,
  "PENDANT</w>": 38468,
  "PEP</w>": 44502,
  "PER": 7301,
  "PER</w>": 27236,
  "PERS": 41605,
  "PERSONN": 26379,
  "PERSONNES</w>": 34040,
  "PES</w>": 17675,
  "PESC</w>": 41522,
  "PETI": 32162,
  "PETIT</w>": 37949,
  "PEU": 19834,
  "PF</w>": 22021,
  "PG</w>": 19756,
  "PGA</w>": 43245,
  "PH": 6739,
  "PH</w>": 23744,
  "PHO": 48793,
  "PHOTO": 34345,
  "PHOTO</w>": 46178,
  "PHP</w>": 28978,
  "PHY": 35437,
  "PI": 3711,
  "PI</w>": 10069,
  "PIB</w>": 4420,
  "PIC</w>": 30357,
  "PIERRE</w>": 33937,
  "PIN": 44706,
  "PIS": 30329,
  "PJ</w>": 28765,
  "PK": 44862,
  "PK</w>": 45729,
  "PKK</w>": 38603,
  "PL": 5231,
  "PL</w>": 21093,
  "PLA": 23797,
  "PLAC": 40512,
  "PLACE</w>": 36980,
  "PLAN": 43891,
  "PLAN</w>": 22803,
  "PLE": 44812,
  "PLE</w>": 40333,
  "PLO": 33495,
  "PLOI": 49451,
  "PLQ</w>": 41227,
  "PLU": 44322,
  "PLU</w>": 38074,
  "PLUS</w>": 10941,
  "PM": 14256,
  "PM</w>": 13778,
  "PMA</w>": 22017,
  "PME</w>": 4150,
  "PMI</w>": 23019,
  "PN": 10168,
  "PN</w>": 22204,
  "PNB</w>": 41809,
  "PNUD</w>": 14518,
  "PNUE</w>": 29912,
  "PO": 3665,
  "PO</w>": 18831,
  "POI": 40410,
  "POIN": 42905,
  "POINT</w>": 40253,
  "POLI": 23374,
  "POLITIQUE</w>": 18976,
  "PON": 18720,
  "POP</w>": 41565,
  "POR": 9791,
  "PORT</w>": 41375,
  "POS</w>": 47079,
  "POSI": 46664,
  "POSITION</w>": 34364,
  "POU": 19009,
  "POUR": 36657,
  "POUR</w>": 3177,
  "POURQUOI</w>": 44253,
  "PP": 11561,
  "PP</w>": 11683,
  "PPE</w>": 21919,
  "PPP</w>": 39097,
  "PQ</w>": 18253,
  "PR": 5693,
  "PR</w>": 13466,
  "PRATIQUE</w>": 38454,
  "PRE": 6639,
  "PREMI": 24726,
  "PREMIER</w>": 42261,
  "PREN": 39818,
  "PRENDRE</w>": 37904,
  "PRES": 28124,
  "PRES</w>": 46437,
  "PRESENTATION</w>": 32788,
  "PRESSE</w>": 21460,
  "PREST": 45226,
  "PRI": 12288,
  "PRIN": 41497,
  "PRINCI": 41567,
  "PRINCIPA": 36142,
  "PRISE</w>": 39647,
  "PRIX</w>": 25300,
  "PRO": 4059,
  "PRO</w>": 20845,
  "PROCE": 42725,
  "PRODUCTION</w>": 44036,
  "PRODUI": 49536,
  "PRODUIT</w>": 36249,
  "PRODUITS</w>": 24014,
  "PROFES": 48291,
  "PROFESSI": 49034,
  "PROFESSIONN": 35467,
  "PROFESSIONNEL</w>": 41881,
  "PROFESSIONNELLE</w>": 33757,
  "PROGRA": 45771,
  "PROGRAMME</w>": 21084,
  "PROJET</w>": 17656,
  "PROJETS</w>": 43067,
  "PROMO": 39318,
  "PROPOS</w>": 41519,
  "PROPRI": 36068,
  "PROT": 49280,
  "PROTECTION</w>": 28913,
  "PRÉ": 11087,
  "PRÉS": 30607,
  "PRÉSENTATION</w>": 31319,
  "PS": 6112,
  "PS3</w>": 21960,
  "PS4</w>": 27349,
  "PS</w>": 1704,
  "PSA</w>": 14685,
  "PSE</w>": 30242,
  "PSG</w>": 7126,
  "PSN</w>": 42738,
  "PSP</w>": 30088,
  "PT": 21086,
  "PT</w>": 13553,
  "PTION</w>": 36869,
  "PU": 10064,
  "PU</w>": 26117,
  "PUBLI": 22740,
  "PUBLIC</w>": 30335,
  "PUBLICS</w>": 41404,
[...]
